{
  "Ġpartial": 13527,
  "ographical": 16533,
  "ĠConfeder": 14246,
  "Ġpop": 1291,
  "Ġimporting": 30931,
  "uk": 3001,
  "sch": 20629,
  "LAY": 22967,
  "Ġmissiles": 11306,
  "Ġnull": 12740,
  "Ġimpose": 11917,
  "Ġreal": 997,
  "arest": 13215,
  "ĠKom": 31476,
  "BB": 18169,
  "uther": 11214,
  "Ġnationally": 15252,
  "Ġsurpassed": 24801,
  "aph": 3080,
  "Ġinstance": 4446,
  "Ġ107": 22678,
  "ĠWhenever": 24309,
  "Ġstatutory": 24064,
  "Ġgrows": 12989,
  "1994": 27317,
  "ĠRi": 22737,
  "Ġobviously": 5516,
  "use": 1843,
  "Ġautomated": 14646,
  "Ġemphas": 5908,
  "Ġthousands": 3476,
  "noon": 5421,
  "Ġwants": 2918,
  "Ġneural": 15413,
  "ception": 4700,
  "ĠIg": 27652,
  "Ġpast": 1449,
  "Ġpatch": 9135,
  "Ġgrains": 22843,
  "Ġfed": 11429,
  "Ġfate": 9423,
  "Ġactress": 11953,
  "ghan": 4438,
  "Ġpossessed": 20446,
  "enge": 3313,
  "Ġdictates": 30838,
  "'.": 8451,
  "Ġcur": 1037,
  "urity": 1443,
  "BLE": 25698,
  "Ġstressful": 24199,
  "gments": 12086,
  "ĠTobacco": 29035,
  "Ġfilib": 23084,
  "Ġagency": 3463,
  "umably": 27535,
  "inh": 23982,
  "ĠPir": 11632,
  "aternity": 16236,
  "Notes": 17480,
  "ators": 1945,
  "ĠGn": 25486,
  "wyn": 25252,
  "Ġeditions": 21803,
  "Ġmerit": 15875,
  "ĠLaud": 27563,
  "Los": 25871,
  "better": 24272,
  "ĠRevel": 28804,
  "Ġroll": 4941,
  "Ġsunny": 25108,
  "bat": 11063,
  "Ġperforms": 18422,
  "ĠYugoslav": 26898,
  "Ġmakes": 1761,
  "Ġmasks": 20775,
  "wheel": 22496,
  "ĠLSU": 22635,
  "Ġlevels": 3069,
  "nic": 6517,
  "Ġbunch": 6967,
  "lig": 4782,
  "ĠStra": 15238,
  "ĠGuns": 27945,
  "Ġmanifest": 9735,
  "Ġtha": 19365,
  "fire": 6895,
  "rugu": 24969,
  "Ġconferences": 16486,
  "Ġtorn": 11379,
  "ĠWand": 29791,
  "ĠRepresentatives": 14624,
  "atinum": 19865,
  "ĠVisa": 30517,
  "Ret": 14335,
  "Ġbin": 9714,
  "ITH": 14405,
  "Ġalmost": 1856,
  "ĠPoint": 8071,
  "Ġneo": 15573,
  "policy": 30501,
  "Ġthermal": 18347,
  "umblr": 15268,
  "Ġillnesses": 21426,
  "east": 23172,
  "Ġprosperity": 16552,
  "mer": 538,
  "dan": 23062,
  "Ġlanded": 10307,
  "#": 3,
  "aces": 2088,
  "Ġspray": 11613,
  "taker": 28578,
  "Ġreduced": 5519,
  "Ġvs": 4257,
  "rape": 13933,
  "Ġsweet": 6793,
  "eu": 12760,
  "Ġemerging": 9635,
  "ĠBehind": 20836,
  "Ġsch": 5066,
  "3": 19,
  "ĠPlain": 29785,
  "ordan": 6503,
  "van": 9474,
  "elsius": 28394,
  "Ġsubscript": 30175,
  "Residents": 31810,
  "Ġgau": 15251,
  "utory": 22902,
  "Ġfast": 3046,
  "ĠMcDonnell": 29531,
  "Ġsqueeze": 20269,
  "Ġleague": 3579,
  "Ġdeleted": 14393,
  "Ġreprodu": 8401,
  "ĠAvenue": 7556,
  "ithe": 28166,
  "jan": 12192,
  "Ġstrateg": 4660,
  "ĠArizona": 6657,
  "Ġunconventional": 27007,
  "Ġdeliberately": 12575,
  "Ġnetworking": 15768,
  "ANN": 23983,
  "Ġpetrol": 26632,
  "Ġassessments": 20621,
  "ĠDise": 15930,
  "Ġchamp": 20953,
  "Ġdeclare": 12635,
  "Ġpizza": 13421,
  "Ġentreprene": 9269,
  "ĠDomain": 30932,
  "Ġlock": 6297,
  "Ġspectacle": 22649,
  "Ġremix": 29637,
  "Ġcultural": 5446,
  "Ġqueries": 19262,
  "Ġreceived": 2547,
  "ĩ": 186,
  "Ġ2000": 4884,
  "ĠBol": 10313,
  "Ġpromises": 8797,
  "Ġimagine": 5205,
  "awa": 6590,
  "rons": 11495,
  "Ġapartheid": 27408,
  "Ġunited": 14817,
  "Ġhumiliation": 28942,
  "Ġbargaining": 18646,
  "Ġchill": 20066,
  "Ġaggreg": 14277,
  "Ġacadem": 5064,
  "lide": 23587,
  "Ġfuturistic": 29296,
  "LAND": 29388,
  "Ġdiscern": 22924,
  "ĠPoints": 16918,
  "Ġtypically": 5724,
  "Ġhorse": 8422,
  "Ġagents": 5899,
  "ĠSteph": 30320,
  "Ġminimal": 10469,
  "mn": 12529,
  "Ġdeductions": 31768,
  "Ġbreeding": 18219,
  "TS": 6010,
  "Ġsupremac": 17517,
  "Ġfollow": 1078,
  "Ġseparat": 18152,
  "Ġperfection": 21175,
  "Ġvain": 26487,
  "Ġmedical": 3081,
  "Prime": 21104,
  "Ġweakness": 10088,
  "Ġfears": 8340,
  "amed": 1995,
  "Ġexecution": 9482,
  "ĠGh": 10872,
  "Ġensuring": 11782,
  "Ġeuros": 15841,
  "2008": 14462,
  "omp": 3068,
  "Ġinvisible": 15327,
  "ATT": 24608,
  "Ġpiled": 29219,
  "Ġclothes": 8618,
  "Cloud": 18945,
  "Ġsanct": 14512,
  "ĠPirates": 20878,
  "Ġwaivers": 30770,
  "ĠSurvivor": 28917,
  "Join": 19585,
  "ĠPeace": 11937,
  "ĠJag": 28260,
  "ĠDev": 6194,
  "PP": 8803,
  "OO": 15356,
  "Ġbullying": 17075,
  "ĠGeneva": 18009,
  ".)": 2055,
  "Ġquantum": 12242,
  "ieves": 18907,
  "Ġredes": 18407,
  "Ġsank": 27834,
  "redited": 19570,
  "ept": 7327,
  "lant": 4391,
  "ĠShannon": 23927,
  "alls": 5298,
  "ĠLetters": 27098,
  "Making": 21293,
  "ĠDogs": 23601,
  "Ġbadge": 22112,
  "Ġthrill": 24594,
  "Ġrebuilding": 19956,
  "Kar": 30739,
  "Ġbelieved": 4078,
  "ĠChang": 23284,
  "ĠShop": 18695,
  "ĠSund": 2795,
  "ĠHBO": 14790,
  "founded": 23325,
  "ĠRamos": 28150,
  "Ġconvened": 31538,
  "Ġassass": 9485,
  "Ġloves": 10043,
  "Ġuniversities": 8967,
  "ourced": 24995,
  "Ġgames": 1567,
  "baum": 21504,
  "ĠDes": 3331,
  "gency": 4571,
  "kel": 6523,
  "you": 6645,
  "Ġdishonest": 25416,
  "Analy": 29595,
  "ĠLemon": 30076,
  "Ġdispos": 12623,
  "ovakia": 25006,
  "Ġintake": 14253,
  "Ġ61": 11482,
  "ĠPubl": 15972,
  "Ġchoose": 4094,
  "Ġspanning": 27670,
  "Ġlob": 22009,
  "Ġgame": 894,
  "Ice": 29773,
  "Ġnavig": 18234,
  "Ġpet": 5024,
  "Ġunderwear": 25834,
  "orney": 3665,
  "ĠBulls": 13874,
  "ĠPalestinians": 9602,
  "Ġintriguing": 16445,
  "Ġproduce": 4178,
  "Ġhumility": 30906,
  "Americ": 4583,
  "ĠEvidence": 26423,
  "Ġtrain": 4245,
  "bre": 4725,
  "lly": 10247,
  "ISE": 28753,
  "omach": 11931,
  "ĠShutterstock": 30004,
  "Ġcolours": 18970,
  "ĠTesting": 29161,
  "untu": 11181,
  "sm": 7209,
  "Ġindicate": 7864,
  "Ġwinds": 13108,
  "Ġsponsorship": 22419,
  "kan": 24651,
  "68": 6555,
  "Ġeve": 23897,
  "Ġmusical": 8813,
  "Ġrevenues": 11469,
  "Kit": 20638,
  "Ġconverts": 25824,
  "ORTS": 30696,
  "ĠHuck": 22119,
  "sec": 2213,
  "Ġdoes": 828,
  "ĠPascal": 30543,
  "Ġgenuinely": 14629,
  "Ġdifficulty": 9509,
  "Sar": 20403,
  "Ġrelated": 3754,
  "Ġcolumn": 6622,
  "ĠMalays": 11424,
  "Ġdescended": 22543,
  "Ġquit": 10550,
  "Ġimprove": 2848,
  "Ġdop": 22648,
  "Ġtrouble": 5702,
  "Ġappearing": 11668,
  "ĠWordPress": 18383,
  "Ġegregious": 26703,
  "Ġspawned": 25787,
  "Ġventures": 27276,
  "Ġlyn": 27421,
  "ĠCut": 13469,
  "isoft": 28271,
  "ĠTall": 25562,
  "racuse": 24173,
  "oy": 691,
  "Ġskept": 8987,
  "Ġcorporations": 8069,
  "ĠPoly": 15518,
  "Ġden": 2517,
  "Ġgor": 25628,
  "ĠColor": 5512,
  "ĠMinds": 31693,
  "Ġquery": 14201,
  "ĠDown": 6625,
  "inst": 10682,
  "Soft": 27174,
  "ĠMitchell": 12044,
  "err": 11501,
  "Ġenjoy": 2886,
  "Ġstuck": 7312,
  "sto": 31926,
  "itiz": 2612,
  "Ġbalcony": 30423,
  "ĠAhmad": 16956,
  "intendo": 8464,
  "Ġrobbery": 15936,
  "Ġimply": 19459,
  "ĠChristopher": 11101,
  "NF": 23037,
  "qualified": 21742,
  "Ð±": 21688,
  "Ġlegislation": 4349,
  "exe": 24782,
  "ĠBeginning": 29854,
  "Ġart": 1159,
  "Ġstill": 909,
  "Ġseven": 3133,
  "Ġinvent": 8170,
  "Foot": 21502,
  "ĠFriend": 9944,
  "ART": 10595,
  "ajor": 1308,
  "ĠSunder": 26974,
  "Ġgenerates": 17651,
  "Ġundertaking": 24713,
  "Ġwelcome": 6811,
  "Ġammunition": 14301,
  "Ġcompetitive": 6513,
  "akens": 28715,
  "Ġroster": 7352,
  "Ġbul": 4814,
  "ĠDB": 22713,
  "Ġles": 8856,
  "Ġgot": 1189,
  "Ġmalware": 15038,
  "ĠHonest": 26496,
  "Ġinput": 6233,
  "Ġthrows": 12834,
  "azingly": 23615,
  "ALE": 27153,
  "Ġfortun": 14909,
  "ĠPrime": 5117,
  "ĠUpdated": 21486,
  "sk": 12108,
  "channel": 29233,
  "ĠAlgeria": 29859,
  "ES": 2538,
  "Ġbetter": 1261,
  "Ġindic": 2762,
  "Ġtherapies": 27005,
  "Ġobjected": 24222,
  "Prem": 27088,
  "OM": 3734,
  "ĠFamily": 8645,
  "ru": 560,
  "Ġerad": 19845,
  "Amazon": 20747,
  "ĠGard": 11310,
  "caps": 25134,
  "Ġguarante": 8336,
  "Ġechoed": 18121,
  "ĠJustice": 4263,
  "ulously": 16631,
  "ĠMaple": 20473,
  "Ġdynam": 5980,
  "Ġfifty": 16522,
  "heast": 8193,
  "thood": 10725,
  "Ġexist": 2100,
  "ĠTeachers": 27212,
  "Ġprosecutions": 29914,
  "Ġsle": 3444,
  "??": 8681,
  "ĠBab": 11854,
  "ĠCelt": 13833,
  "Ġdebacle": 30201,
  "ori": 11604,
  "Ġverify": 11916,
  "Va": 30483,
  "ĠFargo": 22120,
  "Turkey": 24522,
  "ĠKauf": 31841,
  "ĠBru": 7193,
  "laughs": 23596,
  "Ġpoint": 900,
  ">>>>>>>>": 28263,
  "amiliar": 17714,
  "ĠAtlantic": 8907,
  "ĠStap": 28054,
  "three": 15286,
  "osaurs": 18686,
  "ĠRic": 14989,
  "eks": 2289,
  "expl": 21392,
  "Trump": 4903,
  "ĠLiberal": 9446,
  "hin": 25094,
  "Ġboot": 7203,
  "Sad": 22477,
  "anna": 8316,
  "Ġbasically": 5576,
  "ãĢ": 7476,
  "Ġlineback": 12223,
  "ĠWoody": 31767,
  "ified": 1506,
  "large": 11071,
  "pector": 20349,
  "ĠChicago": 4101,
  "Eff": 23511,
  "Ġswit": 10427,
  "ĠMass": 5332,
  "Ġmamm": 12568,
  "Ġrad": 2272,
  "Ġinfluenza": 30479,
  "ĠBailey": 18461,
  "ĠLine": 9052,
  "American": 6133,
  "ĠLiam": 27384,
  "lasses": 30755,
  "ĠJorge": 27845,
  "brand": 19842,
  "Ġtolerance": 14557,
  "ĠACL": 14272,
  "Ġfeared": 13319,
  "Ġconstructing": 26529,
  "ĠCaliforn": 28495,
  "Ġrevolt": 21695,
  "eds": 5553,
  "Ġeng": 1665,
  "VE": 8978,
  "ĠDEL": 27522,
  "ĠWhe": 6265,
  ")|": 15016,
  "ĠZak": 28016,
  "boarding": 21480,
  "EC": 3733,
  "Ġchampionship": 7496,
  "eb": 1870,
  "uity": 14952,
  "plate": 8773,
  "atics": 17015,
  "ĠShakespeare": 18545,
  "Ġgra": 5814,
  "ĠEgg": 20764,
  "ume": 2874,
  "culation": 15680,
  "ÏĤ": 24972,
  "ollo": 16663,
  "often": 25003,
  "mediate": 28098,
  "first": 11268,
  "ĠTa": 12735,
  "ĠMun": 10618,
  "grid": 27752,
  "Ġspurred": 27032,
  "ĠCorey": 20340,
  "Ġdwar": 16400,
  "ĠSame": 20095,
  "Ġcontinuity": 22819,
  "ĠJess": 12123,
  "ĠDJ": 12444,
  "ĠClinic": 27503,
  "oso": 29536,
  "Ġscratch": 12173,
  "ĠNate": 21620,
  "Users": 28391,
  "ĠUruguay": 30674,
  "Ġsells": 14525,
  "Ġend": 833,
  "Ġprolet": 24302,
  "Ġtrajectory": 19149,
  "Ġconditioning": 19598,
  "ĠRegular": 31421,
  "Ġcoating": 30733,
  "Ġcharging": 10724,
  "Ġsimilar": 2078,
  "Ġsed": 9912,
  "Ġther": 11522,
  "Stud": 13437,
  "ĠValley": 6435,
  "ĠMagn": 16924,
  "Ġaccessed": 17685,
  "Ġensued": 31774,
  "ĠR": 346,
  "ues": 857,
  "ourage": 27031,
  "Ġinadequ": 16330,
  "Ob": 6345,
  "indust": 18834,
  "Ġdynasty": 23492,
  "Ġreigning": 30244,
  "rowd": 3414,
  "ĠConserv": 5561,
  "ĠGas": 14740,
  "¾": 123,
  "ĠSmart": 11880,
  "Ġbirds": 9596,
  "Ġanyone": 2507,
  "Ġcamping": 22921,
  "Ġexcuse": 11362,
  "ĠHard": 8139,
  "ĠAir": 3657,
  "Ġadop": 4071,
  "lection": 1415,
  "Ġunderstands": 12282,
  "ause": 628,
  "steps": 18905,
  "Ġtyp": 2295,
  "ĠChance": 12527,
  "ĠÎ¼": 17933,
  "Ġaccount": 1837,
  "Ġimmun": 18018,
  "ĠRaspberry": 22714,
  "amphetamine": 31128,
  "ĠMirror": 20974,
  "ARL": 31341,
  "Asked": 14173,
  "lam": 2173,
  "heat": 29990,
  "Luc": 23527,
  "Ġ63": 11130,
  "Ġtrust": 3622,
  "ĠThousands": 26825,
  "ĠLeaf": 13493,
  "Ġsponsors": 14939,
  "Ġpharmac": 22894,
  "ĠHind": 8945,
  "Õ": 144,
  "ĠFellow": 26480,
  "ĠProperty": 24565,
  "center": 19695,
  "Ġmusicians": 13891,
  "Toronto": 25870,
  "great": 16267,
  "athering": 25182,
  "ring": 1884,
  "Ġprovisions": 11143,
  "Ġyielded": 23893,
  "OSE": 16711,
  "hel": 2704,
  "pite": 2168,
  "apter": 5583,
  "Ġpolitics": 3722,
  "xon": 19502,
  "Ġconfess": 23441,
  "uine": 7529,
  "Ġchoice": 3423,
  "ÙĬ": 17526,
  "ĠDoe": 28543,
  "ĠFeinstein": 27184,
  "Ġfastest": 12308,
  "ual": 699,
  "ĠKun": 24674,
  "ĠMUST": 18479,
  "ĠGriffith": 26365,
  "ĠBill": 3381,
  "Ġmods": 23943,
  "Ġcommunic": 3262,
  "Ġstewards": 31403,
  "ĠAgent": 18160,
  "Ġrestaur": 4543,
  "ĠDash": 19940,
  "Ġrom": 8874,
  "ĠPicture": 16334,
  "Ġsynchron": 18981,
  "ï½": 25607,
  "Ġcommonplace": 27367,
  "eyed": 18264,
  "ata": 1110,
  "astics": 22359,
  "PI": 12323,
  "Ġvac": 4050,
  "Ð¹": 20628,
  "Ġvi": 25267,
  "Ġpretend": 14895,
  "ĠYam": 18041,
  "erk": 19962,
  "Ġcomprom": 7060,
  "ĠFried": 12866,
  "Ġillustration": 19770,
  "Ġdispers": 21588,
  "ĠCaesar": 25061,
  "grown": 18421,
  "Ġ400": 7651,
  "Ġform": 1324,
  "Ġsubpo": 20226,
  "Ġcliff": 18205,
  "Ġrelatively": 4882,
  "inflamm": 31866,
  "aff": 1403,
  "achine": 23760,
  "Ġservice": 2106,
  "ĠZomb": 22169,
  "ĠJe": 12829,
  "Ġspeaking": 4989,
  "Ġsinister": 24189,
  "adium": 5063,
  "send": 23922,
  "Ġindependents": 25194,
  "Case": 23466,
  "Ġspawn": 13354,
  "ÑĨ": 28552,
  "ays": 523,
  "Ġanonymous": 10364,
  "ĠHear": 25406,
  "Ġstrain": 13107,
  "Ġbatch": 15271,
  "Ġpsychology": 13523,
  "ĠStefan": 25226,
  "Ġ1993": 9733,
  "ĠSimply": 19094,
  "ĠIt": 592,
  "Ã¡s": 22575,
  "something": 16879,
  "Ġbizarre": 11557,
  "ashi": 15151,
  "ĠRecord": 14731,
  "ĠLenin": 22331,
  "ĠNatural": 12795,
  "ĠMarx": 9823,
  "Ġreputation": 7513,
  "ĠTibetan": 26855,
  "Ġscrambling": 28419,
  "za": 4381,
  "Ġapparent": 3785,
  "Ġwheel": 7856,
  "Ġinflated": 26943,
  "about": 11022,
  "ĠUt": 7196,
  "acent": 12949,
  "Ġmagnet": 19104,
  "Ġcaric": 30102,
  "ĠUSC": 18124,
  "ples": 2590,
  "rec": 8503,
  "Ġlaun": 3886,
  "Ġextr": 24435,
  "Ġgrapp": 18847,
  "uding": 24892,
  "RED": 17882,
  "ĠHub": 13296,
  "Ġconv": 2099,
  "ranged": 31202,
  "ggest": 1733,
  "ĠFury": 22327,
  "ĠTate": 25457,
  "esc": 6477,
  "ĠBangladesh": 16145,
  "ĠChristie": 12842,
  "iant": 3059,
  "revolution": 27896,
  "Ġassociated": 4291,
  "Ġtransition": 5808,
  "ĠGround": 16332,
  "Ġallies": 6898,
  "icts": 12561,
  "ĠAzerbaijan": 27830,
  "Ġtransported": 16960,
  "Ġsmarter": 19827,
  "Ġbuyer": 18532,
  "ograp": 1904,
  "Ġdomin": 5308,
  "ĠTrek": 11187,
  "ĠLarge": 17068,
  "Such": 14145,
  "Ġadv": 1186,
  "ĠMurdoch": 20176,
  "Ġquestionnaire": 30846,
  "Ġrated": 14094,
  "inals": 9400,
  "Ġforty": 18054,
  "Ġorganic": 9879,
  "Ġsights": 20574,
  "Ġworried": 6892,
  "cks": 4822,
  "ĠThem": 29365,
  "Ġmolecule": 26177,
  "Ġimagined": 14179,
  "withstanding": 26076,
  "ĠNat": 15361,
  "Ġrequests": 6868,
  "compet": 22502,
  "ĠContinental": 29072,
  "Ġhomosexuals": 29542,
  "ĠRobbie": 28005,
  "ĠBetter": 14713,
  "ika": 9282,
  "Ġborrowed": 20102,
  "ardo": 11179,
  "ĠNorman": 16904,
  "ĠNOT": 8898,
  "GN": 15654,
  "ĠFoster": 15880,
  "rolog": 31055,
  "Po": 19968,
  "ĠVill": 9273,
  "Ġbarrel": 8832,
  "ĠTimes": 3071,
  "legates": 28795,
  "Ġtraction": 20062,
  "ĠAleppo": 16131,
  "Ġuploaded": 18309,
  "Ġcivilians": 8386,
  "Ġcracked": 19980,
  "Ros": 31344,
  "Ġsafest": 30933,
  "aceutical": 13417,
  "qual": 13800,
  "ĠNationals": 20997,
  "met": 4420,
  "Ġrefugee": 10604,
  "...\"": 14059,
  "m": 77,
  "Ġcommands": 11865,
  "********************************": 31413,
  "Ġtold": 1082,
  "Ġger": 26986,
  "Ġtheme": 6911,
  "Ġparliamentary": 12896,
  "enn": 1671,
  "Ġdrug": 2282,
  "Ġ92": 14988,
  "¿": 124,
  "overs": 11158,
  "ness": 1122,
  "look": 5218,
  "Ġ53": 9323,
  "ĠNeo": 22833,
  "Ġmocked": 23440,
  "ITY": 14003,
  "aughtered": 29799,
  "beh": 20474,
  "Ġpersu": 9470,
  "Clinton": 12961,
  "ĠLC": 26963,
  "anchez": 16524,
  "ĠAllow": 30177,
  "cre": 10227,
  "November": 20648,
  "Ġaccelerated": 20730,
  "Ġboom": 10847,
  "Ġwow": 29901,
  "Ġreported": 1773,
  "Ġrestoration": 17947,
  "ĠRash": 23219,
  "ĠWednesday": 2845,
  "Ġvisibility": 19288,
  "Ġgenerally": 4265,
  "Ġadministration": 2843,
  "usted": 8151,
  "nel": 4722,
  "Ġshots": 6182,
  "Ġ225": 26330,
  "Ġvalid": 5776,
  "endered": 26572,
  "Ġgrie": 26117,
  "Ġspent": 2900,
  "ĠBentley": 31602,
  "ĠDetroit": 6831,
  "Ġshotgun": 18796,
  "rection": 9418,
  "Ġft": 12987,
  "udget": 24143,
  "âĹ": 22946,
  "Ġrituals": 23350,
  "Ġmetres": 14357,
  "ĠUP": 18170,
  "Gu": 10545,
  "Year": 20742,
  "ĠBDS": 30981,
  "ĠSpringfield": 25300,
  "double": 27260,
  "Ġmess": 2001,
  "Ġ2021": 28102,
  "Ġnotice": 4449,
  "ousse": 23156,
  "Land": 24994,
  "ĠBowl": 7342,
  "sett": 19194,
  "Ġguerr": 26334,
  "ĠBU": 24486,
  "Ġfitted": 18835,
  "ĠFeel": 22234,
  "inker": 26272,
  "Ġact": 675,
  "Ġeup": 24673,
  "ĠRick": 7677,
  "ĠIX": 24457,
  "Ġpledged": 12669,
  "points": 12867,
  "Ġincl": 7150,
  "Ġdug": 17058,
  "ĠTHAT": 18859,
  "osure": 4679,
  "ĠShel": 14466,
  "Ġregist": 5028,
  "Ġprevail": 25649,
  "ĠGross": 20564,
  "Ġregimes": 20476,
  "itting": 8756,
  "ĠHim": 17135,
  "Ġfascinating": 12023,
  "Ġepit": 20466,
  "ĠVega": 31788,
  "ĠCriminal": 16224,
  "ĠJuventus": 31036,
  "ICO": 19366,
  "ĠThose": 5320,
  "perty": 16694,
  "Ġhyster": 20245,
  "name": 6528,
  "Ġgross": 9691,
  "Ġsensational": 26157,
  "Ġartif": 14805,
  "?<|": 11593,
  "Cook": 31327,
  "Ġappearances": 9028,
  "Ġtwe": 3526,
  "ĠHarm": 20436,
  "Ġbloody": 14269,
  "elsen": 21173,
  "Ġâĸł": 31083,
  "Ġmultiply": 31305,
  "ĠNaz": 11794,
  "Ġdismant": 21326,
  "Ġ2019": 8455,
  "Ġemergence": 18233,
  "ĠWoman": 14300,
  "iÃ³n": 17433,
  "ĠBengal": 21138,
  "ĠNeither": 15401,
  "ĠStark": 22258,
  "ĠCoul": 23346,
  "women": 23392,
  "ĠHogan": 20528,
  "Ġbullet": 10045,
  "Ġadvantage": 4306,
  "opt": 10798,
  "Ġwriting": 3322,
  "camera": 23293,
  "ĠBat": 6072,
  "Ġagenda": 6671,
  "Egypt": 29137,
  "ĠLyn": 8892,
  "Ġtrophy": 18003,
  "Ġothers": 1781,
  "ogan": 6879,
  "Ġsli": 10334,
  "ĠFA": 10745,
  "Ġfree": 1422,
  "ĠBorn": 20900,
  "rend": 10649,
  "Ġdisple": 31987,
  "2019": 26998,
  "Ġcompletion": 12497,
  "angel": 8379,
  "android": 31043,
  "ĠFord": 6946,
  "Video": 12873,
  "Ġlesbian": 15330,
  "Mon": 11521,
  "Ġbreathtaking": 30615,
  "iker": 17869,
  "Ġhomework": 23515,
  "atre": 12279,
  "orc": 29400,
  "Ġconsciously": 27373,
  "iti": 8117,
  "Ġinitiatives": 12433,
  "Initial": 31085,
  "ĠSqu": 5815,
  "ĠOntario": 9093,
  "ĠOtto": 28302,
  "ĠAFC": 22463,
  "Ġtend": 4159,
  "ockets": 12517,
  "vertisement": 3204,
  "Ġhate": 4993,
  "ĠSteam": 11422,
  "able": 530,
  "ĠGames": 6465,
  "umph": 10470,
  "Ä«": 20651,
  "ĠAbd": 11449,
  "worm": 25222,
  "ĠGul": 20959,
  "Ġrhyth": 13390,
  "Ġ49": 6488,
  "Ġinvol": 1675,
  "Ġhabits": 12755,
  "Ġ;": 4126,
  "Introduction": 25560,
  "chard": 28612,
  "Ġyears": 715,
  "ually": 883,
  "ĠWeather": 16494,
  "Ġfriends": 2344,
  "hang": 31985,
  "Ġnoticed": 6739,
  "Ġoil": 2697,
  "aucuses": 27321,
  "ĠBour": 18509,
  "Ġtranslated": 13529,
  "Ġneglig": 16899,
  "Ġmethodology": 19326,
  "Ġsuffered": 5837,
  "Ġproced": 5548,
  "ĠGetty": 8754,
  "Ġambitions": 17265,
  "Ġdeeper": 8236,
  "Ġpile": 14313,
  "lived": 20080,
  "Ġteaching": 7462,
  "Ġgrievances": 28430,
  "ĠPanel": 21538,
  "Ġfug": 28408,
  "anting": 15047,
  "wd": 26253,
  "Ġtoxicity": 30592,
  "Ġprojections": 17010,
  "Element": 24836,
  "Ġassisted": 18244,
  "irlf": 9366,
  "volume": 31107,
  "Ġfighting": 3906,
  "Ġpeninsula": 23800,
  "Ġnoise": 8382,
  "Host": 28593,
  "ĠAU": 27034,
  "Ġcure": 14955,
  "inese": 3218,
  "Ġlike": 519,
  "Ġvisible": 7736,
  "ĠNFC": 19454,
  "Ġaggravated": 22478,
  "ĠKaine": 28244,
  "ĠClassic": 15418,
  "Ġhomeland": 19207,
  "Ġnoticeable": 19633,
  "earing": 7266,
  "Ġregion": 3288,
  "Ġsometime": 15124,
  "ĠCelsius": 29459,
  "ĠCaval": 19837,
  "oot": 1006,
  "ranging": 26006,
  "Ġcommissioned": 16271,
  "Ġtomorrow": 8515,
  "Ġwatchdog": 18566,
  "Ġmed": 996,
  "Ġfab": 8311,
  "ĠTitle": 14764,
  "Ġstaring": 17445,
  "Ġfiber": 14446,
  "Ġopera": 20876,
  "A": 33,
  "ĠMao": 20099,
  "PDF": 21616,
  "ĠCedar": 31783,
  "por": 1765,
  "ĠDonald": 3199,
  "dir": 27628,
  "icio": 31873,
  "ĠÂ£": 3683,
  "imi": 24570,
  "Ġcollects": 24988,
  "Ã": 126,
  "Ġinfluences": 15348,
  "cel": 5478,
  "reci": 26585,
  "coni": 30047,
  "asket": 16705,
  "Ġimperative": 20342,
  "Ġcurtain": 21470,
  "ĠResident": 25765,
  "Ġcooper": 5838,
  "politics": 28855,
  "Ġpiles": 28009,
  "Ġdefect": 19897,
  "Ġblind": 7648,
  "abortion": 25337,
  "ĠSantorum": 24169,
  "Ġpean": 20601,
  "cies": 3011,
  "Ġspeak": 2613,
  "Ġstew": 19495,
  "ĠTreat": 12679,
  "Ġtextures": 24336,
  "Ġincumb": 14669,
  "Ġoverdue": 29917,
  "Ġups": 17813,
  "Ġhotel": 6656,
  "Ġsurvivor": 21610,
  "Ġlanguage": 3088,
  "ĠPil": 15440,
  "Ġwaving": 24414,
  "ucking": 23955,
  "ighty": 20021,
  "East": 23799,
  "];": 16491,
  "ĠConsult": 22495,
  "Ġgeographic": 22232,
  "Ġmotives": 19853,
  "Ġabruptly": 23853,
  "Ġsized": 22416,
  "galitarian": 31826,
  "ĠBest": 6941,
  "Ġfro": 8940,
  "TION": 12986,
  "Ġfilmed": 14459,
  "Ġconsoles": 18976,
  "Ġsuspicious": 13355,
  "Ġtie": 9018,
  "read": 962,
  "Ġrevel": 8777,
  "Ġdismal": 30832,
  "Ġstranger": 15609,
  "merce": 10758,
  "Ġretaliation": 20357,
  "Ġreversing": 31748,
  "ĠKnox": 24497,
  "ustain": 16389,
  "Ġdepicted": 16781,
  "Let": 5306,
  "Ġintimate": 16070,
  "OUR": 17305,
  "Ġblend": 15290,
  "Manchester": 31730,
  "ĠNuclear": 18413,
  "Ġendorsed": 13614,
  "ĠScholars": 31132,
  "although": 15449,
  "onz": 10261,
  "star": 7378,
  "Ġdragon": 16505,
  "enko": 24983,
  "Ġincentiv": 30868,
  "bomb": 28161,
  "Ġdisposable": 28300,
  "Muslims": 30068,
  "Ġterrorists": 8211,
  "Ġmadness": 21663,
  "ĠJav": 15018,
  "Keep": 16030,
  "cy": 926,
  "abled": 5844,
  "ĠFischer": 26775,
  "Ġposting": 10116,
  "Ġcele": 3391,
  "Ġhealthier": 20134,
  "ĠNeil": 13132,
  "Ġastronomers": 23770,
  "Ġguarding": 31957,
  "ĠZelda": 22602,
  "Ġadvisory": 17456,
  "ISIS": 22931,
  "Ġshrimp": 29870,
  "Ġenables": 13396,
  "Less": 21229,
  "Test": 17560,
  "atural": 2677,
  "Ġenforcing": 22426,
  "Ġorganisation": 10593,
  "ĠListen": 23010,
  "aukee": 12887,
  "ĠMartin": 4951,
  "Exit": 30516,
  "ĠEA": 18743,
  "Sand": 14973,
  "ĠChristine": 23001,
  "odka": 27202,
  "d": 68,
  "ĠCul": 26900,
  "ali": 7292,
  "ĠCONT": 22250,
  "IVE": 12992,
  "Ġpurchase": 5538,
  "ason": 777,
  "person": 5322,
  "ĠMcCon": 11811,
  "Ġsarc": 23549,
  "Story": 9613,
  "Ġsurvey": 4888,
  "celer": 6960,
  "13": 2174,
  "Ġalgorithms": 14367,
  "Ġwherever": 13868,
  "Ġparamed": 28162,
  "Put": 15196,
  "ĠManhattan": 10776,
  "Ġmonarch": 21951,
  "Games": 29082,
  "AN": 2129,
  "eral": 1499,
  "ĠAS": 7922,
  "Ġsummarized": 30451,
  "Ġhurricane": 18936,
  "ĠNevertheless": 15096,
  "Ġtax": 1501,
  "ĠEVER": 23691,
  "Ġresent": 17817,
  "ĠMann": 17286,
  "ĠRhod": 19833,
  "ĠLegendary": 31716,
  "Ġz": 1961,
  "boards": 12334,
  "ashington": 2059,
  "ĠDirect": 4529,
  "ĠSV": 21511,
  "Ġundertaken": 20337,
  "Ġbone": 11363,
  "Ġfarther": 17973,
  "reating": 18145,
  "Ä": 127,
  "ĠNewman": 22128,
  "Ġgenerosity": 27942,
  "Ġdifficulties": 12504,
  "Ġwalk": 2459,
  "oons": 12585,
  "ĠCi": 31356,
  "aba": 14360,
  "Ġthinner": 29779,
  "Ġpolar": 11440,
  "Ġculture": 3346,
  "Ġsubt": 16416,
  "ĠRust": 18429,
  "Ġsworn": 19352,
  "ĠEmail": 9967,
  "Ġdonate": 14821,
  "Ġteac": 4169,
  "Perhaps": 11406,
  "loid": 31313,
  "ĠBeir": 29602,
  "Ġwithdraw": 7865,
  "ĠOmar": 19136,
  "Alan": 31940,
  "Ġsafeguards": 28085,
  "ãĤĮ": 27933,
  "Ġsuits": 13912,
  "Ġcush": 25009,
  "Photos": 19929,
  "Ġ1953": 21978,
  "ĠJupiter": 19475,
  "ĠSeriously": 26311,
  "Ġspin": 7077,
  "Ġmerely": 6859,
  "1970": 29182,
  "Ġpleas": 20676,
  "Ġchim": 16963,
  "ris": 1999,
  "ashing": 1813,
  "ĠSad": 13993,
  "ĠÃ¢": 23302,
  "Ġroyalty": 27374,
  "Ġsupernatural": 21599,
  "Ġrenewal": 22634,
  "mentioned": 15949,
  "ĠPor": 17122,
  "Ġcritical": 4140,
  "Ġadvers": 14652,
  "ĠPortug": 10574,
  "ĠNepal": 21962,
  "ĠMLS": 9902,
  "arthed": 30752,
  "Ġhus": 4549,
  "Ġscream": 10504,
  "enc": 12891,
  "ologies": 5207,
  "Ġstaging": 25015,
  "second": 13100,
  "Ġfamously": 15473,
  "Ġdare": 17299,
  "cent": 977,
  "Ġcr": 950,
  "Ġwestern": 7435,
  "Person": 15878,
  "Ġregul": 3147,
  "ĠBend": 23738,
  "Ġingredients": 10367,
  "How": 2354,
  "<<": 28134,
  "Ġmint": 22130,
  "Ġoxygen": 11928,
  "ĠConference": 7976,
  "Ġloyalty": 14260,
  "Ġliberation": 19191,
  "ohyd": 22663,
  "Ġpartnering": 31979,
  "Ġtwelve": 14926,
  "Ġcrystals": 27316,
  "])": 16179,
  "Ġprivile": 7455,
  "hit": 18575,
  "Ġindustrial": 6418,
  "nels": 17660,
  "ĠJamie": 15159,
  "Ġtumors": 30072,
  "Ġconcludes": 16152,
  "ĠCSS": 15201,
  "Ġepic": 10790,
  "ĠChev": 20165,
  "Ġrifles": 17936,
  "Ġsupports": 6905,
  "hop": 8846,
  "Ġdescribing": 10463,
  "ĠAmeric": 843,
  "ociated": 19590,
  "ĠCultural": 22752,
  "ĠNorris": 26989,
  "ĠBub": 25708,
  "Ġprocessors": 19159,
  "Ġproblem": 1726,
  "Ġchilling": 23366,
  "adas": 31485,
  "Ġculinary": 31424,
  "abor": 3169,
  "Ġnames": 3974,
  "atic": 1993,
  "Ġ1982": 13265,
  "oslav": 22981,
  "ummy": 16829,
  "ĠNewsletter": 25388,
  "Ġmarriages": 17718,
  "Ð¸": 5434,
  "place": 4876,
  "ĠSales": 19857,
  "ĠC": 292,
  "ĠWATCH": 14134,
  "Ġdevast": 8234,
  "miss": 3933,
  "ĠSite": 18579,
  "Apparently": 25283,
  "Ü": 151,
  "Ġentails": 30903,
  "Ġaccompanying": 18714,
  "Ġarr": 9997,
  "Ġtempting": 25626,
  "encia": 22283,
  "Ġbanks": 4808,
  "counter": 22814,
  "ĠIbrahim": 23865,
  "abama": 7468,
  "Ġplunge": 27690,
  "asion": 7762,
  "Ġmemo": 9746,
  "fif": 29163,
  "Ġtemporary": 8381,
  "Ġissu": 31497,
  "Ġrect": 15226,
  "raged": 16073,
  "Ġwriters": 7334,
  "ĠPer": 2696,
  "ĠSherman": 20018,
  "issa": 13886,
  "Ġfaces": 5801,
  "fin": 15293,
  "Ġladder": 17604,
  "ĠJenkins": 18669,
  "Ġdismay": 25323,
  "Ġstacks": 26192,
  "Yet": 9160,
  "ĠMega": 21789,
  "ji": 8990,
  "AE": 17153,
  "Ġgift": 7862,
  "Of": 5198,
  "iverse": 3978,
  "Ġreminding": 25386,
  "Ġhypothesis": 13321,
  "Ġmasculine": 26555,
  "Ġafterward": 19287,
  "Ġunve": 10109,
  "Ġinterchange": 25075,
  "Ġexcuses": 21920,
  "Ġwhereby": 22580,
  "cip": 24705,
  "ĠALL": 14896,
  "itol": 9563,
  "Ġaccused": 4359,
  "He": 1340,
  "Ġzombies": 21835,
  "Ġcombinations": 18431,
  "chemical": 31859,
  "ĠMultiple": 24694,
  "Ġspouse": 20814,
  "ĠKane": 17573,
  "Ġrhet": 8750,
  "ĠPf": 30920,
  "ĠBaker": 12166,
  "ĠMorrison": 19519,
  "Ġjuven": 17487,
  "ftime": 26767,
  "Ġrecounted": 27066,
  "ĠBoss": 21023,
  "Ġdepl": 31308,
  "Ġcommod": 11740,
  "138": 29329,
  "Mer": 14554,
  "Ġoccupations": 29323,
  "agan": 6369,
  "ĠJen": 12068,
  "ĠCaller": 26929,
  "ork": 897,
  "ortun": 1724,
  "ĠStuff": 30390,
  "sections": 29230,
  "ere": 614,
  "astern": 5810,
  "Ġpas": 24133,
  "ĠParish": 30683,
  "Ġstraw": 15275,
  "aries": 3065,
  "ĠStrategic": 23078,
  "Ġsign": 964,
  "08": 6457,
  "AMY": 19091,
  "Ġprojects": 3791,
  "lasting": 27287,
  "Ġdriver": 4576,
  "Ġsecretary": 6017,
  "ĠSubject": 24312,
  "ĠSelf": 14636,
  "oss": 758,
  "Ġnominations": 21501,
  "ĠChildren": 9739,
  "34": 4518,
  "Ġreligions": 16511,
  "ĠMetropolitan": 18591,
  "final": 18085,
  "ĠTL": 29063,
  "ĠColombia": 17505,
  "Ġadministered": 18792,
  "Ġbeginnings": 29833,
  "Ġswift": 13938,
  "identally": 20824,
  "Ġcustomized": 28274,
  "aan": 31872,
  "iri": 14147,
  "ĠThursday": 2868,
  "Ġjurors": 25278,
  "Ġcoincide": 30344,
  "Ġimperfect": 23275,
  "Ġconcessions": 19905,
  "Ġ165": 29025,
  "igans": 31279,
  "Ġstreet": 4119,
  "Ġwidespread": 8125,
  "manship": 23757,
  "Ġsynthesis": 24188,
  "Ġgathered": 8334,
  "Ġow": 17755,
  "Ġdestiny": 22196,
  "Ġmissions": 9750,
  "ier": 1164,
  "andro": 23573,
  "Ġvanilla": 20556,
  "wen": 20386,
  "iological": 16247,
  "Ġcomo": 31517,
  "pton": 8682,
  "Ġcomeback": 17093,
  "ORN": 24645,
  "ĠBapt": 17038,
  "Ġfrust": 5711,
  "ĠACC": 17334,
  "Ġ2009": 3164,
  "ĠP": 314,
  "ĠSports": 6303,
  "Ġspe": 673,
  "Ġnineteenth": 28312,
  "Ġloosely": 25653,
  "gn": 5033,
  "den": 5215,
  "ĠHaskell": 23541,
  "ĠMental": 23410,
  "Ġstunned": 19272,
  "piring": 31148,
  "`": 64,
  "ĠCert": 22467,
  "Ġpitchers": 19378,
  "ĠLiberty": 12943,
  "ĠShot": 21438,
  "Ġsocket": 24769,
  "Ġsystematic": 17072,
  "ĠGovernment": 4917,
  "Ġimag": 3266,
  "Ġpassages": 23605,
  "Ġpoisoning": 22264,
  "ĠWebb": 20817,
  "Ġrestraining": 31852,
  "ĠMurder": 28362,
  "Ġaccum": 10405,
  "Ġprocedure": 9576,
  "ĠHomeland": 14165,
  "Ġnickel": 26322,
  "ĠCounter": 17202,
  "rones": 14901,
  "ĠWass": 26128,
  "Ġmock": 13395,
  "lord": 24712,
  "ĠPhillies": 27528,
  "Ġabandon": 6115,
  "common": 19166,
  "Ġdiagnostic": 26605,
  "Ġbourgeois": 19847,
  "ĠDog": 10283,
  "Ġrape": 6785,
  "ĠDuke": 10665,
  "Ġopting": 27900,
  "fore": 736,
  "Ġcourtesy": 10959,
  "Ġventure": 10984,
  "eals": 9526,
  "moving": 27886,
  "hers": 1869,
  "ĠCob": 18573,
  "ĠHolder": 18483,
  "Ġarrangement": 13498,
  "Ġconditional": 26371,
  "Ġsecure": 5412,
  "Ġpawn": 28041,
  "Ġwholly": 18808,
  "ands": 1662,
  "Ġmi": 17206,
  "Ġdiv": 2609,
  "Ġtopp": 19033,
  "Ġregularly": 7191,
  "Ġsmash": 23135,
  "anson": 19257,
  "Pres": 25836,
  "Ġrightly": 19632,
  "ĠInstagram": 9722,
  "utan": 30645,
  "ĠHerald": 16164,
  "Battle": 27305,
  "Ġchoices": 7118,
  "lining": 16597,
  "Ġqui": 29663,
  "ĠTexas": 3379,
  "Ġmole": 9185,
  "ĠPeyton": 28931,
  "ĠVul": 25614,
  "Ġnurse": 15416,
  "ĠPlat": 31210,
  "Ġsequence": 9084,
  "ĠPoke": 18644,
  "Ġcandy": 17447,
  "ĠRAM": 14880,
  "oma": 6410,
  "Ġcoy": 29759,
  "mia": 22567,
  "ĠBuchanan": 30122,
  "Ġclarity": 14911,
  "Ġtablet": 11855,
  "iology": 13851,
  "Ġsq": 24725,
  "Hand": 18728,
  "repre": 8518,
  "Ġhearings": 14701,
  "Ġreveals": 9387,
  "Texas": 17794,
  "ĠForever": 29084,
  "ĠUnited": 1371,
  "ĠHenderson": 18318,
  "Ġrecruitment": 17773,
  "Quick": 24600,
  "Ġdecreasing": 23427,
  "Ġplacement": 16504,
  "ĠAllies": 31250,
  "Ġexisted": 10433,
  "ĠPremium": 22083,
  "ĠSie": 17607,
  "ĠEz": 22990,
  "Wil": 20187,
  "endment": 5374,
  "dale": 12804,
  "Ġrefresh": 22462,
  "Ġredirect": 18493,
  "Ġbomb": 4440,
  "ĠMoroc": 20058,
  "xit": 8587,
  "ĠDome": 27822,
  "ĠKeys": 27958,
  "ipment": 30399,
  "Ġfallen": 8505,
  "ĠRoh": 26522,
  "Ġinaugural": 19817,
  "ĠMAR": 22005,
  "ena": 6389,
  "ĠPant": 10809,
  "Ġcousins": 26228,
  "ĠRot": 18201,
  "ĠHew": 26162,
  "Ġpressured": 25225,
  "Ġpalm": 20356,
  ").âĢĿ": 27711,
  "Ġgrenades": 28825,
  "ĠSurvival": 31232,
  "Ġrefriger": 20221,
  "Ġanimated": 12495,
  "UB": 22867,
  "position": 24575,
  "Ġengaged": 7457,
  "ĠChicken": 23771,
  "sharing": 17361,
  "Ġtransformation": 12366,
  "Ġforwards": 18235,
  "rÃ©": 23485,
  "Ġinspections": 26868,
  "Ġmedian": 13410,
  "Ġverb": 18246,
  "ĠJP": 24494,
  "ERN": 25256,
  "Ġmonitors": 18102,
  "ĠEngine": 8717,
  "ĠIllinois": 8605,
  "Ġrouting": 29546,
  "Ġexperimentation": 25553,
  "Ġadaptive": 27476,
  "Either": 28156,
  "ĠSpani": 30317,
  "fashioned": 24387,
  "Ġscales": 17149,
  "Word": 30854,
  "xt": 495,
  "ĠEuras": 28922,
  "ĠStars": 13256,
  "Ġpath": 3307,
  "Ms": 9628,
  "Ġsqueezed": 27776,
  "Ġevolutionary": 15022,
  "ĠCemetery": 29892,
  "into": 19660,
  "Ġdashboard": 27092,
  "awk": 23307,
  ":\"": 26433,
  "à²": 24977,
  "ĠControl": 8567,
  "Ġ1911": 30003,
  "Ġpromin": 16322,
  "Ġassembly": 10614,
  "ĠTuc": 27463,
  "ĠPack": 8103,
  "Ġstop": 2126,
  "Ġprecision": 15933,
  "Ġdownside": 22398,
  "Ġhopefully": 9849,
  "Women": 17295,
  "ĠDT": 28751,
  "Ġpulled": 5575,
  "icides": 15990,
  "Ġearnings": 11554,
  "Ġcoma": 31889,
  "Ġhorribly": 31338,
  "tar": 21679,
  "Ġharbor": 25735,
  "Ġsulf": 23494,
  "font": 26390,
  "enger": 6096,
  "Ġfee": 7816,
  "ĠIsn": 23835,
  "æľ": 21279,
  "ĠDeV": 23338,
  "Ġcubic": 24201,
  "Ġnarc": 15923,
  "Ã©e": 16811,
  "Ġenhancements": 28978,
  "Dep": 14362,
  "ĠBle": 21274,
  "Ġtestament": 24156,
  "lient": 14372,
  "Dig": 20864,
  "aditional": 17253,
  "ushi": 20977,
  "Ġincarn": 22447,
  "ĠThirty": 28411,
  "Ġledger": 31147,
  "Ġgamers": 13264,
  "Ġabund": 11777,
  "arming": 17035,
  "Civil": 30014,
  "Ġalbum": 3953,
  "Was": 18645,
  "clusion": 14692,
  "Ġmemoir": 22740,
  "riage": 3807,
  "Russ": 8566,
  "ĠRum": 23582,
  "iple": 2564,
  "BS": 4387,
  "'m": 1951,
  "Ġexport": 10254,
  "Ġintellectual": 8014,
  "Ġpainfully": 29252,
  "ederal": 1771,
  "Ã¯": 22561,
  "Ġdeterrent": 27887,
  "ometown": 15519,
  "ĠKnight": 11364,
  "Ġinvoke": 25605,
  "ĠCurry": 18386,
  "Ġsac": 5782,
  "ĠDraft": 12479,
  "oga": 10190,
  "Ġoverr": 15770,
  "Ġunans": 26618,
  "Ġclergy": 23415,
  "ue": 496,
  "Ġbailout": 18029,
  "bank": 17791,
  "ĠSenator": 7488,
  "Islamic": 21136,
  "Ġreput": 6641,
  "ets": 1018,
  "Ġfoster": 15602,
  "shake": 31049,
  "Ġvan": 5885,
  "Gi": 30534,
  "Ġspit": 27011,
  "Ġcancell": 21081,
  "Ġenthusiasts": 19859,
  "ĠGuinness": 31195,
  "ĠHitch": 30528,
  "ĠRockets": 20634,
  "Ġsupp": 741,
  "abl": 12558,
  "ĠSp": 1484,
  "df": 11031,
  "iliary": 31785,
  "Ġwrapping": 26140,
  "Ġundocumented": 16997,
  "article": 22291,
  "vd": 24473,
  "risk": 17053,
  "Ġclusters": 21893,
  "fall": 7606,
  "Ġfraternity": 27434,
  "Kh": 29399,
  "Ġmushroom": 27345,
  "ĠIrish": 7120,
  "Ġyog": 27885,
  "ĠGermans": 13855,
  "We": 982,
  "Ġ2018": 4817,
  "ĠRab": 18876,
  "ĠDixon": 25727,
  "Ġintimidating": 25463,
  "Ġoutfits": 25091,
  "Ġbeaches": 21222,
  "Ġseen": 1624,
  "Ġcraft": 5831,
  "Ġthird": 2119,
  "âĺ": 21573,
  "Ġtrainer": 20847,
  "electric": 24893,
  "Eventually": 24002,
  "ĠChrysler": 28365,
  "fork": 31714,
  "seys": 22572,
  "Ġcite": 19850,
  "Ġ},": 19683,
  "kay": 6151,
  "ĠMembers": 15417,
  "Ġupdated": 6606,
  "ĠLanka": 22568,
  "ĠWestern": 4250,
  "Ġradiation": 10845,
  "opers": 20208,
  "Ġ1998": 7940,
  "Ġintimacy": 30433,
  "Ġdistressed": 31835,
  "Ġdisagrees": 30625,
  "Ġcontem": 7227,
  "Ġowner": 4904,
  "ĠLaura": 15301,
  "Ġimages": 4146,
  "Ġmar": 1492,
  "Ġbrut": 7632,
  "adin": 27298,
  "$$": 25464,
  "ĠOn": 1722,
  "yers": 20333,
  "military": 27673,
  "Ġcosm": 23973,
  "Ġcarefully": 8164,
  "Ġbull": 5796,
  "Ġdece": 13288,
  "Ġhiking": 23928,
  "Ġreceptor": 20475,
  "Ġ1915": 27006,
  "alla": 25964,
  "Ð½Ð°": 28785,
  "Ġprotocol": 8628,
  "ĠColbert": 22972,
  "Interestingly": 26431,
  "mercial": 16699,
  "Ġmanifestation": 29616,
  "Ġeject": 21154,
  "Ġwhen": 572,
  "ĠLoss": 30636,
  "Ġtip": 8345,
  "Ġamnesty": 24763,
  "Ġextraordinarily": 26766,
  "ĠL": 387,
  "ĠpH": 28951,
  "Ġswung": 27786,
  "ruck": 30905,
  "ĠInfrastructure": 31038,
  "ĠDunn": 25723,
  "ĠAdministrator": 31046,
  "Far": 18186,
  "ĠMaxim": 30990,
  "Ġmeasurement": 16774,
  "Ġmandatory": 12376,
  "Ġseparating": 24680,
  "Ġwhenever": 9151,
  "!)": 8653,
  "Ġinternal": 5202,
  "Ġundert": 10058,
  "LD": 14223,
  "ĠGOODMAN": 19662,
  "ĠPT": 14356,
  "arr": 3296,
  "âĢ¦": 1497,
  "uments": 3040,
  "Ġgn": 24316,
  "ĠChronicles": 31416,
  "But": 1265,
  "ĠIII": 8269,
  "Run": 18997,
  "Ġhub": 11102,
  "Ġpubl": 1997,
  "Ġimmortal": 27207,
  "ĠRivera": 24669,
  "acker": 13620,
  "Ġpanic": 12614,
  "ĠPaper": 18301,
  "Ġpassengers": 8849,
  "ĠSer": 3452,
  "Ġ---": 20201,
  "Phones": 24731,
  "Ġhardship": 28479,
  "Ġturnout": 16667,
  "Ġstarving": 30753,
  "ship": 7219,
  "cul": 3690,
  "Ġtherm": 23322,
  "Ġwall": 3583,
  "Ġpoliticians": 5536,
  "ĠKap": 17792,
  "berry": 9264,
  "Ġhats": 21512,
  "anti": 14727,
  "Ġreimburse": 27359,
  "ĠVW": 31548,
  "Ġpinpoint": 25740,
  "ĠFalcons": 18456,
  "ĠRT": 12111,
  "Ġvanished": 24161,
  "ampion": 5835,
  "phil": 29087,
  "Ġrapidly": 8065,
  "Say": 28609,
  "orman": 22303,
  "without": 19592,
  "access": 16796,
  "Ġreinvent": 28117,
  "ame": 448,
  "ĠPDT": 26124,
  "ĠAtmosp": 30335,
  "ommend": 27796,
  "Ġuseful": 4790,
  "ĠNations": 7122,
  "ĠNone": 10807,
  "ĠRos": 9036,
  "Ġaura": 29591,
  "ol": 305,
  "ĠBe": 1407,
  "Ġregeneration": 31763,
  "ĠCompared": 28853,
  "oween": 14665,
  "87": 7960,
  "000": 903,
  "Ġbattered": 29068,
  "ĠRad": 5594,
  "ĠLeague": 3374,
  "ĠAthlet": 16025,
  "Ġvillain": 15307,
  "Ġ09": 16965,
  "ĠTesla": 10733,
  "Ġtraces": 19768,
  "Ġflavors": 17586,
  "ĠHang": 24383,
  "Ġexplores": 23218,
  "Ġpenet": 12819,
  "Ġ96": 14538,
  "ĠKre": 22962,
  "Ġwatch": 2162,
  "Ġrevealed": 4059,
  "Ġwh": 301,
  "Ġcher": 14270,
  "fb": 31285,
  "ĠEP": 16824,
  "\"?": 24092,
  "Ġbytes": 17612,
  "Ġbacking": 9814,
  "Ġw": 222,
  "grat": 16722,
  "Ġsequencing": 28625,
  "Ġhelped": 3518,
  "Ġcorrespondence": 21335,
  "Ġwine": 8238,
  "covered": 29698,
  "Ġmarches": 29213,
  "Ġrisks": 6794,
  "Ġ37": 6350,
  "Ġindex": 7491,
  "Ġsus": 2093,
  "Ġscouting": 21815,
  "ĠSa": 10231,
  "Ġnationalists": 24964,
  "ĠCulture": 16425,
  "Ġ72": 10626,
  "Ġcores": 20450,
  "Ġreferen": 15104,
  "hes": 974,
  "Ġcorrupted": 30481,
  "Ġrap": 3777,
  "ĠMain": 9542,
  "Ġ58": 10311,
  "Ġthumb": 14521,
  "Ġnause": 24355,
  "?).": 27377,
  "ĠGaw": 27039,
  "Ġarsenal": 20360,
  "Ġsword": 12221,
  "ceived": 6637,
  "ielding": 31919,
  "Ġkn": 591,
  "Ġdiscrep": 22925,
  "cart": 31095,
  "axy": 6949,
  "Ġconcentrated": 15807,
  "emen": 7407,
  "ĠArs": 21631,
  "Ġneocons": 30792,
  "199": 26695,
  "oder": 18263,
  "Ġresentment": 24533,
  "Ġwarned": 6089,
  "ĠRAF": 30595,
  "anchester": 7443,
  "Ġresemblance": 27601,
  "Ġinfluenced": 11004,
  "Ġdelaying": 28746,
  "Ġmerchand": 18527,
  "me": 1310,
  ").[": 11241,
  "Ġarticle": 2499,
  "ĠPictures": 15844,
  "!âĢĿ": 4590,
  "Ġdon": 759,
  "anz": 25852,
  "ĠNHS": 15809,
  "accur": 14804,
  "rait": 11911,
  "ĠLikewise": 21614,
  "Ġdepths": 21145,
  "Ġtheor": 15766,
  "Ġdeck": 7016,
  "ĠBannon": 15409,
  "Ġautism": 14835,
  "ĠUrugu": 26558,
  "gly": 10897,
  "Ġhurdles": 25451,
  "Ġspine": 21267,
  "ĠWhich": 8799,
  "Ġentrance": 11089,
  "Ġawake": 22699,
  "Ġsafe": 3121,
  "åħ": 23833,
  "Ġweaker": 16857,
  "terns": 29624,
  "ourgeois": 18932,
  "Ġmartial": 15640,
  "Ġtodd": 21246,
  "Ġrib": 13348,
  "ĠGuest": 28824,
  "ĠIdaho": 17595,
  "Ġjump": 3969,
  "onents": 3778,
  "ourt": 2619,
  "Ġtravelling": 14732,
  "zz": 3367,
  "neys": 19103,
  "Ġthick": 7707,
  "trained": 30879,
  "¨": 102,
  "Ġsubscriptions": 31803,
  "essential": 27494,
  "Ġmayor": 7214,
  "Ġdupl": 15787,
  "Ġinception": 25925,
  "director": 27431,
  "ĠOP": 16392,
  "Ġlen": 24530,
  "ĠBurr": 31532,
  "Ġattendees": 17446,
  "Ġinaccurate": 19751,
  "Ã¨": 10742,
  "AG": 13340,
  "urning": 2971,
  "Ġperson": 1076,
  "ĠArchitecture": 28492,
  "lp": 876,
  "ĠEngland": 3962,
  "Ġmotion": 6407,
  "Ġ};": 22326,
  "ĠPrem": 6257,
  "ak": 427,
  "Ġcraw": 27590,
  "People": 6678,
  "encing": 8991,
  "range": 4952,
  "Ġthou": 28819,
  "ĠUFC": 8094,
  "ĠâĢķ": 22417,
  "Ġ1938": 24282,
  "culus": 15755,
  "Ġuncont": 26955,
  "ĠLin": 5872,
  "Pal": 10837,
  "izer": 9579,
  "ĠPalestin": 4832,
  "example": 28525,
  "ĠSher": 5997,
  "Ġholiday": 8453,
  "ipher": 12152,
  "Cat": 25958,
  "Ġnoon": 18451,
  "Ġunwit": 31981,
  "Ġ11": 1691,
  "ĠTrue": 11561,
  "Ġbelievers": 21427,
  "Ġcrowd": 3655,
  "Ġmouse": 11279,
  "Ġpoison": 9701,
  "ructive": 12958,
  "BT": 20394,
  "Indian": 26040,
  "Ġdifferently": 9401,
  "icide": 4969,
  "cules": 14125,
  "Ġhappens": 3970,
  "Ġstere": 9867,
  "Ġfet": 9622,
  "Ġmanufacturing": 7829,
  "ĠParent": 31089,
  "ĠBorders": 31694,
  "dist": 18065,
  "abet": 9913,
  "Ġbeverage": 23992,
  "Rest": 23939,
  "Ġfailed": 3561,
  "tery": 4698,
  "ĠRepe": 24770,
  "Ġhours": 2229,
  "Ġprevents": 16175,
  "Ġmember": 2778,
  "ĠProblem": 24550,
  "Ġpel": 16299,
  "ĠMichel": 9978,
  "Ġanx": 7092,
  "Ġatt": 724,
  "cular": 11512,
  "ĠRC": 13870,
  "Ġrecognized": 7892,
  "antom": 17902,
  "ĠCo": 1803,
  "Ġkilometres": 16892,
  "Ġan": 238,
  "Ġplunged": 26885,
  "Ġmarket": 1601,
  "Andy": 28587,
  "Ġtranscription": 29359,
  "Ġcred": 2442,
  "Ġdigging": 17223,
  "Ġannexation": 31879,
  "esame": 31161,
  "Ġdeduct": 21628,
  "Ġphenomenal": 23513,
  "Ġisol": 6475,
  "Ġorigins": 13845,
  "Ġscenario": 7727,
  "uter": 10914,
  "Ġapost": 20834,
  "Ġretros": 20871,
  "oses": 3239,
  "opes": 13121,
  "alion": 19639,
  "Ġideally": 27724,
  "Ð¾Ð": 6987,
  "Ġanarchists": 25970,
  "plan": 12918,
  "aggering": 17150,
  "omet": 847,
  "Ġgang": 6755,
  "ĠSte": 1690,
  "act": 463,
  "mare": 12162,
  "atlantic": 31407,
  "Ġdont": 26582,
  "ĠOrb": 25224,
  "ĠCons": 3427,
  "oa": 13356,
  "Ġvers": 1673,
  "Ġfunc": 28562,
  "Ġaltitude": 19801,
  "Ġembrace": 10589,
  "unal": 18445,
  "ĠMD": 12739,
  "Ġthere": 550,
  "print": 6502,
  "Ġtap": 9816,
  "ĠBeautiful": 27223,
  "Ġeducators": 26145,
  "Ġface": 1963,
  "ongh": 17221,
  "ĠExtra": 22901,
  "']": 31227,
  "Ġpant": 25002,
  "Hel": 16240,
  "Ġcost": 1462,
  "ĠNYC": 16990,
  "have": 13195,
  "Ġrocks": 12579,
  "umber": 6604,
  "Ġgained": 7815,
  "Ġsurgical": 22404,
  "Ġanarchist": 21383,
  "ahan": 15626,
  "Ġgenital": 25922,
  "ĠSaud": 5508,
  "Ġapply": 5116,
  "ĠOd": 13453,
  "Ġadventure": 9508,
  "ĠNonetheless": 23568,
  "Ġaggressively": 16115,
  "Ġfavoured": 31678,
  "journal": 22888,
  "ĠVis": 7866,
  "Ġoppose": 10387,
  "Ġobserves": 30608,
  "Ġexpanding": 9818,
  "Ġvaries": 19238,
  "Len": 30993,
  "Ġdescribed": 3265,
  "Sum": 15966,
  "Ġrobust": 10773,
  "Ġattach": 16474,
  "Ġcommentary": 11889,
  "Ġincreasing": 3129,
  "ĠMourinho": 22257,
  "Ġ57": 10210,
  "izzard": 16588,
  "Ġbullied": 28034,
  "Ġapplause": 23288,
  "ĠArmy": 4908,
  "ĠShortly": 23591,
  "ĠCompetition": 26343,
  "mind": 9391,
  "Ġoffspring": 20975,
  "Ġfiltering": 24596,
  "TA": 5938,
  "Ġaddition": 3053,
  "Ġrecognise": 17883,
  "Ġpesticides": 23851,
  "omination": 26430,
  "hall": 18304,
  "Ġ105": 18387,
  "Ġlinebacker": 14422,
  "ĠAthens": 18558,
  "ĠBa": 8759,
  "Ġracially": 23643,
  "Ġfocusing": 9242,
  "many": 19052,
  "Ġbeneficiaries": 26844,
  "ĠIN": 5691,
  "ĠFrancisco": 5217,
  "Ġpun": 3897,
  "sis": 14511,
  "ĠStalin": 17455,
  "acerb": 18275,
  "Fast": 23264,
  "Ġcapable": 5781,
  "Ġtrick": 6518,
  "IFA": 14871,
  "Ġtimer": 26118,
  "Ġdemographics": 24149,
  "lus": 25687,
  "Rock": 20004,
  "PE": 21000,
  "Ġclub": 2686,
  "make": 18262,
  "Ġfare": 12699,
  "ogenous": 30411,
  "ĠVC": 24354,
  "ĠRoth": 14631,
  "Ġbreathe": 17926,
  "Ġstation": 4023,
  "quez": 18178,
  "Ġhypot": 8359,
  "dragon": 27677,
  "Ġinterrupted": 19403,
  "Lat": 27459,
  "Ġestimates": 7178,
  "Ġnearly": 2620,
  "Ġagreements": 10962,
  "ĠHighway": 13846,
  "Ġviolation": 9146,
  "Ġsure": 1651,
  "cost": 15000,
  "Ġjumped": 10407,
  "Ġelaborate": 14092,
  "Adv": 29101,
  "Ġexplore": 6778,
  "Ġunden": 22166,
  "Ġhor": 3018,
  "Ġseafood": 29297,
  "Ġinfantry": 21761,
  "Ġ85": 10279,
  "ĠLetter": 20097,
  "Ġcor": 1120,
  "urrent": 7719,
  "ĠEli": 13131,
  "Ġcounseling": 22600,
  "Ġpolitic": 23290,
  "ownt": 5574,
  "Ġcircuits": 24236,
  "ogyn": 17923,
  "Ġ[âĢ¦]": 24303,
  "sylvania": 8034,
  "ĠFREE": 21642,
  "ĠGods": 23254,
  "Ġcomple": 1229,
  "Ġplays": 4595,
  "Ġobstacles": 15706,
  "pora": 29578,
  "Ġforesee": 21839,
  "ĠI": 272,
  "ĠMas": 11990,
  "Ġconceded": 19147,
  "Ġorganization": 3547,
  "ronics": 22768,
  "ĠSilent": 28465,
  "ĠFill": 30720,
  "/-": 23980,
  "ĠLockheed": 26878,
  "Ġforensic": 21054,
  "Ġinstalling": 16949,
  "Ġaf": 6146,
  "Ġinterested": 4215,
  "ĠMach": 9214,
  "Ġnut": 7392,
  "ologist": 6436,
  "Ġconsciousness": 10349,
  "ĠZucker": 20973,
  "ĠMilk": 27086,
  "inding": 7339,
  "Ġadm": 6432,
  "dog": 8925,
  "Ġvegetation": 26935,
  "rix": 9790,
  "ĠJacksonville": 21188,
  "Ġinforming": 25481,
  "Ġalgorith": 7752,
  "Ġfren": 19762,
  "Ġknow": 725,
  "ĠFactory": 23091,
  "ĠDeputy": 13133,
  "ĠDal": 11349,
  "part": 3776,
  "ch": 311,
  "Ġsatire": 28719,
  "Ġstairs": 18390,
  "ĠSeveral": 11285,
  "but": 4557,
  "Ġtally": 20944,
  "Ġhitting": 8041,
  "orean": 26288,
  "formers": 26143,
  "//": 1619,
  "Ġincentive": 13482,
  "ussy": 24125,
  "Ġfu": 30652,
  "Ġlangu": 2595,
  "itud": 31070,
  "Again": 14316,
  "ert": 1940,
  "Sw": 17634,
  "Ġcircumvent": 27351,
  "Ġinquiries": 21574,
  "150": 10369,
  "ly": 263,
  "Ġproven": 8037,
  "Ġtragedy": 11267,
  "Ġrelig": 2449,
  "olar": 9865,
  "Ġgrabbing": 21708,
  "efeated": 29239,
  "Ġslap": 21635,
  "Ġmes": 18577,
  "Ġspoon": 26514,
  "Ġgentlemen": 30678,
  "Ġtasked": 18147,
  "Ġve": 1520,
  "ĠCarly": 29873,
  "Ġattorney": 5268,
  "Ġjurisdiction": 15077,
  "Ġbuilders": 27719,
  "yre": 28157,
  "Ġtenth": 21712,
  "Ġsolic": 19545,
  "Ġcoding": 18290,
  "Ġorange": 11798,
  "You": 1774,
  "eor": 12897,
  "Ġnude": 25189,
  "Ġdifferential": 21582,
  "ĠMercury": 20501,
  "Ġsetback": 24897,
  "Ġbite": 13745,
  "Ġathlet": 6111,
  "ĠForbes": 18274,
  "inav": 24116,
  "ator": 1507,
  "Ġthat": 273,
  "Ġhorses": 14374,
  "ĠNep": 15583,
  "Ġstimulation": 21066,
  "AT": 1862,
  "Ġlicensed": 13179,
  "1": 17,
  "rict": 1899,
  "ure": 458,
  "Ġ].": 29477,
  "Rose": 29937,
  "Ġhypoc": 16408,
  "km": 12246,
  "ĠJak": 22010,
  "Ġpundits": 21597,
  "nan": 10954,
  "ĠVernon": 26306,
  "member": 16833,
  "Ġlibertarian": 14887,
  "Ġirony": 16986,
  "ĠUnd": 19818,
  "ĠMoore": 7187,
  "Ġaccepting": 11292,
  "Ġcarpet": 19831,
  "Ġreplace": 4230,
  "Ġdumb": 13446,
  "ĠAug": 2473,
  "Ġpetition": 8644,
  "Ġdance": 8771,
  "Ġmelee": 24817,
  "Ġindo": 21171,
  "ight": 393,
  "UN": 8199,
  "Ġexamine": 10875,
  "ĠPict": 9784,
  "ĠOttoman": 24006,
  "Ġartifacts": 19727,
  "ĠAng": 2853,
  "Prof": 14572,
  "ĠKerry": 12668,
  "ĠPaulo": 26349,
  "ĠReason": 24496,
  "Ġflawed": 15913,
  "ĠWell": 4064,
  "Ġeliminates": 31189,
  "stage": 13486,
  "Ġtranscend": 23374,
  "Ġlia": 31233,
  "Mont": 22698,
  "Ġ1973": 14237,
  "Ġneon": 25402,
  "Ġale": 25868,
  "Ġprotesting": 17827,
  "Ġhom": 2368,
  "Ġwand": 14243,
  "Ġbiased": 17962,
  "Ġsteer": 23235,
  "ĠÂ§": 21612,
  "ĠRecently": 21100,
  "Ġsynthetic": 18008,
  "Fans": 29315,
  "rave": 19711,
  "Ġfeud": 18150,
  "ĠGPU": 12810,
  "ĠEmergency": 18520,
  "Ġinsiders": 23216,
  "Ġconsidered": 3064,
  "shoot": 27148,
  "cknow": 4712,
  "ĠLA": 8906,
  "IB": 21792,
  "ateral": 9778,
  "Ġatom": 23146,
  "Ġeff": 890,
  "Ġcommodity": 17060,
  "ĠKaren": 17279,
  "ĠJay": 8321,
  "tra": 10544,
  "23": 3350,
  "ĠBach": 18021,
  "ĠBody": 17365,
  "Ġ||": 17333,
  "Pierre": 28224,
  "ighteen": 25781,
  "Ġcy": 2810,
  "Ġethnic": 8136,
  "icity": 8718,
  "ango": 14862,
  "Ġspokesperson": 8804,
  "Ġunfortunately": 11615,
  "ively": 2130,
  "Ġcorresponds": 26219,
  "ãĢĮ": 31490,
  "anges": 6843,
  "Ġflame": 20432,
  "omatic": 15003,
  "ĠSecurity": 4308,
  "ĠArtist": 23807,
  "tered": 3401,
  "Ġcheers": 29450,
  "Ġkingdom": 13274,
  "olute": 3513,
  "retch": 30183,
  "Ġunnoticed": 28579,
  "FS": 11920,
  "Foreign": 29129,
  "Ġ123": 24347,
  "Ġmort": 5649,
  "Ġimpacts": 10910,
  "Ġdaring": 25758,
  "Ġprogrammers": 19888,
  "Show": 19435,
  "ree": 568,
  "ibo": 24182,
  "flation": 28702,
  "Ġelevation": 24360,
  "Ġliquid": 8500,
  "ĠAviation": 23698,
  "oldown": 22512,
  "Ġcamps": 10217,
  "Ġcategories": 9621,
  "Ġoption": 3500,
  "ĠFrank": 4775,
  "Ġsigh": 24138,
  "Ġnation": 2667,
  "Ġdidn": 1302,
  "prof": 4950,
  "Ġsy": 798,
  "manuel": 14606,
  "enez": 9234,
  "ĠBes": 25906,
  "Ġthen": 772,
  "Ġviewpoint": 26050,
  "Ġsystemic": 19363,
  "Ġcounties": 12346,
  "Ġtalk": 1405,
  "RI": 8303,
  "ĠOnly": 6216,
  "ĠTele": 9543,
  "Ġtechniques": 7422,
  "ĠBritt": 27414,
  "Ġinclined": 17943,
  "ĠShip": 20516,
  "ĠUnion": 3780,
  "ĠHawk": 26108,
  "Ġgrave": 11940,
  "Ġprohibited": 13647,
  "Jesus": 28657,
  "Ġserved": 4373,
  "Ġadministrative": 11547,
  "Ġexplained": 4274,
  "psych": 23774,
  "Ġauthors": 6485,
  "Ġmistakenly": 28360,
  "ugging": 13983,
  "Ġstaying": 9577,
  "Ġpackets": 26439,
  "Ġcapture": 7362,
  "Ġcourageous": 28810,
  "Ġregrets": 26205,
  "eworthy": 22960,
  "ñ": 172,
  "62": 8947,
  "Ġappl": 4091,
  "New": 3707,
  "ath": 795,
  "aptic": 31155,
  "Ġcontend": 20736,
  "Ġdazz": 30631,
  "Ġdeposition": 31628,
  "Ġremainder": 17017,
  "Ġadren": 27520,
  "Ġburned": 10928,
  "Ġprisoner": 15944,
  "Ġwhit": 19970,
  "Ġtrusting": 30881,
  "Ġreveal": 2894,
  "Ġenvironment": 2544,
  "Ġbust": 13531,
  "ĠSTAT": 29314,
  "Ġproposition": 18135,
  "Ġevaluated": 18469,
  "service": 18079,
  "amp": 631,
  "ĠEven": 3332,
  "INT": 19375,
  "Ġupfront": 30316,
  "ordinary": 9227,
  "Ã©t": 17719,
  "Ġrumor": 21779,
  "olog": 865,
  "ĠSag": 27739,
  "Van": 24021,
  "Ġrestoring": 22831,
  "ĠAlcohol": 26183,
  "Ġtroub": 7610,
  "Ġexploited": 17617,
  "Ġhierarchy": 17489,
  "Ġroller": 22080,
  "ĠHunts": 26378,
  "ĠGallery": 13910,
  "ully": 2094,
  "Ġconcerning": 10365,
  "rov": 17301,
  "ĠFair": 8004,
  "Mad": 17360,
  "Ġmant": 21329,
  "ĠNorthern": 7681,
  "ĠEuropa": 22259,
  "Men": 12207,
  "Ġuniquely": 21515,
  "Ġiter": 11519,
  "ĠGray": 12737,
  "Ġdependent": 10966,
  "ĠEPA": 10316,
  "ĠDale": 19182,
  "Ġfavor": 2519,
  "Ġrelieved": 21289,
  "Ġmisunderstood": 29724,
  "ern": 1486,
  "Ġhow": 646,
  "ablo": 16841,
  "Ġmana": 17699,
  "SU": 10556,
  "Ġowns": 10329,
  "Ġpayment": 7157,
  "Ġintermediate": 21675,
  "ĠBernstein": 31259,
  "Ġcollaborated": 28350,
  "Ġensured": 24690,
  "itative": 13307,
  "Others": 20506,
  "esides": 12049,
  "ĠRaymond": 22487,
  "Ġborder": 4162,
  "ĠJohann": 23323,
  "ĠReef": 31988,
  "Ġsatellite": 9193,
  "na": 2591,
  "Ġdeals": 6921,
  "ront": 4195,
  "SL": 9342,
  "Ġglobe": 11515,
  "ective": 9179,
  "ĠElectronic": 19963,
  "Ġemphasis": 11409,
  "illes": 19995,
  "ning": 682,
  "Ġwaits": 28073,
  "eness": 10078,
  "ribution": 3986,
  "ocene": 28663,
  "Ġcat": 3421,
  "charge": 12571,
  "Ġflood": 6170,
  "Ġrepresentatives": 9241,
  "Ġiv": 23674,
  "ĠLang": 15095,
  "oj": 11625,
  "cup": 28141,
  "Ġscandal": 8282,
  "Ġpunched": 21703,
  "Ġallege": 27331,
  "Ġitem": 3344,
  "Ġlicenses": 14788,
  "Besides": 20779,
  "ĠFish": 15343,
  "iang": 13656,
  "Ġrelations": 2145,
  "ĠNora": 27452,
  "acht": 17280,
  "Ġpouring": 20618,
  "Ġvaried": 15313,
  "Ġsoutheastern": 31466,
  "ĠMercedes": 16907,
  "tell": 25611,
  "Ġmorning": 2979,
  "Ten": 23006,
  "ains": 1334,
  "Ġperpet": 8100,
  "Ġmanufact": 3884,
  "Ġtournament": 6532,
  "ĠJudiciary": 20846,
  "Ġbreeds": 30637,
  "Ġpunct": 19742,
  "ia": 484,
  "Ġrepresents": 6152,
  "Ġboarding": 23071,
  "Wilson": 30185,
  "Ġoutdoor": 14375,
  "ĠRutgers": 24115,
  "ĠBio": 19351,
  "Ġplane": 6230,
  "antha": 28373,
  "Ġslid": 29946,
  "Ġroutes": 10672,
  "Ġpart": 569,
  "Ġcustomer": 6431,
  "www": 3961,
  "ĠHuffPost": 28114,
  "Ġtank": 7249,
  "Ġphenomena": 18892,
  "pp": 335,
  "Ġterminated": 24329,
  "ĠChocolate": 25786,
  "Ġimpover": 24179,
  "!,": 26685,
  "evin": 5882,
  "Ġoppressive": 26010,
  "Ġnonetheless": 16242,
  "ĠNan": 20639,
  "Ġadjust": 5197,
  "Ġparameter": 15682,
  "Ġactor": 7177,
  "Ġreinforce": 17504,
  "ĠIQ": 17824,
  "Ġneutral": 7915,
  "ĠBoston": 5295,
  "Ġpsychopath": 29804,
  "ĠClimate": 11582,
  "ĠModern": 12139,
  "Ġlime": 30191,
  "ĠMarxist": 22302,
  "ĠTray": 31216,
  "ahoo": 11013,
  "ĠHel": 6499,
  "Ġpotato": 20414,
  "hips": 6404,
  "Ġconscience": 16852,
  "Ġ05": 17398,
  "Ġchess": 17856,
  "Ġundergo": 16194,
  "ĠIndonesia": 13518,
  "Ġtucked": 27208,
  "Ġticket": 7289,
  "ĠTories": 18548,
  "ĠBMI": 31130,
  "Ġevolution": 6409,
  "usement": 26180,
  "Ġvolume": 6786,
  "Den": 19840,
  "Ġmarketing": 6339,
  "mur": 28660,
  "Ġprimarily": 7144,
  "Ġmarginalized": 24622,
  "Ġminim": 15522,
  "digit": 24040,
  "imir": 10947,
  "ĠSharp": 23606,
  "Ġopener": 17700,
  "tml": 25029,
  "uz": 9828,
  "Ġurgency": 20518,
  "Ġpunishing": 25914,
  "uador": 20252,
  "Ġat": 327,
  "Ġcenters": 9104,
  "quirer": 31084,
  "Ġpresent": 1926,
  "ĠAnything": 21334,
  "Ġdefiance": 28890,
  "ĠDor": 12250,
  "Ġenvironmentally": 27947,
  "Ġjob": 1400,
  "Ġpainter": 30549,
  "Ġlacks": 14908,
  "Ġut": 3502,
  "Ġmood": 9839,
  "Ġtemplate": 13439,
  "mson": 23476,
  "25": 2461,
  "igel": 18770,
  "Ġcorpses": 29189,
  "ĠRonald": 11752,
  "Who": 8127,
  "Ġesc": 3670,
  "ush": 1493,
  "Ġamusing": 26603,
  "ĠCorporate": 26959,
  "Ġshareholders": 16688,
  "OP": 3158,
  "vag": 28568,
  "Em": 11180,
  "rust": 12856,
  "Ġprobability": 12412,
  "Ġintuition": 29248,
  "ĠDexter": 31481,
  "Ġwonderful": 7798,
  "28": 3746,
  "Ġhostile": 12158,
  "Ġburgl": 22944,
  "ĠPatriots": 11496,
  "Sunday": 22279,
  "Ġintensified": 25788,
  "Ġnoisy": 29613,
  "Ġreader": 8675,
  "ansas": 5928,
  "ĠImm": 11352,
  "COM": 14066,
  "Ġlegal": 2346,
  "vation": 13185,
  "Ġresponds": 18888,
  "Description": 24658,
  "Ġextremism": 19616,
  "ãģĻ": 22022,
  "Ġpeasants": 30234,
  "akespe": 17494,
  "Ġadmit": 7170,
  "Ġvot": 1163,
  "Ġderail": 27648,
  "affer": 26508,
  "Ġindict": 13372,
  "Ġdemon": 14079,
  "Ġbattles": 9780,
  "Ġgeneric": 14681,
  "Ġmast": 20853,
  "ĠMcK": 10092,
  "Ġtight": 5251,
  "ĠRogue": 26536,
  "Ġoverride": 23806,
  "chn": 1227,
  "Ġbronze": 20183,
  "ality": 1504,
  "ĠØ§ÙĦ": 24301,
  "uffer": 21033,
  "Ġvenues": 17961,
  "Ġchat": 7481,
  "Ġsix": 1910,
  "ĠDawn": 15203,
  "Ġropes": 30029,
  "Ġsensory": 22726,
  "Ġconfession": 24356,
  "Ġfiltered": 29177,
  "Ġtaped": 30775,
  "ĠPersonally": 28892,
  "sn": 17031,
  "Ġpunish": 6965,
  "vironment": 2216,
  "buster": 20489,
  "Ġprecise": 6749,
  "Night": 27411,
  "abilities": 5693,
  "Ġattended": 7475,
  "ĠCas": 11335,
  "uddenly": 19702,
  "support": 26225,
  "Ġvalues": 4065,
  "Ġlarger": 3816,
  "zed": 8699,
  "ĠRiverside": 30238,
  "ĠDriver": 24664,
  "Ġkind": 1483,
  "ĠSpecifically": 20908,
  "Ġhots": 28585,
  "Ġfifth": 7083,
  "ĠGiven": 10323,
  "Ġholy": 13862,
  "antic": 7718,
  "Ġflush": 27074,
  "Ġspeculated": 22950,
  "Ġtransmit": 15847,
  "icz": 23255,
  "Ġincumbent": 17474,
  "ody": 1148,
  "azi": 6723,
  "Ġcable": 7557,
  "ĠWeaver": 25074,
  "Ġawards": 11399,
  "imon": 24861,
  "Ġtensions": 12644,
  "ĠForm": 9207,
  "Ġmemories": 9694,
  "Ġcrowded": 15840,
  "ĠMong": 16319,
  "illing": 4244,
  "Ġplayoff": 6102,
  "ram": 4003,
  "account": 23969,
  "Ġconfessed": 22947,
  "ĠNewark": 24055,
  "Ġmines": 17109,
  "Ġstaged": 18718,
  "Ġwonderfully": 30882,
  "Ġsmaller": 4580,
  "Ġ1990": 5528,
  "Ġtasks": 8297,
  "Ġpurposes": 7078,
  "Ġknown": 1739,
  "Ġpractice": 3231,
  "ĠÂ»": 17194,
  "ĠShore": 23237,
  "ying": 1030,
  "ĠLuna": 29926,
  "ĠOrt": 24928,
  "ĠFer": 6079,
  "Ġteam": 861,
  "ĠTruth": 14558,
  "cond": 18082,
  "tick": 26159,
  "ĠEff": 9642,
  "Ġplead": 29156,
  "Ġtown": 2920,
  "Ġserum": 28789,
  "Ġframe": 4383,
  "Twenty": 28611,
  "ĠH": 331,
  "ĠThinking": 31294,
  "thal": 11434,
  "GI": 19299,
  "ĠProjects": 30959,
  "Ġabstraction": 29368,
  "dream": 29325,
  "ĠRomney": 6195,
  "oti": 3796,
  "ĠEmanuel": 22707,
  "Ġstance": 9956,
  "ĠMari": 26791,
  "ĠTell": 13743,
  "Sir": 24872,
  "Ġoffending": 26979,
  "spot": 23109,
  "Ġconsolidated": 31578,
  "ates": 633,
  "icip": 4326,
  "370": 26422,
  "Ġextra": 3196,
  "ĠMond": 2589,
  "Ġwit": 15081,
  "lis": 24870,
  "ĠBod": 26630,
  "Ġassociations": 15220,
  "Ġannouncing": 12730,
  "Ġbackers": 15477,
  "Ġorganizer": 21930,
  "arding": 14604,
  "ortion": 5266,
  "Ġrule": 3801,
  "ract": 1279,
  "Ġanat": 19645,
  "ĠJesse": 16153,
  "Ġfi": 28410,
  "×Ļ": 29349,
  "Ġbirths": 27714,
  "Ġowning": 20716,
  "netic": 10036,
  "Ġfinal": 2201,
  "â": 157,
  "Ġcriticisms": 19885,
  "Our": 4806,
  "Ġappear": 1611,
  "Ġearnest": 22418,
  "Ġverification": 21856,
  "Ġclips": 18014,
  "Ġtravelled": 17800,
  "Ġspecs": 22993,
  "ĠLimited": 17667,
  "cyclop": 25648,
  "Ġdrives": 9533,
  "ĠPulse": 30140,
  "ĠHenry": 7805,
  "pocket": 31954,
  "ario": 4480,
  "Ġloans": 8526,
  "Ġdefensive": 4923,
  "ĠFOR": 11603,
  "gic": 24313,
  "Ġboots": 16014,
  "Ġdigits": 20715,
  "ĠDate": 12284,
  "!âĢĻ": 19866,
  "Ġproceed": 5678,
  "Ġyoga": 17806,
  "Ġeighth": 14196,
  "Ġslog": 20093,
  "Ġparadigm": 19239,
  ".<|": 919,
  "Ġvessels": 14874,
  "Ġresur": 15856,
  "ĠJed": 16792,
  "Ġversatile": 21202,
  "ocracy": 4759,
  "scribe": 9581,
  "lass": 22103,
  "ĠRac": 26464,
  "ĠRCMP": 22590,
  "ĠOversight": 30405,
  "ental": 10133,
  "amm": 5653,
  "ĠWays": 28409,
  "Ġbulbs": 31355,
  "Ġexistence": 6278,
  "Ġsmile": 9625,
  "Ġgreed": 16280,
  "Ġheck": 19394,
  "Ġbehavior": 4027,
  "Ġ87": 14543,
  "Ġill": 2804,
  "ory": 615,
  "ĠCohen": 12513,
  "Sun": 18484,
  "Ġobserv": 3779,
  "Ġmethods": 5422,
  "Ã©mon": 13494,
  "unningham": 27108,
  "intend": 7054,
  "ĠSoviets": 26845,
  "Ġcombo": 17941,
  "Ġfra": 20643,
  "ĠBald": 16440,
  "Ġjourney": 6619,
  "ĠDonetsk": 26827,
  "T": 52,
  "umi": 20210,
  "Ġhypotheses": 31503,
  "Ġrifle": 12512,
  "Ġsegments": 17187,
  "elt": 2050,
  "Ġhippocamp": 27635,
  "respons": 14206,
  "ĠSprint": 19575,
  "Ġpermitted": 11954,
  "Ġlife": 1145,
  "ĠName": 12106,
  "orial": 4163,
  "âĸĪâĸĪ": 13346,
  "Ġunspe": 23624,
  "ĠNotes": 18779,
  "Ġimpulse": 25051,
  "rew": 1713,
  "ĠMatters": 26741,
  "uable": 6627,
  "Ġexpired": 21255,
  "Ġpur": 2597,
  "ĠNetworks": 25431,
  "LL": 18868,
  "ĠLiqu": 19563,
  "Ġvariable": 9982,
  "ĠJoint": 15739,
  "allah": 20437,
  "Ġrendition": 31137,
  "Ġridiculous": 10115,
  "Ġclo": 21452,
  "ĠSat": 8076,
  "Ġdistance": 5674,
  "ev": 1971,
  "Ġsubstantially": 14247,
  "ĠGaddafi": 22238,
  "ĠPerez": 18641,
  "ĠDEA": 23111,
  "cards": 31370,
  "Ġmarked": 7471,
  "Ġoperative": 24666,
  "src": 20918,
  "Ġfacebook": 27519,
  "udes": 8134,
  "Ġthereof": 24660,
  "Ġworthy": 12554,
  "ĠCave": 25070,
  "Ġknocking": 19685,
  "Ġcaliber": 26923,
  "Ġjihadist": 24306,
  "represented": 30039,
  "nect": 1717,
  "Ġprisons": 15735,
  "ĠFollow": 5879,
  "Ġdynamics": 15608,
  "ĠClean": 15253,
  "rost": 26320,
  "Ġshun": 29374,
  "ĠOhio": 5767,
  "endof": 660,
  "loc": 24689,
  "Hot": 25468,
  "Ġerrone": 26342,
  "ĠWrest": 18053,
  "ĠCom": 1040,
  "ĠSark": 24107,
  "Ġlasting": 14520,
  "Ġmitigate": 21627,
  "Ġreplay": 23028,
  "imore": 7959,
  "parable": 27181,
  "amer": 2141,
  "ĠLuke": 11786,
  "ĠRah": 14507,
  "Ġholds": 6377,
  "ĠJoined": 15460,
  "Please": 8749,
  "Arthur": 26750,
  "ĠOrche": 29757,
  "Ġstarring": 15513,
  "Ġinstitute": 19772,
  "Ġemphasized": 16576,
  "Ġscrewed": 25692,
  "Ġconce": 8640,
  "ĠBowie": 26730,
  "Ġion": 21976,
  "Ġmisses": 21559,
  "Ġcollar": 21786,
  "Ġdesper": 7084,
  "ĠJet": 20582,
  "actively": 28443,
  "soc": 29390,
  "Ġcatching": 14920,
  "Ġaggress": 4946,
  "ĠFlood": 28811,
  "Ġdispat": 29723,
  "ĠSIM": 25161,
  "ĠMal": 4214,
  "item": 20793,
  "ĠCooperation": 29938,
  "ett": 3311,
  "ĠJungle": 30840,
  "Ġeffort": 3137,
  "ĠCurrently": 16434,
  "ĠPig": 27526,
  "Ġnested": 30658,
  "tank": 25956,
  "Ġbenefit": 4103,
  "Ġsweat": 16147,
  "Going": 23113,
  "ĠMang": 26822,
  "Ġribs": 27990,
  "Ġrely": 7839,
  "idays": 13341,
  "Ġsenses": 19675,
  "ĠInvestig": 15595,
  "were": 19781,
  "ungle": 14575,
  "Ġabnormal": 21767,
  "Ġcope": 16646,
  "Ġcentralized": 23985,
  "Ġbeliever": 26321,
  "ollen": 30206,
  "itis": 14062,
  "Ġfeminist": 12318,
  "Ġeternity": 31658,
  "ĠFinally": 10108,
  "Ġoffense": 6131,
  "Ġdrawings": 21828,
  "ĠOle": 25751,
  "Ġtomato": 25148,
  "Ġprop": 1649,
  "ĠIslamists": 24751,
  "ĠMP": 4818,
  "Ġreplied": 9009,
  "Ġsearching": 9992,
  "Ġsharply": 16048,
  "creat": 22767,
  "Reb": 30204,
  "ĠVI": 18488,
  "Ġlane": 10939,
  "Ġfaster": 5356,
  "Ġrelease": 2314,
  "nces": 3245,
  "Ġheading": 8389,
  "Commun": 28027,
  "cu": 26141,
  "Ġcomm": 671,
  "Ġlack": 2732,
  "Ġpreparing": 9316,
  "Ġcognition": 29228,
  "ĠVillage": 14322,
  "Ġunder": 701,
  "EU": 16921,
  "yssey": 26635,
  "Ġflagged": 28344,
  "19": 1547,
  "jamin": 11591,
  "Ġmatch": 2889,
  "ĠKeep": 9968,
  "Ġpsychiatrist": 26980,
  "Ġkidnapped": 20484,
  "93": 9161,
  "Ġincredible": 7253,
  "Ġbelieving": 13378,
  "Ġtelecom": 22045,
  "render": 13484,
  "ĠGone": 26727,
  "Ġ1994": 8915,
  "alling": 8426,
  "ese": 2777,
  "Ġrepresentations": 25231,
  "isch": 21752,
  "ĠLake": 5940,
  "ãģŁ": 20174,
  "Har": 12355,
  "Ġadjacent": 16377,
  "Ġdegree": 5089,
  "Ġreson": 12948,
  "Ġparanoid": 26244,
  "ĠSound": 10101,
  "ĠRicky": 25159,
  "Ġflexibility": 12628,
  "ĠKle": 13327,
  "ĠGot": 16129,
  "ĠMissouri": 10428,
  "icia": 29526,
  "ĠChuck": 12905,
  "Ġshouting": 17037,
  "ipl": 6747,
  "ĠRevolutionary": 23042,
  "Ġsense": 2339,
  "Ġsperm": 19864,
  "jay": 30582,
  "ĠAmer": 29780,
  "mber": 1621,
  "ĠSchol": 25677,
  "type": 8459,
  "ooter": 22995,
  "ĠEmployees": 28588,
  "Ġscreamed": 25199,
  "Ġrag": 31884,
  "Ġconcealed": 17077,
  "ĠPersonal": 20268,
  "Ġelectronics": 14859,
  "Ġanth": 21652,
  "Ġinsult": 9909,
  "Ġ1955": 22484,
  "ĠBorg": 31169,
  "list": 6882,
  "ĠCoalition": 11879,
  "Ġnomination": 8864,
  "App": 5744,
  "Ġfragments": 21342,
  "Ġknowingly": 28696,
  "Ġtopics": 10069,
  ":\\": 24815,
  "ĠDid": 8029,
  "17": 2280,
  "Ġaddict": 18332,
  "Professor": 22173,
  "Ġkidding": 23933,
  "Ġtissues": 22996,
  "Ġfilms": 5593,
  "ĠTerrit": 21148,
  "ĠQuin": 29680,
  "})": 30796,
  "ĠâĢŀ": 27341,
  "anya": 31447,
  "clus": 2751,
  "Ġmonks": 27160,
  "Ever": 20886,
  "close": 22609,
  "ĠEng": 1948,
  "isters": 5768,
  "hawks": 23200,
  "Ġresurrect": 26503,
  "ĠFAQ": 27083,
  "ĠTay": 22190,
  "Ġadapting": 28540,
  "ĠBern": 5058,
  "haired": 29153,
  "Block": 23769,
  "ĠMaduro": 24168,
  "Ġfr": 1047,
  "Ġiteration": 20879,
  "Ġpatents": 16969,
  "Ġtread": 24809,
  ".âĢĿ": 604,
  "ĠNut": 17406,
  "Ġillumin": 23919,
  "ĠTah": 21441,
  "Without": 15610,
  "ĠGate": 14006,
  "Ġenrich": 19084,
  "rup": 11926,
  "Ġposition": 2204,
  "Ġpunt": 27137,
  "Ġshelter": 11332,
  "ĠNL": 20282,
  "estones": 28887,
  "paralle": 29215,
  "apolis": 9562,
  "Gall": 27684,
  "usion": 3929,
  "ĠDollar": 26778,
  "ĠSettings": 23324,
  "ĠKur": 22956,
  "sole": 6682,
  "ĠAust": 2085,
  "ĠHide": 12913,
  "ĠAzerbai": 24595,
  "also": 14434,
  "Ġmakeup": 16056,
  "Ġv": 368,
  "ĠTravis": 17830,
  "gre": 27346,
  "Ġuntrue": 30229,
  "Ġindef": 14868,
  "Ġorbits": 30432,
  "Ġadvisers": 16220,
  "trl": 29188,
  "inda": 19775,
  "earchers": 13295,
  "ĠVoice": 16521,
  "iences": 8684,
  "Ġas": 309,
  "Ġsmell": 9284,
  "ĠStrange": 18689,
  "aily": 2837,
  "Ġfol": 5234,
  "Ġarmor": 12862,
  "Ġcleansing": 30915,
  "Ġsty": 8965,
  "ĠFlat": 26155,
  "ibe": 24626,
  "ĠKh": 4802,
  "ĠBP": 14948,
  "men": 3472,
  "ĠHassan": 21859,
  "Ġscreenshots": 22358,
  "Ġscient": 2567,
  "Windows": 20467,
  "ded": 9338,
  "åı": 24585,
  "Ġcontinental": 25122,
  "ĠBIG": 30740,
  "ĠSO": 15025,
  "incinn": 12701,
  "Ġunlocked": 22097,
  "Ġdivor": 9936,
  "ĠQur": 17631,
  "MA": 5944,
  "ĠRegardless": 20754,
  "Ġfunny": 7594,
  ".": 14,
  "Ġhype": 16958,
  "ventus": 28108,
  "ĠSlow": 24727,
  "ess": 369,
  "Ġprofit": 6988,
  "Ġastronaut": 15073,
  "Ġreg": 789,
  "Ġviol": 1730,
  "Ġmeme": 22578,
  "--------------------------------": 10861,
  "ĠThreat": 24644,
  "ella": 14088,
  "Ġproblems": 2560,
  "Ġextraction": 21296,
  "Ġpretext": 29008,
  "Ġdigital": 4202,
  "Ġindul": 18753,
  "ĠUW": 27308,
  "Ġinitially": 6078,
  "ĠMartinez": 16798,
  "ÏĦ": 23074,
  "Ġunmanned": 26679,
  "Ġopportunities": 5616,
  "Ġpose": 11340,
  "Ġmechan": 4010,
  "Ġleast": 1457,
  "Ġmigration": 11834,
  "ĠTODAY": 15165,
  "ĠAvatar": 30148,
  "Ġtrack": 2387,
  "ĠBom": 22697,
  "ĠReligious": 22290,
  "ĠRem": 5522,
  "Mos": 28149,
  "ĠLuc": 8178,
  "ĠGeoff": 21038,
  "Îµ": 21613,
  "Ġplanted": 17695,
  "Ġundo": 22680,
  "ĠRace": 14310,
  "Ġoverdose": 24624,
  "orry": 6069,
  "erving": 12603,
  "ĠNexus": 15379,
  "2009": 13563,
  "mingham": 14840,
  "ĠTrin": 31446,
  "Several": 12183,
  "Ġoutspoken": 21005,
  "flow": 12019,
  "Ġproblematic": 13836,
  "121": 27111,
  "Ġcorrect": 3793,
  "Ron": 22027,
  "arp": 5546,
  "Ġimprisoned": 18731,
  "ĠRemove": 26722,
  "Ġpractical": 8157,
  "ought": 2770,
  "Ġcomparing": 13086,
  "ter": 304,
  ",âĢĻ": 5953,
  "ĠFont": 27010,
  "Ġfrontal": 29521,
  "ĠWindows": 4343,
  "Ġgut": 11437,
  "Ġwed": 28991,
  "Ġscrat": 25427,
  "Ġdiseases": 9896,
  "Ġarg": 1668,
  "Ġexpenditures": 23356,
  "Ġopponents": 6686,
  "Ġcertainty": 17275,
  "Ġread": 1055,
  "arg": 821,
  "Ġ104": 20931,
  "Ġevac": 10934,
  "Ġ23": 2962,
  "Ġresembling": 28351,
  "ĠDevelopment": 7788,
  "Ġdebris": 15093,
  "Doc": 29948,
  "Ġanimations": 22438,
  "Ġstick": 4819,
  "\\\\": 15259,
  "Ġsync": 19214,
  "ĠHC": 30521,
  "ĠKentucky": 10027,
  "Ġvelocity": 17492,
  "itate": 12233,
  "Ġwithout": 1231,
  "Ġcombine": 11682,
  "Ġjewelry": 23669,
  "Ġcaution": 11841,
  "Ġtechnologies": 7155,
  "ĠRose": 8137,
  "Ġproof": 6846,
  "Ġsne": 10501,
  "ĠRiley": 20519,
  "ovan": 18251,
  "gang": 25399,
  "Ġpresents": 10796,
  "Ġunintended": 24829,
  "atorial": 17796,
  "Ġfindings": 5866,
  "Ġsinger": 11152,
  "Ġeclipse": 23461,
  "Ġaffirmed": 31397,
  "ĠPadres": 28264,
  "Ġter": 976,
  "Ġcombat": 5398,
  "Ġhousing": 4837,
  "ĠDial": 27764,
  "Ġunthinkable": 31505,
  "isal": 29965,
  "ĠMuslims": 5913,
  "Ġlosses": 7775,
  "Ġnostalgia": 24315,
  "Ġeligibility": 21623,
  "Ġhelicopters": 18914,
  "Ġego": 17435,
  "amins": 28083,
  "amount": 18367,
  "r": 82,
  "ĠLocke": 31005,
  "Lim": 23902,
  "ĠMaterials": 30510,
  "da": 7576,
  "Secretary": 31316,
  "ĠAssociate": 26931,
  "Ġfactor": 5683,
  "Ġstores": 6314,
  "Ġpresumably": 12794,
  "arge": 1162,
  "Ġregistered": 7306,
  "Ġcheering": 24136,
  "ĠFlames": 26309,
  "sexual": 18382,
  "Ġterrorist": 5993,
  "Ġempt": 22963,
  "Updated": 16208,
  "Ġneeded": 2304,
  "lligence": 3075,
  "iot": 5219,
  "Ġintu": 13694,
  "Ġrealized": 6631,
  "ìĿ": 19663,
  "Ġhay": 25604,
  "ĠIll": 5989,
  "Ġpsychiat": 11807,
  "ĠSoc": 3295,
  "ĠLong": 6551,
  "ĠSurface": 18176,
  "Ġbuddies": 30701,
  "ĠSecond": 6112,
  "ORT": 14295,
  "Ġproclaimed": 21956,
  "Sp": 5505,
  "Ġtreats": 17816,
  "itary": 9458,
  "Ġwithdrawn": 20905,
  "ĠÂ·": 21257,
  "ĠMadd": 17648,
  "Ġwreck": 13942,
  "Pet": 27939,
  "ijing": 8765,
  "Ġcoordin": 7644,
  "dead": 24464,
  "Ġdisappearing": 26037,
  "ĠBeach": 8175,
  "Ġag": 500,
  "Ġheterosexual": 21739,
  "Ġbeam": 18773,
  "Ġconcluding": 27323,
  "orer": 12131,
  "Ġkin": 21216,
  "OUND": 21774,
  "ĠJoseph": 7316,
  "ĠPOW": 28796,
  "ouring": 21087,
  "Ġsimilarities": 17874,
  "wear": 14278,
  "ĠIndustry": 17441,
  "asm": 14090,
  "ĠMosul": 17051,
  "extremely": 31291,
  "91": 9734,
  "Ġ):": 23471,
  "ĠEuropeans": 16719,
  "ĠVolkswagen": 26367,
  ".âĢľ": 13399,
  "Ġwarriors": 20424,
  "ECT": 14950,
  "jav": 30998,
  "Ġslice": 16507,
  "Ġsuccessfully": 7415,
  "road": 5285,
  "bast": 18210,
  "Ġsavage": 28691,
  "Ġzone": 5698,
  "when": 12465,
  "Ġ1948": 18712,
  "ĠJa": 14363,
  "Ġshake": 12287,
  "Ġbitcoin": 7540,
  "Ġcurs": 15817,
  "Ġcorporate": 5166,
  "pard": 26872,
  "ĠGolf": 22684,
  "Ġchancellor": 21916,
  "Ġbalances": 24177,
  "Ġdivided": 8769,
  "Ġcondem": 6992,
  "cript": 6970,
  "Ġpremie": 22035,
  "anqu": 28176,
  "Ġnum": 961,
  "Ġ97": 14610,
  "Ġmodest": 11126,
  "ĠVictory": 22696,
  "Ġtrunk": 23548,
  "ochem": 22209,
  "Ġletting": 9055,
  "Ġunrest": 13575,
  "seen": 15881,
  "OTUS": 31576,
  "ron": 1386,
  "ĠStats": 27515,
  "ĠAer": 17325,
  "ĠAdvis": 17025,
  "ubarak": 23129,
  "Ġoverhaul": 14707,
  "Ġliterally": 6705,
  "Ġharmed": 24772,
  "ĠAlexis": 26023,
  "ĠSullivan": 15975,
  "Ġnowadays": 23280,
  "Ġunfamiliar": 19933,
  "ĠFame": 14536,
  "Ġsave": 3852,
  "Ġchemotherapy": 29286,
  "Ġfoo": 29488,
  "ĠLeg": 4865,
  "ĠDot": 20348,
  "ĠIE": 27258,
  "Ġmatching": 13599,
  "Ġstood": 6187,
  "------------": 24160,
  "ĠRaven": 13057,
  "ĠReggie": 30563,
  "Ġrandom": 5342,
  "olved": 5452,
  "Until": 15373,
  "Ġfe": 663,
  "Ġstage": 3510,
  "Ġwanting": 9569,
  "Ġexcell": 5870,
  "Ġjumping": 13488,
  "Ġsometimes": 3246,
  "Ġvig": 9801,
  "Ġmechanisms": 11760,
  "hedral": 19188,
  "ĠFranc": 3836,
  "],\"": 28248,
  "introdu": 25989,
  "Ġcomplete": 1914,
  "ĠMus": 2365,
  "Ġstrategically": 27793,
  "OL": 4487,
  "ĠCompar": 31674,
  "Ġapartments": 17103,
  "Ġnurt": 20826,
  "estone": 12749,
  "Ġbatteries": 13159,
  "Ġnine": 4401,
  "Ġmascul": 17913,
  "hun": 21682,
  "Ġbehavioral": 17300,
  "Ã¦": 24172,
  "Ġdecree": 25121,
  "Ġnotified": 16548,
  "Ġcontinuing": 7274,
  "Ġspect": 4990,
  "ĠDmit": 27964,
  "Ġankle": 18123,
  "Ġdeclar": 24072,
  "inge": 10719,
  "ĠBike": 25443,
  "Anthony": 26823,
  "Ġinstalled": 7499,
  "Ġreply": 12713,
  "Ġdistorted": 24633,
  "Ġgall": 7629,
  "Ġdefend": 4184,
  "icular": 22624,
  "Ġballpark": 31268,
  "Ġwheat": 16862,
  "Ġhopeful": 12775,
  "ĠPriest": 27278,
  "Ġmere": 4929,
  "Ġmasked": 26091,
  "ĠeSports": 26298,
  "Ġdepicting": 22433,
  "ĠLuxembourg": 29920,
  "ĠEVERY": 30902,
  "Ġnom": 3558,
  "ĠBernie": 8204,
  "bral": 25667,
  "Ġtempted": 24377,
  "ise": 702,
  "Ġpoised": 18352,
  "Take": 12130,
  "Ġsheep": 16470,
  "Ġlocation": 4390,
  "Ġunfair": 9895,
  "ĠSeries": 7597,
  "ĠGrad": 20481,
  "amic": 21094,
  "Ġhandheld": 28288,
  "community": 29994,
  "Ġmainland": 18913,
  "Ġoutbur": 29433,
  "ĠâĢľ": 409,
  "Ġunleashed": 23804,
  "Ġbridges": 17249,
  "ĠRee": 25480,
  "igi": 29044,
  "Ġtough": 4878,
  "Alex": 13467,
  "ĠâĢľ[": 17780,
  "ĠBag": 22114,
  "iami": 6628,
  "Wik": 31922,
  "oth": 823,
  "Ġretro": 14866,
  "Ġstepped": 9517,
  "Ġporn": 8637,
  "Ġgreet": 12156,
  "Ġordinance": 18327,
  "Ġextracted": 21007,
  "Ġref": 983,
  "Ġcriticised": 16765,
  "ĠVegan": 29762,
  "ĠPed": 12854,
  "Ġprivileged": 18989,
  "Ġsealed": 15890,
  "Ġgamer": 24816,
  "ĠLiving": 14060,
  "Ġmulticultural": 27350,
  "´": 113,
  "ĠLynch": 12751,
  "ĠResults": 21343,
  "ĠAboriginal": 24845,
  "ĠLambert": 30213,
  "Ġembracing": 20849,
  "esters": 5753,
  "umbled": 12472,
  "Ġhollow": 20620,
  "Ġobs": 2691,
  "hots": 15969,
  "Ġgru": 19064,
  "Ġmutual": 12764,
  "ii": 6323,
  "TIS": 12120,
  "Ġfundraiser": 21430,
  "Ġgray": 14008,
  "Ġcentres": 16540,
  "Ġconcer": 1721,
  "ĠRenaissance": 25840,
  "Ġradically": 20529,
  "ĠKaepernick": 23968,
  "import": 15299,
  "Ġcalculating": 26836,
  "Ġ0": 1068,
  "program": 27138,
  "Ġlamented": 30571,
  "Ġenvironmental": 5041,
  "Ġresting": 20448,
  "mostly": 25902,
  "Ġunderway": 13892,
  "Much": 16399,
  "Ġredevelop": 24825,
  "ĠRemote": 29576,
  "ĠEdd": 13859,
  "ĠJS": 25768,
  "developed": 28406,
  "ĠKelley": 27238,
  "Ġmurdering": 28504,
  "Ġdogs": 7119,
  "gged": 10909,
  "Ġconverting": 21673,
  "Ġbuddy": 22884,
  "ĠSummit": 16930,
  "Ġexamined": 11269,
  "ĠBi": 9919,
  "Ġstandpoint": 18942,
  "Ġweird": 7284,
  "mented": 10831,
  "berger": 17701,
  "Ġatop": 17345,
  "gers": 4861,
  "eling": 10288,
  "ĠIP": 6498,
  "ĠSays": 25265,
  "mate": 7913,
  "Ġsubs": 5532,
  "ĠGamer": 23386,
  "ĠPract": 17201,
  "ribe": 26164,
  "itizens": 29847,
  "those": 23188,
  "Ġislands": 12511,
  "Ġerased": 30910,
  "cont": 4139,
  "Ġphot": 2640,
  "ĠEnvironment": 8677,
  "âĢĿ,": 3949,
  "Ġadmittedly": 28097,
  "Ġfallout": 21896,
  "Ġanalogy": 21327,
  "ĠCM": 14877,
  "Ġgenre": 10118,
  "Ġwanna": 21338,
  "ĠBoulder": 24475,
  "Ġcows": 19745,
  "Ġhull": 26557,
  "Ġdemands": 7303,
  "Ġstrikeouts": 30093,
  "bourne": 10346,
  "ĠSwan": 18189,
  "Ġlaughter": 20423,
  "ĠDanny": 13303,
  "oped": 20571,
  "Ġtalented": 10127,
  "Ġsol": 1378,
  "Dem": 9328,
  "link": 11042,
  "Ġexch": 9039,
  "ĠVor": 29474,
  "Ġdecent": 7044,
  "Ġavailability": 11657,
  "Ġtens": 9355,
  "Ġbiodiversity": 28584,
  "Ġvariety": 5068,
  "Ġunknown": 6823,
  "ĠNem": 24889,
  "ĠKo": 17294,
  "Ġscrim": 24982,
  "Ġ**": 18802,
  "Ġcommerce": 18362,
  "Ġstatewide": 18763,
  "ĠMile": 26694,
  "cher": 4102,
  "Ġexecute": 13098,
  "ĠSin": 11597,
  "Ġstim": 6976,
  "sel": 706,
  "Ġdarkness": 13920,
  "ĠAbe": 20937,
  "Ġgl": 1254,
  "ent": 256,
  "kefeller": 26375,
  "des": 8638,
  "Ġaw": 3257,
  "Ġarrays": 27588,
  "ĠCafe": 26280,
  "ector": 13929,
  "Ġmechanism": 6449,
  "umn": 4828,
  "Ġcontinually": 16648,
  "Ġrebell": 13968,
  "Ġdisable": 21947,
  "Ġsettlements": 15261,
  "eston": 17064,
  "Ġverbal": 17228,
  "Ġproxy": 15922,
  "Ġcoc": 8561,
  "mail": 4820,
  "Ġcomments": 3325,
  "ocket": 6391,
  "Ġsupporters": 4473,
  "ĠMorning": 12960,
  "Ġbride": 27568,
  "Ġrecon": 10358,
  "Ġzoo": 21882,
  "alty": 6249,
  "ĠDream": 10694,
  "ĠMar": 1477,
  "oro": 18947,
  "oan": 20189,
  "Ġlooked": 3244,
  "ĠFE": 24417,
  "Ġtelecommunications": 24292,
  "ĠColon": 15012,
  "Ġmessages": 5861,
  "Ġpreach": 31855,
  "ertainly": 16245,
  "Ġassessment": 8981,
  "Ġother": 537,
  "31": 5200,
  "Ġglor": 25489,
  "Ġrelic": 26810,
  "ĠFS": 29242,
  "ĠLaden": 15394,
  "Ġpersecution": 19551,
  "Therefore": 26748,
  "Ġattached": 8398,
  "Ġwhite": 2340,
  "Ġnegative": 4404,
  "ob": 621,
  "Ġburdens": 24406,
  "ffff": 31619,
  "Ġtrials": 9638,
  "Ġdiscipl": 7680,
  "ĠBri": 25442,
  "Ġredu": 2022,
  "Ġconvenient": 11558,
  "Ġencouragement": 24677,
  "Ġdel": 2714,
  "Ġbattalion": 31365,
  "EY": 26793,
  "ist": 343,
  "Home": 17613,
  "ĠSoftware": 14296,
  "Ġsharks": 21615,
  "Ġmolecular": 18693,
  "Ġcoordinate": 19990,
  "ohan": 22999,
  "ĠTumblr": 22647,
  "ISA": 20714,
  "ĠNissan": 23608,
  "Ġfreshman": 14509,
  "Ġsurgeries": 27675,
  "Ġscientifically": 28610,
  "ĠHo": 8612,
  "rella": 18842,
  "corn": 23625,
  "Ġsour": 1808,
  "check": 10066,
  "Ġtubes": 21557,
  "Ġrumours": 24184,
  "ĠHeather": 22391,
  "ĠAut": 6511,
  "ĠForward": 22443,
  "Ġsteal": 8248,
  "fan": 16156,
  "av": 580,
  "Ġsubstantive": 24812,
  "udo": 24263,
  "zer": 5731,
  "Ġcourse": 1700,
  "Ġfinishes": 19427,
  "Ġtraffickers": 31224,
  "aval": 8728,
  "ĠPr": 1943,
  "Ġcoordinates": 24827,
  "ĠGUI": 30768,
  "Ġoutlines": 24722,
  "light": 2310,
  "Ġtrilogy": 21473,
  "ascal": 25305,
  "ele": 9383,
  "Ġshot": 2579,
  "Ġadministrators": 15867,
  "Ġintellectuals": 25219,
  "nov": 30262,
  "Ġcurved": 27743,
  "Ġresident": 6290,
  "ople": 544,
  "Ġbasic": 3982,
  "Ġfat": 4127,
  "Ġsheriff": 13903,
  "Ġant": 1674,
  "Pop": 23592,
  "Ġisolation": 13336,
  "ĠFlorence": 27857,
  "oused": 27665,
  "Ġspell": 9652,
  "Ġmastery": 31064,
  "umbl": 13966,
  "Ġbegins": 6147,
  "Ġsession": 5924,
  "ĠEther": 26200,
  "ĠCaucas": 24943,
  "Chapter": 26819,
  "joy": 2685,
  "ĠSyndrome": 29648,
  "Ġomn": 22252,
  "incial": 11476,
  "Fore": 17478,
  "Ġexpression": 6330,
  "Ġevaluation": 13889,
  "Ġgenet": 13545,
  "ĠFe": 5448,
  "Ġignoring": 14290,
  "Ġabused": 13900,
  "ĠId": 7248,
  "una": 11467,
  "Ġcho": 1716,
  "Ġbrothers": 8496,
  "ĠProgressive": 19935,
  "Ġdrink": 4186,
  "ertain": 1419,
  "Ġassigned": 9620,
  "istries": 27633,
  "Ġoutsider": 25039,
  "ĠGlobe": 15314,
  "Ġmater": 26458,
  "ORE": 6559,
  "ĠKirk": 12691,
  "Ġworrying": 15672,
  "Ġdark": 3546,
  "BA": 4207,
  "ription": 4158,
  "ĠBillion": 31917,
  "ardy": 30849,
  "Ġcasually": 27300,
  "Ġlegendary": 12736,
  "veyard": 25016,
  "Ġraises": 10924,
  "Ġhoped": 8969,
  "Ġgroceries": 31867,
  "Ġinactive": 31770,
  "iii": 27717,
  "Jo": 11257,
  "Ġvend": 10225,
  "anto": 13628,
  "Small": 24444,
  "Ġencourages": 16423,
  "Ġcommanders": 19193,
  "Ġtake": 939,
  "igation": 7070,
  "Ġhyper": 9087,
  "AH": 25717,
  "Ġrebels": 9988,
  "bai": 22818,
  "Ġfestival": 8961,
  "Ġcontin": 1115,
  "Ġuranium": 17375,
  "ades": 2212,
  "ĠAdvent": 13249,
  "Ġbanning": 15746,
  "AV": 12820,
  "letcher": 25174,
  "Ġle": 396,
  "ĠBroadway": 15963,
  "ĠFoods": 20702,
  "Jess": 31144,
  "eff": 3176,
  "Ġsigns": 5471,
  "ĠCommerce": 14724,
  "IME": 15395,
  "Ġmilestone": 19356,
  "Ġdedication": 19619,
  "Ġovernight": 11663,
  "Ġproudly": 20294,
  "Ġfreedom": 4007,
  "Ġarmour": 25537,
  "ĠREC": 29775,
  "Ġpuck": 15517,
  "Ġinputs": 18285,
  "Ġchall": 2122,
  "ĠGarcia": 15532,
  "Ġsneak": 19890,
  "ĠEthan": 28240,
  "ocus": 12260,
  "Ġchildren": 1628,
  "ĠPress": 4199,
  "ĠPrep": 22908,
  "Writ": 13880,
  "osaur": 16992,
  "Ġhair": 4843,
  "done": 29508,
  "Ġrisk": 2475,
  "Ġdelicious": 14261,
  "Ġoxy": 10864,
  "ĠInterestingly": 23667,
  "Ġbad": 1937,
  "ĠNA": 14844,
  "Ġmarketed": 24549,
  "Ġundecided": 28431,
  "ĠRafael": 24663,
  "horse": 27741,
  "Ġ2002": 6262,
  "Ġub": 17781,
  "Ġdestruction": 7934,
  "ĠUber": 9860,
  "ĠOptim": 29952,
  "uels": 11721,
  "Ġfrightened": 24653,
  "ĠKris": 23866,
  "Ġwip": 14444,
  "Ġouts": 8507,
  "ĠPole": 28412,
  "Ġprojected": 11407,
  "Ġbarely": 7996,
  "Ġunsub": 29333,
  "ĠLEGO": 27738,
  "enson": 16168,
  "Ġsquarely": 30609,
  "Ġwipe": 20460,
  "Ġadamant": 29186,
  "ĠChair": 8534,
  "Ġide": 1238,
  "ijuana": 4024,
  "Ġruin": 16870,
  "ĠSpirit": 13270,
  "Ġrecipient": 18416,
  "Res": 5875,
  "Ġbreath": 9152,
  "ĠTeh": 14299,
  "idered": 2982,
  "irection": 19981,
  "aminer": 26119,
  "Ġcondition": 4309,
  "Ġorth": 27333,
  "gering": 23294,
  "Ġmountain": 8627,
  "ĠUK": 2965,
  "Ġdeclining": 14415,
  "regulation": 24004,
  "Ġvaluation": 28030,
  "ĠGuantanamo": 24135,
  "ĠSpin": 30457,
  "Ġobsess": 21462,
  "ĠTro": 8702,
  "Ġemployers": 10207,
  "Ġeurozone": 26194,
  "Ġpassage": 9689,
  "Ġsucceeds": 29317,
  "ĠVital": 30495,
  "Ġobtain": 4307,
  "ĠNoel": 29524,
  "Event": 15024,
  "Bur": 21643,
  "Ġjoining": 8242,
  "Ġcounsel": 7779,
  "Ġblow": 6321,
  "Ġplat": 20026,
  "ĠRandy": 18529,
  "ĠColumbia": 8407,
  "phan": 11644,
  "ĺ": 203,
  "ĠOfficers": 22596,
  "Ġinterval": 21030,
  "Ġstatistically": 19911,
  "ĠOlymp": 5660,
  "ugg": 4197,
  "ĠShort": 10756,
  "ĠIowa": 7630,
  "Ġflour": 10690,
  "Ġkeeps": 7276,
  "Ġninth": 16409,
  "Ġcra": 14077,
  "Ġvaccines": 17043,
  "ogg": 12937,
  "mas": 4972,
  "Ġwebsite": 2888,
  "ĠEns": 28575,
  "ĠStephens": 29895,
  "SON": 13769,
  "y": 89,
  "Ġshif": 6347,
  "Ġ1981": 13705,
  "Ġfeas": 16226,
  "Ġspecies": 4368,
  "Ġaluminum": 17866,
  "ĠOR": 10981,
  "Prom": 26939,
  "Ġquad": 14379,
  "osexual": 7853,
  "Ġautopsy": 26616,
  "Ġdisabilities": 19589,
  "Ġlabor": 4541,
  "Ġinherent": 10480,
  "Ġmark": 1183,
  "Ġ330": 29918,
  "Ġswath": 26221,
  "Ġinflu": 2740,
  "Ġrecre": 9894,
  "Ġpeak": 8278,
  "ĠZen": 16649,
  "Ġmourn": 26472,
  "Ġsensors": 13603,
  "strom": 18439,
  "cann": 29201,
  "Ġ1972": 14330,
  "Ġembassy": 14042,
  "oids": 19556,
  "Ġbelie": 1105,
  "Ġdiminishing": 29989,
  "Pre": 9768,
  "Ġpar": 1586,
  "iq": 25215,
  "ils": 4991,
  "braska": 15486,
  "Ġgluten": 21897,
  "atham": 31900,
  "ĠBrothers": 14943,
  "Ġstadium": 7973,
  "ĠErin": 28679,
  "Ġcallback": 29502,
  "ĠFarrell": 29440,
  "geant": 26046,
  "ĠGust": 24308,
  "Ġvoyage": 28705,
  "Ġthemselves": 2231,
  "isance": 30395,
  "Ġelectro": 14927,
  "Ġser": 986,
  "Ġgreens": 29746,
  "Ïĥ": 27602,
  "language": 18322,
  "ĠChapter": 14499,
  "cell": 4192,
  "Ġironically": 27065,
  "Ġner": 15783,
  "Ġshaking": 17289,
  "uez": 12153,
  "osoph": 18984,
  "Ġthickness": 24822,
  "kees": 13658,
  "ĠFelix": 27508,
  "ĠStand": 7008,
  "ublin": 13726,
  "articles": 27585,
  "Ġtender": 16851,
  "ĠHarris": 8706,
  "Ġhero": 4205,
  "ĠRoll": 9989,
  "issan": 21111,
  "leveland": 8332,
  "ĠGP": 14829,
  "Ġelectromagnetic": 30218,
  "Ġlogo": 10398,
  "strike": 26731,
  "ĠCycling": 23778,
  "Ġgenes": 10053,
  "ĠFl": 1872,
  "ĠMoney": 13056,
  "ĠRoss": 8573,
  "Ġclearance": 20452,
  "ban": 3372,
  "ĠFuller": 22915,
  "Ġtransactions": 8968,
  "ĠReporter": 22887,
  "ĠMTV": 23008,
  "oxide": 30837,
  "Ġbrowsing": 22019,
  "Ġmemory": 4221,
  "Ġshark": 17030,
  "ĠSlack": 31830,
  "Which": 12626,
  "Ġcoloss": 29589,
  "Ġclever": 12562,
  "Ġintrinsic": 26549,
  "hl": 19228,
  "onge": 14526,
  "Ġspace": 2047,
  "Ġworst": 4563,
  "Ġmarried": 5900,
  "Ġinfinitely": 31258,
  "ĠBarber": 29750,
  "Ġcommenting": 22407,
  "oler": 13317,
  "Ġattractive": 10096,
  "Ġcleanup": 25319,
  "sil": 19975,
  "ĠDNS": 22837,
  "ĠGilles": 28603,
  "founder": 12754,
  "Ġlaid": 7776,
  "ĠTill": 14644,
  "ĠSamar": 30427,
  "Rober": 13749,
  "ĠBuffalo": 12720,
  "blems": 24328,
  "Ġvert": 10475,
  "GET": 21647,
  "ared": 1084,
  "pound": 15575,
  "Want": 19391,
  "ĠFoundation": 5138,
  "Ġoccasionally": 10240,
  "Ġchoke": 26331,
  "ĠDownload": 13242,
  "Ġgod": 6833,
  "uckland": 24005,
  "}": 93,
  "Ġpos": 1328,
  "aye": 29866,
  "growth": 26129,
  "Ġupgrade": 8887,
  "cf": 21063,
  "âĢĵâĢĵ": 19001,
  "Ġcontinents": 29644,
  "Ġbrowse": 27514,
  "ĠFY": 27729,
  "Ġresemble": 20652,
  "loving": 28469,
  "linear": 29825,
  "ĠCambodia": 26127,
  "ization": 1572,
  "Ġcandles": 31166,
  "Ġcyclists": 18372,
  "Pad": 26207,
  "Ġchampionships": 19574,
  "Ġhomophobic": 27928,
  "ĠSach": 15713,
  "ostic": 16587,
  "ĠUFO": 18960,
  "Ġtu": 11696,
  "ĠLatin": 8210,
  "Ġtant": 20470,
  "ĠCA": 8722,
  "ĠKant": 25035,
  "Ġtrauma": 14118,
  "ĠSuch": 8550,
  "Ġsoared": 27704,
  "SAN": 25316,
  "ĠTorah": 30286,
  "ĠTol": 19009,
  "ĠOz": 16321,
  "Ġrecovering": 17454,
  "ĠGo": 1467,
  "âĸł": 24574,
  "Ġallocate": 30456,
  "Ġrepairs": 20539,
  "Ġfetch": 25001,
  "Ġlots": 5626,
  "Cla": 29548,
  "Ġshelves": 18024,
  "atri": 22236,
  "ÃĥÃĤÃĥÃĤÃĥÃĤÃĥÃĤ": 11001,
  "Ġloc": 1134,
  "Ġstyles": 12005,
  "Ġjournalistic": 29643,
  "Ġlandscapes": 28072,
  "breaker": 27486,
  "Ġcircumstances": 6470,
  "ories": 1648,
  "Ġrul": 1906,
  "ĠGoals": 30092,
  "Ġmanaging": 9660,
  "55": 4652,
  "Ġdisbelief": 27598,
  "billion": 18534,
  "Ġstru": 2470,
  "ĠWor": 16633,
  "Ġma": 18196,
  "ĠGerald": 23279,
  "ĠCustomer": 23820,
  "Ġjour": 26208,
  "Ġstri": 2186,
  "ĠHum": 13854,
  "Ġdeserved": 17393,
  "Ġcaptive": 24820,
  "ĠJones": 4624,
  "mad": 8403,
  "Ġfam": 1038,
  "Ġcircles": 12174,
  "Ġemploy": 1840,
  "gest": 2941,
  "Ġstruggles": 10559,
  "Ġarson": 29862,
  "Ġblasp": 27666,
  "Ġcalcium": 25356,
  "Ġathlete": 14143,
  "HO": 26626,
  "ĠDoc": 18140,
  "pared": 26602,
  "Ġdesignated": 11823,
  "Ġdisreg": 17218,
  "Ġdevelopers": 5113,
  "ĠBrussels": 12694,
  "lock": 7287,
  "Ġglad": 10228,
  "ĠMaz": 20145,
  "77": 5896,
  "onde": 16450,
  "workers": 19620,
  "Ġwelcomes": 31493,
  "ok": 444,
  "ĠNever": 8317,
  "ĠCharter": 21248,
  "Ġscenarios": 12435,
  "keley": 11236,
  "ĠCOL": 29066,
  "Ġnotably": 11847,
  "Question": 26329,
  "Ġdeclares": 23946,
  "ocr": 4209,
  "ĠKaiser": 29320,
  "Ġfires": 11924,
  "Lew": 28137,
  "ĠAndrew": 5845,
  "Ġwaged": 27710,
  "ĠTuls": 29346,
  "Ġrecei": 18537,
  "Ġplay": 625,
  "etary": 7615,
  "ĠAZ": 28421,
  "Ġgenerating": 13720,
  "Fort": 22251,
  "fig": 22585,
  "ĠCardiff": 25668,
  "ramid": 19912,
  "akin": 27104,
  "ĠNOAA": 27572,
  "Ġslowing": 18336,
  "ĠDragons": 23132,
  "hom": 25644,
  "ĠDe": 1135,
  "Ġattacking": 8399,
  "ania": 4979,
  "Ġoversight": 12347,
  "ĠSword": 23923,
  "Ġspark": 7890,
  "atable": 16621,
  "ĠMead": 20990,
  "Ġnewly": 7314,
  "Ġandroid": 22782,
  "Ġlighter": 14961,
  "Ġhundred": 3221,
  "aw": 654,
  "ache": 5751,
  "ĠDH": 28439,
  "Ġ230": 23141,
  "Ġcycle": 6526,
  "Ġcis": 29090,
  "Ġacqu": 3990,
  "Ġneutrality": 15775,
  "Ġexceeded": 19487,
  "ffiti": 20630,
  "ludes": 21572,
  "ao": 6909,
  "Ġresignation": 13931,
  "ĠStudios": 13263,
  "anguage": 11226,
  "anced": 3180,
  "Ġpodcast": 10394,
  "elia": 29783,
  "otto": 26702,
  "ises": 2726,
  "finals": 23552,
  "Ġtranslation": 11816,
  "ico": 3163,
  "john": 31012,
  "AFP": 15075,
  "Ġenable": 7469,
  "Great": 15246,
  "Nic": 27371,
  "Ġgre": 16166,
  "anim": 10729,
  "Ġprioritize": 27315,
  "ĠPalestine": 14064,
  "Today": 7338,
  "Ġcogn": 8467,
  "ĠNixon": 13632,
  "ĠIR": 17026,
  "ĠHud": 14279,
  "imize": 10523,
  "ouston": 5995,
  "Ġsubmissions": 22288,
  "Ġimmigrant": 12779,
  "Ġlightly": 17579,
  "Ġtricks": 15237,
  "ica": 3979,
  "ĠXX": 28088,
  "Ġlith": 21913,
  "ĠBatman": 9870,
  "Film": 29837,
  "Ġfinalists": 31777,
  "Ġdiver": 12864,
  "Ġestablished": 4763,
  "ĠPupp": 30763,
  "Ġrecap": 24446,
  "Ġ911": 14856,
  "ĠWenger": 22717,
  "\"[": 19414,
  "Ġconference": 3625,
  "Leg": 17563,
  "Ġvisit": 2926,
  "weight": 6592,
  "Mart": 11586,
  "itage": 8851,
  "death": 21826,
  "##": 4673,
  "aches": 3468,
  "oll": 749,
  "Ġpromoter": 28553,
  "Ġconstitutes": 19078,
  "ogle": 2284,
  "ĠBA": 22848,
  "greg": 6319,
  "ĠArchive": 23727,
  "Additional": 20445,
  "Ġmeltdown": 24654,
  "date": 5964,
  "Ĵ": 197,
  "pir": 3105,
  "ĠOutside": 22405,
  "small": 21727,
  "itutes": 15463,
  "Ġsausage": 30887,
  "Ġtheater": 11323,
  "Ġeco": 28651,
  "1998": 25710,
  "Ġtwists": 28666,
  "Ġhorror": 8708,
  "Ġsignaled": 26866,
  "Ġkissing": 28014,
  "Ġexchanged": 21091,
  "Ġfiling": 11643,
  "Ġexisting": 4445,
  "inte": 5312,
  "ĠWeekly": 16484,
  "Ġsupervisor": 20033,
  "ĠMight": 28630,
  "icers": 14773,
  "ĠSuperior": 22801,
  "iol": 1537,
  "Ġpulls": 17243,
  "Ġvictorious": 29890,
  "ĠQuite": 27567,
  "Ġlongevity": 25764,
  "apper": 10784,
  "ĠOg": 21584,
  "Ġmother": 2728,
  "Ġclients": 7260,
  "lines": 5716,
  "ĠTheodore": 31665,
  "ptions": 8662,
  "Ġdisgu": 17084,
  "sect": 9468,
  "Ġeye": 4049,
  "Ġblock": 2430,
  "ity": 371,
  "icago": 3896,
  "ery": 2214,
  "Ġelites": 16785,
  "ĠJ": 412,
  "Ġoutsiders": 23612,
  "ĠPoc": 27051,
  "ĠV": 602,
  "Ġintelligence": 3798,
  "ĠVent": 17858,
  "Ġrally": 6305,
  "rible": 5278,
  "itious": 24007,
  "Ġconsequently": 26826,
  "Ġtrailers": 29380,
  "pu": 31819,
  "Ġcommunal": 22423,
  "UG": 18156,
  "Ġmuscles": 15006,
  "Ġago": 1844,
  "rane": 12563,
  "sylv": 7969,
  "Ġpossessing": 24724,
  "Ġclimbed": 17508,
  "ĠMichigan": 5975,
  "Ġbodies": 5728,
  "Ġfloated": 25355,
  "Ġbund": 12133,
  "ĠGulf": 9376,
  "Ġpriv": 1728,
  "Ġminutes": 2502,
  "Ġquarter": 3219,
  "Ġ>>": 14910,
  "Ġbacks": 11016,
  "Large": 29815,
  "Ġantagon": 22324,
  "ĠAf": 1979,
  "Ġattitudes": 12926,
  "Ġknot": 28878,
  "ĠAnyway": 23772,
  "Ġexploiting": 23803,
  "Ġaccelerating": 26475,
  "ĠJur": 21280,
  "âĢľ[": 24978,
  "ĠLeonardo": 31843,
  "Ġrupe": 30025,
  "Ġcollector": 22244,
  "hner": 14392,
  "Ġfifteen": 17672,
  "Ġinsure": 14386,
  "Ġforfeiture": 31228,
  "Manager": 25127,
  "intage": 15714,
  "too": 10562,
  "Å«": 23012,
  "rahim": 20720,
  "Ġrapp": 23093,
  "ulous": 6459,
  "Ġpara": 18793,
  "Ġdistress": 16784,
  "ĠSoft": 11528,
  "hey": 17199,
  "Ġprotested": 22044,
  "phal": 28223,
  "Ġentitled": 9106,
  "nery": 30504,
  "ĠThrones": 18636,
  "Ġintegrity": 10498,
  "Ġlens": 11082,
  "Ġglobal": 2689,
  "Ġhonors": 21691,
  "Ġready": 3349,
  "Ġinflation": 8747,
  "cat": 11426,
  "Ġcompromising": 30639,
  "Time": 10287,
  "Ġener": 2206,
  "Ġnotes": 4465,
  "Ġpinned": 27702,
  "Ġmeaningless": 21176,
  "ĠWith": 2135,
  "ĠIf": 1127,
  "Ġlithium": 25154,
  "igible": 26450,
  "Ġhind": 15102,
  "assic": 26828,
  "Ġnon": 1742,
  "\".": 2785,
  "uffled": 29678,
  "pers": 17925,
  "ĠTony": 7571,
  "Ġoper": 1426,
  "Ġblockbuster": 24760,
  "Ġrust": 19499,
  "Ġsorrow": 28707,
  "Ġcreated": 2554,
  "ĠTab": 18118,
  "inton": 1907,
  "iliated": 26552,
  "Ġinvented": 13401,
  "Ġslipped": 17628,
  "ĠTheory": 17621,
  "Ġcontested": 18860,
  "Ġorn": 25118,
  "td": 28122,
  "Ġshipment": 29709,
  "ĠNicholas": 17971,
  "Ġquestionable": 15953,
  "ĠIMA": 28463,
  "ĠIslamabad": 31901,
  "Ġheight": 6814,
  "Head": 16274,
  "Ġindiscrimin": 30195,
  "ĠSgt": 18684,
  "123": 20089,
  "Ġrailroad": 23033,
  "Ġdevice": 3563,
  "Ġconsulting": 15810,
  "Ġprom": 1360,
  "Ġshattered": 22101,
  "okes": 2623,
  "ĠISIL": 20263,
  "ABC": 20988,
  "Ġdevelopmental": 23314,
  "ĠCalvin": 23252,
  "acity": 4482,
  "Cent": 19010,
  "Ġpumps": 27222,
  "Ġscores": 8247,
  "Ġhomage": 26202,
  "Pe": 5629,
  "are": 486,
  "ĠWebsite": 17930,
  "duc": 6298,
  "Ġfaults": 29466,
  "agi": 24388,
  "Ġsimulate": 27113,
  "Ġpolling": 11361,
  "ĠHughes": 15871,
  "ĠFoley": 27312,
  "ĠChapman": 23321,
  "Ġdos": 21354,
  "Ġ1943": 22468,
  "feed": 14984,
  "Ġintroducing": 13549,
  "ilities": 2505,
  "Ġlemon": 20726,
  "Ġjoy": 8812,
  "Ġlandlords": 26008,
  "What": 1965,
  "Ġvotes": 5115,
  "Ġalphabet": 24146,
  "laws": 26392,
  "ĠCandy": 30300,
  "has": 10077,
  "ĠEmpire": 8975,
  "Ġbroken": 5302,
  "Ġtraps": 22313,
  "Ġpraising": 26469,
  "needed": 23570,
  "ĠPM": 4442,
  "Ġdismissed": 9076,
  "Ġroot": 7503,
  "chewan": 23332,
  "Ġmanufacturer": 12447,
  "ERO": 31124,
  "Ġdefinite": 23426,
  "rien": 13629,
  "Ġfactory": 8454,
  "ĠGu": 2158,
  "Ġsince": 1083,
  "Ġfollows": 6106,
  "razy": 5766,
  "Ġprow": 23136,
  "ĠComput": 22977,
  "ĠAshton": 31994,
  "ĠPie": 25176,
  "Ġadjustment": 17500,
  "Ġyesterday": 6119,
  "Ġowing": 26196,
  "ĠEnglish": 3590,
  "Ġpushing": 6552,
  "Ġi": 1769,
  "Ġboost": 5363,
  "Ġtransform": 5981,
  "Ġcontaminated": 20572,
  "cur": 18805,
  "raining": 23145,
  "Ġdoub": 3181,
  "Ġhumili": 19393,
  "Ġbegan": 2194,
  "ĠPride": 18171,
  "Ġencompass": 18675,
  "Ġfields": 7182,
  "umbo": 24944,
  "ĠCher": 13747,
  "Ġpopulated": 18819,
  "âĢ¢âĢ¢": 16612,
  "Ġskill": 6568,
  "ĠEug": 18821,
  "Ġpenned": 26638,
  "ĠBuild": 14213,
  "vable": 21944,
  "Ġmer": 4087,
  "ĠRescue": 24134,
  "Ġveteran": 7424,
  "ĠPodesta": 22955,
  "ĠCaf": 31899,
  "arn": 5927,
  "Ġtelephone": 11028,
  "Ġno": 611,
  "ott": 1555,
  "Ġbids": 23999,
  "Ġwholes": 16882,
  "Ġargue": 5966,
  "Ġdividends": 25500,
  "ventional": 21428,
  "Ġasks": 8101,
  "Ġreaching": 8108,
  "Ġnormally": 8154,
  "ĠEst": 10305,
  "Ġchange": 1353,
  "Ġgrow": 1458,
  "erals": 16117,
  "Ġspam": 18783,
  "Ġsh": 388,
  "ĠNGO": 17807,
  "Ġrev": 2478,
  "0000": 5703,
  "320": 26770,
  "ĠCitizens": 16198,
  "take": 15721,
  "ĠMY": 22528,
  "Î¿": 18158,
  "Ġfirmly": 13530,
  "Ġtor": 7768,
  "Ġpowers": 5665,
  "Ġhobby": 18490,
  "outine": 30772,
  "Ġprices": 3947,
  "Ġranc": 27030,
  "Ġtagged": 27623,
  "reddit": 19758,
  "ĠPradesh": 19790,
  "protected": 25190,
  "ancies": 15952,
  "Ġtiles": 22100,
  "ĠBel": 3709,
  "ĠWire": 15512,
  "Alp": 31966,
  "ĠMr": 1677,
  "ĠMedia": 5826,
  "backs": 8831,
  "Ġimplying": 27487,
  "Ġcomes": 1852,
  "ĠMagazine": 11693,
  "Ġstakes": 17422,
  "ses": 9741,
  "ĠNode": 19601,
  "Ġraided": 23597,
  "ĠGoldberg": 24025,
  "liberal": 27295,
  "Ġmembership": 9246,
  "Ġmanif": 29280,
  "Ġteenage": 13971,
  "Ġspeakers": 10711,
  "ĠGNOME": 31999,
  "yrr": 24436,
  "Ban": 29682,
  "ĠHuawei": 29910,
  "Ġentrepreneur": 15630,
  "Ġedition": 7907,
  "ĠPhysics": 24331,
  "ĠThread": 28062,
  "aration": 9760,
  "ĠCirc": 8129,
  "ĠAlternatively": 30986,
  "Ġblame": 6818,
  "Ġreleg": 18745,
  "lights": 13988,
  "arious": 19000,
  "Ġallocation": 20724,
  "ĠDet": 8850,
  "Ġbrutal": 10541,
  "ĠTrophy": 21026,
  "ĠMrs": 9667,
  "Ġcart": 6588,
  "America": 15332,
  ".ÂĶ": 27465,
  "itsu": 22825,
  "Ġbishops": 24527,
  "West": 13638,
  "Ġrecession": 11461,
  "UTC": 19666,
  "Ġconclusions": 12215,
  "ACT": 17063,
  "illance": 6110,
  "ĠSystems": 14103,
  "uggish": 31209,
  "Ġgenerator": 18810,
  "Ġinvestment": 4252,
  "ĠGovernor": 9261,
  "Ġquoted": 9403,
  "Ġfertil": 17840,
  "Ġla": 1614,
  "stud": 18854,
  "mod": 7189,
  "ĠSleep": 22730,
  "Ġnotions": 23080,
  "uras": 15559,
  "isly": 31013,
  "Ġground": 2268,
  "true": 16889,
  "eless": 5081,
  "ĠKos": 15855,
  "ĠLeeds": 23127,
  "Ġevolving": 18061,
  "Ġfrank": 12213,
  "ß": 154,
  "ĠPro": 1205,
  "erc": 3232,
  "ĠVas": 21632,
  "Ġprovoc": 19144,
  "Ġconfiguration": 10514,
  "ĠInnovation": 23632,
  "Ġaides": 15242,
  "Ġfragment": 25693,
  "Along": 19369,
  "ĠTripoli": 29145,
  "ĠZeal": 7430,
  "Ġconsidering": 5567,
  "Ġqueer": 20438,
  "Ġqueue": 17511,
  "Ġseeks": 11388,
  "used": 1366,
  "Ġversion": 2283,
  "ÄŁ": 20737,
  "cn": 31571,
  "ĠPrint": 14875,
  "ĠLance": 20803,
  "Ġ(\"": 10007,
  "Ġtheirs": 20497,
  "business": 19755,
  "nails": 31868,
  "Ġmodels": 4803,
  "ĠHil": 23909,
  "ĠTwitch": 24283,
  "writ": 5812,
  "adays": 17723,
  "oving": 5255,
  "ĠAssessment": 29055,
  "Ġcheese": 10379,
  "Disney": 31459,
  "ĠRet": 7942,
  "gor": 6663,
  "mosp": 5705,
  "ĠAndrews": 22665,
  "Ġingen": 24378,
  "retched": 29393,
  "ĠFind": 12251,
  "Ġlooks": 2963,
  "rah": 11034,
  "Ġmetabolism": 24505,
  "geoning": 26495,
  "ĠBless": 29611,
  "ĠOw": 11884,
  "groups": 30096,
  "Ġshooters": 22229,
  "Ġconvention": 5260,
  "Ġmound": 28516,
  "ĠJama": 17730,
  "Ġwaiting": 4750,
  "ĠHerman": 20555,
  "Ġrail": 5962,
  "ĠClippers": 26105,
  "current": 16604,
  "ĠSwansea": 26389,
  "Ġ});": 20309,
  "Ġfunctioning": 14800,
  "ĠCourt": 2895,
  "Ġspreading": 12616,
  "Ġfailing": 8328,
  "velop": 980,
  "ĠAbs": 15622,
  "Ġtrees": 7095,
  "Ġpreventing": 11428,
  "Among": 11353,
  "ĠLawrence": 12199,
  "ĠSit": 22307,
  "Ġprofiling": 26366,
  "Ġplethora": 29623,
  "Mid": 24805,
  "ĠWere": 17391,
  "essee": 9518,
  "ĠAccept": 30243,
  "ĠMiss": 4680,
  "ĠSQL": 17575,
  "¹": 118,
  "ãģĦ": 15915,
  "Ġarm": 3869,
  "ikk": 30586,
  "ĠâĢľâĢ¦": 29212,
  "oday": 3876,
  "her": 323,
  "iness": 1173,
  "Ġaid": 5581,
  "ums": 6827,
  "Ġ2012": 2188,
  "ĠRand": 7884,
  "pro": 1865,
  "ATED": 11795,
  "Ġsett": 4542,
  "Ġviewer": 17354,
  "Ġdys": 13180,
  "Ġsimplified": 25158,
  "Ġire": 30643,
  "Ġallegation": 20308,
  "patient": 28334,
  "oubted": 14140,
  "ĠID": 6057,
  "Ġpencil": 20798,
  "Follow": 6039,
  "llers": 12663,
  "ĠiP": 8429,
  "Ġtapes": 21509,
  "Ġcompanions": 22640,
  "Ġ1917": 22071,
  "Ġcrowds": 12556,
  "Dan": 19277,
  "Ġnephew": 22942,
  "ov": 669,
  "ĠRid": 23519,
  "Ġimproved": 6172,
  "Ġ($": 7431,
  "olithic": 25900,
  "Ġrounded": 19785,
  "aires": 14746,
  "Ġheav": 5359,
  "named": 11700,
  "Ġsignal": 7262,
  "ĠBean": 26187,
  "Rec": 7653,
  "Ġjew": 13639,
  "Ġrum": 6397,
  "ĠNorton": 27439,
  "ĠDaniel": 7061,
  "general": 22216,
  "ung": 2108,
  "Ġnodes": 14451,
  "ĠDisplay": 23464,
  "formed": 12208,
  "Ġcourthouse": 26417,
  "Ġconflicting": 23110,
  "Ġassert": 8910,
  "ĠFestival": 9826,
  "Ġanomaly": 28291,
  "Ġinformation": 1401,
  "Ġfair": 2986,
  "thur": 11198,
  "illo": 13538,
  "ĠAnd": 757,
  "gov": 11168,
  "atur": 2348,
  "Ġsignificant": 2259,
  "Ġvill": 4213,
  "Ġprints": 21812,
  "ling": 1280,
  "ĠCage": 25181,
  "Ġacknowledges": 19738,
  "rist": 1434,
  "sewhere": 27319,
  "oned": 10877,
  "Ġ1995": 8766,
  "ĠCad": 20010,
  "Ġ02": 14753,
  "Ġirrit": 16229,
  "be": 1304,
  "Ġinterpre": 10286,
  "Ġmetaphor": 20667,
  "Ġarriving": 13082,
  "Ġparticipation": 9685,
  "ĠSoph": 20790,
  "Ġindie": 16537,
  "Ġwhilst": 14190,
  "Ġelevator": 21112,
  "Ġonline": 2439,
  "ĠAD": 7657,
  "Ġseize": 18427,
  "Ġbrings": 6189,
  "ocations": 28198,
  "cair": 30110,
  "anny": 7381,
  "List": 10565,
  "Ġdifferentiate": 26049,
  "20": 1130,
  "Ġdialog": 21973,
  "Ġafford": 4674,
  "Ġcolleges": 12880,
  "idav": 19541,
  ".âĢĻâĢĻ": 23580,
  "ĠJun": 10675,
  "----------------------------------------------------------------": 25637,
  "Ġignor": 10963,
  "Ġinvestigated": 11096,
  "ĠElf": 31492,
  "Ġproject": 1397,
  "Ġgene": 10073,
  "Ġdifferences": 5577,
  "çļĦ": 26354,
  "ĠMinister": 3441,
  "ĠKer": 16466,
  "ecutive": 9034,
  "ĠGrab": 28615,
  "elected": 20800,
  "Ġtactical": 14779,
  "ĠKurt": 17512,
  "ĠHyd": 29868,
  "Ġrestaurants": 9164,
  "Ġplanning": 4708,
  "Ġadventures": 17078,
  "Ġdoubles": 20955,
  "Ġaccurate": 7270,
  "Ġshown": 3594,
  "Ġheadset": 19759,
  "ĠVictorian": 20101,
  "maybe": 25459,
  "Ġseated": 22492,
  "Okay": 16776,
  "Ġmeat": 6507,
  "Ġseem": 1199,
  "ago": 3341,
  "Ġinterfering": 29375,
  "Ro": 23089,
  "Ġriots": 18115,
  "ĠWHO": 20002,
  "athing": 23569,
  "ĠSingapore": 10810,
  "Ġlabelled": 25730,
  "Ġarchitectural": 22378,
  "Ġdisappointment": 15615,
  "ĠBou": 12772,
  "Ġcomplaints": 8243,
  "Ġdrummer": 26034,
  "ĠRan": 24413,
  "Part": 8585,
  "Ġdespair": 19631,
  "Ġmulti": 5025,
  "Ġneighbours": 19490,
  "Ġencounters": 16618,
  "ĠWR": 13943,
  "Ġdonation": 13333,
  "ĠAlzheimer": 19196,
  "released": 27096,
  "ĠHeb": 23177,
  "Written": 24319,
  "Ġerrors": 9445,
  "Ġthey": 432,
  "Ġspec": 1026,
  "ĠQuarter": 19049,
  "Ġdiscover": 6877,
  "uel": 2562,
  "Ġsupplied": 15589,
  "Ġalleviate": 26279,
  "Ġ1960": 7898,
  "ĠChris": 4604,
  "Ġbells": 27517,
  "Ġsu": 384,
  "ogram": 22427,
  "Ġmatters": 5733,
  "ARC": 26369,
  "Ġplacing": 12281,
  "Ġrealistic": 11345,
  "ĠMinutes": 24661,
  "ĠHIV": 10986,
  "yan": 3574,
  "Ġaval": 31782,
  "ĠMedium": 22885,
  "ĠGos": 25397,
  "Ġenforce": 4077,
  "Ġinstrumental": 17887,
  "ĠBucks": 27055,
  "ĠRising": 22318,
  "ashes": 7613,
  "Ġcops": 11463,
  "Ġrook": 8497,
  "Ġpets": 18872,
  "Ġink": 17018,
  "Ġoven": 16111,
  "let": 1679,
  "kind": 11588,
  "Ġth": 251,
  "ĠGET": 22683,
  "standard": 21796,
  "Ġlavish": 31528,
  "Ġencaps": 28701,
  "Ġrecognizes": 19705,
  "aren": 5082,
  "Ġprompt": 8458,
  "Ġfingerprint": 16849,
  "ĠSid": 17001,
  "ĠLis": 23964,
  "ĠKeller": 30619,
  "ĠTrade": 9747,
  "osate": 31562,
  "ĠHere": 3626,
  "ĠFisher": 13124,
  "pack": 10181,
  "Ġcolleagues": 6292,
  "ader": 5108,
  "Ġarrived": 4858,
  "acies": 12396,
  "Ġinvading": 29711,
  "Ġ1956": 21660,
  "Ġang": 3711,
  "Ġcrazy": 6525,
  "ĠYoung": 6737,
  "udeau": 11929,
  "Mat": 14513,
  "ĠKash": 16074,
  "ĠRim": 31607,
  "ĠMcCarthy": 14638,
  "Ġcontenders": 21586,
  "2015": 8858,
  "Ġrural": 8404,
  "Ġthan": 557,
  "AD": 3566,
  "Ġunint": 16964,
  "Ġdamaged": 9707,
  "married": 28772,
  "cm": 15158,
  "ster": 1708,
  "Ġbucket": 19129,
  "Ġmade": 863,
  "aston": 30808,
  "ĠKids": 18084,
  "Ġbehind": 1949,
  "ĠBottom": 28393,
  "Ġgly": 16955,
  "eneration": 18582,
  "Ġpremiered": 27262,
  "Ġhell": 6056,
  "ĠDisney": 7223,
  "Ġresult": 1223,
  "Ġcos": 8289,
  "eat": 28523,
  "Ġeru": 11432,
  "Ep": 19019,
  "Fire": 15665,
  "udic": 25882,
  "Ġtreatments": 13144,
  "ĠCa": 12438,
  "Ġcompliment": 18788,
  "full": 15496,
  "ĠOF": 6562,
  "Ġallerg": 22992,
  "ield": 1181,
  "6": 22,
  "Ġcomparisons": 17239,
  "LS": 14136,
  "/": 15,
  "Ġreplaces": 25597,
  "Ġsec": 735,
  "ido": 14628,
  "later": 29012,
  "ĠPreview": 26576,
  "Ġrepression": 22220,
  "Ġscrutin": 24800,
  "chant": 16812,
  "65": 5191,
  "Ġlog": 2742,
  "azer": 19354,
  "Ġwealth": 4396,
  "Ġrabbit": 23244,
  "Ġlaugh": 6382,
  "ancouver": 8180,
  "Ġforth": 6754,
  "Ġbab": 9248,
  "ential": 1686,
  "Ġpour": 11584,
  "Ġcustomize": 26215,
  "ĠCory": 24474,
  "ĠMorm": 11339,
  "Ĥ¬": 6082,
  "Iss": 30558,
  "Ġgarbage": 14071,
  "ĠRooney": 25564,
  "Ġopportun": 2396,
  "Ġterminate": 27613,
  "Ġteenagers": 14602,
  "ĠMidwest": 21319,
  "Ġwounded": 9648,
  "Ġenlisted": 25589,
  "uman": 3984,
  "Senate": 23336,
  "Ġannoying": 16261,
  "ĠTomb": 27674,
  "ĠTR": 11113,
  "Ġfavors": 20142,
  "ĠPA": 9311,
  "Ġseeds": 11932,
  "ĠMN": 30802,
  "MP": 7315,
  "Ġexaggerated": 22397,
  "Ġresolution": 6100,
  "may": 10916,
  "resent": 1836,
  "Ġflank": 26270,
  "900": 14131,
  "ĠFel": 13448,
  "Ġunf": 3413,
  "ĠBrid": 28451,
  "Ġpaired": 18800,
  "ĠFrost": 22544,
  "ĠSah": 20483,
  "names": 14166,
  "ĠJapan": 2707,
  "Ġlink": 2967,
  "ĠTIME": 22200,
  "Ġsenator": 9091,
  "xxxx": 22268,
  "ches": 2061,
  "ĠBoko": 30064,
  "Hell": 29737,
  "]:": 13094,
  "Ġguts": 27966,
  "regulated": 23561,
  "As": 1508,
  "Ġpuppet": 25946,
  "ĠRapt": 20255,
  "ĠRogers": 12818,
  "ordon": 8695,
  "ĠCentral": 5180,
  "oters": 20329,
  "Ġresidency": 25939,
  "ĠAbraham": 17148,
  "Ġpacked": 10805,
  "Ġ205": 29581,
  "Ġcustody": 9757,
  "Ġwho": 447,
  "Ġenfor": 11329,
  "ĥ": 182,
  "ãĥ¼ãĥ": 29604,
  "ĠElvis": 27929,
  "Ġlid": 22074,
  "Ø§": 10113,
  "cing": 2082,
  "bright": 28800,
  "ĠIraqi": 8686,
  "ĠJordan": 7126,
  "rig": 4294,
  "Ġfreedoms": 19830,
  "omas": 4472,
  "ada": 4523,
  "ĠWiFi": 23142,
  "hm": 22267,
  "Ġrecorded": 5523,
  "ĠDems": 22266,
  "ĠRugby": 20296,
  "hon": 22810,
  "ĠGang": 18471,
  "ĠHunter": 11949,
  "ami": 7893,
  "bee": 20861,
  "ĠBanks": 17088,
  "Ġforfe": 20024,
  "insky": 19661,
  "Ġpayload": 18660,
  "Ġtrained": 8320,
  "Ġconsumer": 6267,
  "Ġmasc": 12928,
  "Ġwear": 5984,
  "ĠGib": 10740,
  "Ġcommissioners": 27501,
  "Ġspinal": 26457,
  "ifle": 19050,
  "ĠSixth": 30413,
  "Background": 25655,
  "Ġeight": 3270,
  "Ġstarting": 3276,
  "ĠHugh": 21630,
  "ĠRh": 11565,
  "iph": 13312,
  "starter": 10538,
  "Ġsliced": 26840,
  "Ġrushing": 13418,
  "ĠInspector": 22758,
  "ĠGandhi": 16985,
  "ĠEngineer": 28846,
  "TY": 16791,
  "arsh": 5046,
  "outh": 1423,
  "Ġdebug": 29207,
  "belie": 24579,
  "afi": 12965,
  "Ġoverseeing": 23827,
  "ĠGraph": 17358,
  "Ġideologies": 28985,
  "ĠController": 29923,
  "Ġexec": 2154,
  "Ġusername": 26501,
  "Ġsmok": 19302,
  "osophy": 23814,
  "Ġcreditors": 25595,
  "effect": 28013,
  "Ġharassment": 9421,
  "hero": 10506,
  "Ġdispatch": 26407,
  "Ġwinding": 27594,
  "70": 3952,
  "Ġpurchased": 8447,
  "ĠAlabama": 7843,
  "Ġinexpensive": 23197,
  "Ġsanction": 16475,
  "Below": 20112,
  "Ġpolicymakers": 22372,
  "Ġnear": 1959,
  "Ġresulted": 7626,
  "erves": 9981,
  "ĠHop": 9345,
  "ough": 563,
  "ĠWolves": 25762,
  "venue": 3641,
  "Ġtoy": 13569,
  "Ġpixels": 19784,
  "isc": 2349,
  "Ġleagues": 13613,
  "almost": 24234,
  "Ġlayer": 8512,
  "Ġrandomly": 16315,
  "Ġnecessarily": 6084,
  "Ġfigure": 3470,
  "Ġescalating": 25324,
  "ĠHawai": 9772,
  "Naz": 30277,
  "Ġperks": 29064,
  "ghai": 16640,
  "ĠMoy": 21851,
  "Ġmysteries": 25244,
  "Ġtwisted": 19537,
  "ĠPost": 3026,
  "ĠBruno": 28099,
  "Ġos": 26453,
  "Ġ127": 22079,
  "ĠDub": 12982,
  "Ġimpressions": 24208,
  "ĠDur": 10429,
  "ĠDevelop": 6180,
  "Ġsoaring": 25438,
  "aughs": 16318,
  "Ġeval": 5871,
  "ĠWing": 16431,
  "Ġbreach": 12171,
  "850": 29764,
  "Linux": 28638,
  "Tal": 28336,
  "ĠAbdul": 18350,
  "ĠSunday": 2943,
  "ther": 450,
  "åĪ": 29940,
  "ĠBloomberg": 12407,
  "ĠNY": 6616,
  "Ġcontag": 29707,
  "ĠBl": 1248,
  "ously": 3261,
  "xy": 6602,
  "Ġbuilder": 26528,
  "Ġearn": 5265,
  "ĠMohammad": 22938,
  "Ġjunior": 10890,
  "wolf": 27095,
  "probably": 24744,
  "arted": 11079,
  "ĠCoffee": 21144,
  "Hello": 16887,
  "Ġstress": 5373,
  "orf": 20366,
  "Ryan": 17675,
  "ĠEnjoy": 22799,
  "ide": 446,
  "Should": 18918,
  "ĠJab": 23120,
  "Ġinvestments": 9740,
  "ista": 11221,
  "public": 12969,
  "Ġreservation": 24582,
  "Ġditch": 22667,
  "Low": 24442,
  "Ġbrink": 23266,
  "Ġgri": 10689,
  "Ġbreak": 2222,
  "Ġhubs": 31836,
  "inea": 18328,
  "Ġagent": 5540,
  "Ġorganizers": 14579,
  "Ġstem": 9651,
  "Ġprefer": 4852,
  "at": 223,
  "ĠRally": 27639,
  "ĠTD": 13432,
  "aron": 7310,
  "prot": 27917,
  "Ġspecialist": 13831,
  "ĠAlleg": 24401,
  "Ġra": 1610,
  "Ġcomics": 10197,
  "Ġairlines": 21260,
  "ometimes": 6408,
  "mentation": 15798,
  "Ġreporters": 5710,
  "Ġinaccur": 16306,
  "Ġshit": 7598,
  "Ġinconven": 19476,
  "ĠAlvarez": 29307,
  "Ġswept": 15611,
  "achment": 11205,
  "Ġslick": 24019,
  "Ġbike": 6309,
  "function": 10747,
  "Sah": 30500,
  "Ġorphan": 25218,
  "Ġparade": 14716,
  "Ġforb": 11882,
  "cember": 2909,
  "idis": 24431,
  "Ġgorgeous": 18909,
  "Ġlikely": 1657,
  "ĠBenghazi": 17211,
  "ĠRouge": 24784,
  "Ġregions": 6974,
  "Ġcitizens": 3634,
  "ĠWy": 11316,
  "leum": 18791,
  "ĠKoreans": 22239,
  "ĠHERE": 17310,
  "ĠMatch": 18508,
  ").": 790,
  "ĠNov": 5515,
  "Ġimminent": 17388,
  "Box": 18252,
  "ĠMag": 3989,
  "sided": 20369,
  "Ġcow": 9464,
  "ware": 1549,
  "Mel": 19756,
  "Ġcombination": 6229,
  "ien": 1950,
  "ĠSoccer": 14725,
  "Building": 27263,
  "ĠSuarez": 29928,
  "born": 6346,
  "Ġunanimously": 21938,
  "ĠCrawford": 20504,
  "Ġsquee": 13030,
  "Ġpolicy": 2000,
  "Ġdivorced": 21421,
  "ĠAss": 2261,
  "ĠVal": 3589,
  "ĠBecome": 30223,
  "Ġwarp": 31239,
  "Ġ45": 5051,
  "Ġvolunt": 11215,
  "Ġmodule": 9970,
  "ĠClinical": 29073,
  "ĠHB": 25280,
  "Ġwitch": 17782,
  "Ġdeceased": 20358,
  "Ġuphe": 30793,
  "ocalypse": 19421,
  "itched": 26954,
  "irie": 27027,
  "ĠJohnson": 4317,
  "ion": 254,
  "Ġworking": 1521,
  "Ġmaturity": 24119,
  "remlin": 14437,
  "ĠDoing": 24804,
  "Ġtire": 15901,
  "ĠChan": 16581,
  "Ġwinners": 11747,
  "Ġmortal": 28349,
  "Ġpint": 28778,
  "bishop": 22531,
  "Ġrepeat": 9548,
  "Ġbar": 2281,
  "ĠSlav": 31567,
  "Ġuse": 838,
  "Ġrare": 3864,
  "width": 13499,
  "char": 13224,
  "Ġdoubled": 13359,
  "edge": 14747,
  "ĠACT": 24445,
  "string": 12017,
  "ola": 5040,
  "glas": 12624,
  "lain": 19135,
  "ĠMueller": 14406,
  "Ġbehaviour": 8223,
  "Ġsolid": 4403,
  "ĠSchneider": 21601,
  "Ġdurable": 24065,
  "ĠNice": 20285,
  "agu": 11710,
  "Ġcertificates": 22317,
  "Bernie": 26197,
  "ĠNJ": 19996,
  "threat": 17248,
  "usterity": 14824,
  "Ġconsensus": 9729,
  "aline": 22395,
  "ĠFollowing": 10585,
  ".\"": 681,
  "Ġjournals": 20016,
  "ovych": 30271,
  "Ġconver": 6865,
  "ĠMicrosoft": 4754,
  "Ġbrowser": 7749,
  "Ġwarfare": 13204,
  "cier": 27322,
  "off": 2006,
  "odes": 4328,
  "ournament": 17953,
  "ĠCanad": 1934,
  "Ġcomet": 26547,
  "Ġliterary": 13843,
  "Ġmigrant": 18185,
  "ĠVideo": 9858,
  "Î»": 28372,
  "acco": 9101,
  "estial": 28806,
  "olution": 2040,
  "i": 73,
  "Ġpunk": 18593,
  "Ġtrusted": 12811,
  "Ġexplan": 6093,
  "Ġstark": 15310,
  "Ġstunning": 12040,
  "Ġkilometers": 15402,
  "ortions": 14208,
  "Ġmart": 11093,
  "Ġdesperately": 14333,
  "lev": 2361,
  "bin": 10435,
  "Ġincom": 16624,
  "ĠTPP": 18825,
  "Ġviolated": 11869,
  "Ġlady": 11535,
  "Ġnice": 3724,
  "Ġbron": 17746,
  "ĠSundays": 29424,
  "ĠRF": 20917,
  "ĠAff": 6155,
  "uated": 6574,
  "Ġmovies": 5889,
  "ostal": 15659,
  "Ġepisode": 4451,
  "Ġbureaucrat": 14789,
  "Ġunins": 23808,
  "Ġdele": 27224,
  "ĠAlien": 20940,
  "Ġwallet": 13065,
  "Ġinstructed": 16961,
  "president": 16874,
  "Ġhalf": 1890,
  "Ġyounger": 6289,
  "dr": 10483,
  "ĠDeVos": 29381,
  "ĠPV": 26871,
  "Did": 11614,
  "ens": 595,
  "ĠKir": 7951,
  "Ġign": 3548,
  "Ġbarg": 10948,
  "tit": 12224,
  "Ġelderly": 12602,
  "ĠPRE": 21809,
  "ate": 325,
  "Ġobtaining": 18272,
  "ĠAFP": 11592,
  "Ġscared": 10998,
  "ĠKell": 19301,
  "Ġending": 7127,
  "ĠSara": 23194,
  "ĠðŁĺ": 29184,
  "ĠPyongyang": 18412,
  "Ġprogram": 1314,
  "ĠFIFA": 16207,
  "ĠLaure": 12485,
  "ĠSU": 10395,
  "ĠJenn": 10248,
  "Ġafore": 17520,
  "UMP": 23816,
  "Ġcooked": 17396,
  "ĠCharlottesville": 21453,
  "æ": 161,
  "Ġdisturb": 9322,
  "openhagen": 22749,
  "riers": 8009,
  "alleng": 29299,
  "Ġdefended": 10842,
  "Ġprovinces": 15557,
  "Ġtravel": 2899,
  "Ġcess": 30761,
  "Ford": 31186,
  "Ġvictories": 14704,
  "ĠGiov": 30309,
  "Ġinfilt": 16987,
  "Ġreporting": 5862,
  "Ġavoided": 12743,
  "Ġaccountability": 14428,
  "ervice": 17108,
  "ka": 4916,
  "ĠCl": 1080,
  "icious": 6258,
  "e": 69,
  "ORK": 16050,
  "Ġexpose": 14018,
  "Ġcomplicated": 7395,
  "ĠDalton": 28051,
  "ĠJeremy": 10870,
  "Ġcapacities": 30128,
  "ĠTolkien": 28860,
  "abbing": 12474,
  "Ġproves": 15631,
  "Ġrunning": 2273,
  "ĠDh": 19437,
  "Ġcheck": 2426,
  "iban": 10183,
  "ĠPos": 19838,
  "Ġslide": 11719,
  "Ġaide": 14456,
  "Ġdragging": 23637,
  "Ġdecor": 12240,
  "rine": 8615,
  "Reuters": 9483,
  "Ġembr": 6543,
  "ĠAustrian": 20191,
  "ĠCanon": 21418,
  "ration": 1269,
  "eda": 22089,
  "Ġass": 835,
  "yle": 2351,
  "Ġlight": 1790,
  "ĠFourth": 15565,
  "Ġfruit": 8666,
  "William": 23300,
  "iversal": 26795,
  "Ġvacant": 19603,
  "ĠAddress": 25162,
  "ĠHook": 18507,
  "ĠBark": 18481,
  "Ġmit": 9263,
  "Ġconstrained": 26985,
  "kick": 23435,
  "iverpool": 8562,
  "Ġkeywords": 29170,
  "Ġexagger": 14258,
  "Ã±": 9847,
  "ĠTennessee": 9987,
  "Ġcurse": 21113,
  "Ġfilters": 18214,
  "iblings": 17847,
  ",\"": 731,
  "Ġcountless": 11843,
  "Ġcongressman": 20831,
  "Ġrecount": 12985,
  "ĠKDE": 29516,
  "ridges": 31775,
  "Ġ260": 27144,
  "Ware": 31464,
  "Ġresources": 3839,
  "aining": 1531,
  "ija": 28267,
  "Ġrotate": 24450,
  "Ġamongst": 11737,
  "ĠMotorola": 23745,
  "ĠSac": 11618,
  "Ġpads": 22514,
  "ĠForce": 5517,
  "file": 11984,
  "Obviously": 16309,
  "ophobia": 16384,
  "closed": 14708,
  "Ġruins": 20712,
  "cutting": 25202,
  "olve": 6437,
  "Ġcoveted": 28420,
  "tingly": 28194,
  "ĠClo": 31247,
  "Ġexperienced": 5549,
  "Ġ180": 13925,
  "Ġdecisive": 17854,
  "Ġshowers": 29727,
  "ĠINT": 30439,
  "ĠDivine": 29085,
  "ctive": 12059,
  "Ġlabs": 24081,
  "Ġmot": 2335,
  "!": 1,
  "ĠMississ": 10925,
  "ĠMonitor": 24300,
  "Ġwhoever": 16093,
  "arents": 13005,
  "Ġdeadlines": 31201,
  "ĠSoutheast": 17821,
  "Ġdefenses": 16404,
  "âĢ¦âĢ¦âĢ¦âĢ¦": 25349,
  "ĠTut": 24525,
  "Ġappease": 30393,
  "Ġcoconut": 19828,
  "Ġjudging": 20994,
  "raeus": 30217,
  "Ġactors": 8501,
  "Ġrevol": 24375,
  "Ġgenetically": 18164,
  "ĠCarr": 17273,
  "anka": 13220,
  "Ġelements": 4922,
  "ĠEuros": 31786,
  "Ġtech": 6018,
  "Ġreminds": 15985,
  "Ġinsulin": 20295,
  "ġ": 178,
  "Ġentry": 6190,
  "isf": 4899,
  "Ġcookies": 17534,
  "ahl": 13688,
  "Ġremembered": 11887,
  "Ġstands": 5762,
  "Ġretrospect": 27977,
  "Ġpregn": 6614,
  "san": 17630,
  "Ġaggression": 13834,
  "reshold": 10797,
  "ĠIraq": 3154,
  "Ġnons": 13027,
  "ibility": 2191,
  "ĠFukushima": 23478,
  "Euro": 12405,
  "Ġrealism": 26154,
  "Ġinmate": 23685,
  "Ġcracks": 21575,
  "Ġdeportation": 18656,
  "thew": 7441,
  "Ġcontroversies": 29482,
  "ught": 8985,
  "ĠSw": 2985,
  "Ġelastic": 30187,
  "Ġspan": 10226,
  "Ġarchitecture": 9529,
  "Justice": 24246,
  "ĠIslands": 12940,
  "ĠBurns": 19803,
  "Seattle": 29447,
  "ĠAssass": 23718,
  "ĠCathedral": 27725,
  "Ġevidently": 27698,
  "Ġlap": 14096,
  "NFL": 27982,
  "ench": 25247,
  "Ġmantra": 26525,
  "Ġautistic": 30118,
  "Ġcrossed": 11536,
  "Ġbrace": 22310,
  "geon": 8603,
  "Ġisolate": 25483,
  "Ġlaboratory": 13998,
  "demand": 24842,
  "ner": 971,
  "Ġprayers": 15493,
  "idation": 29631,
  "Ġring": 6650,
  "aque": 17760,
  "action": 2565,
  "ĠEnd": 7059,
  "Ġdeli": 2820,
  "Ġapt": 16004,
  "Ġalcohol": 6167,
  "Ġtheatre": 17452,
  "Ġincidents": 8738,
  "ĠPick": 14413,
  "Ġdiscont": 15741,
  "lymp": 5496,
  "Ġdared": 28607,
  "Ġfertility": 20868,
  "renn": 25281,
  "ĠJackie": 21788,
  "ebus": 25966,
  "iso": 29485,
  "ĠFeatures": 23256,
  "ten": 979,
  "Ġgh": 30111,
  "Ġposture": 23292,
  "load": 2821,
  "Ġculprit": 22686,
  "Ġ116": 25650,
  "Girl": 28489,
  "ulse": 11010,
  "ĠYOUR": 21259,
  "Ġshow": 816,
  "Ġsurpr": 2555,
  "Ġvote": 2389,
  "Ġarchaeological": 26223,
  "Ġacoustic": 24362,
  "ĠTodd": 12092,
  "Ġpride": 10608,
  "á¹": 24437,
  "ĠIranian": 8604,
  "Ġgrown": 6486,
  "ifi": 24798,
  "Ġattract": 3851,
  "ĠMats": 29606,
  "Fi": 10314,
  "SQL": 18759,
  "wing": 4883,
  "Ġregener": 27304,
  "Ġburd": 8118,
  "Ġturbo": 27638,
  "©": 103,
  "Ġanswer": 3190,
  "Ġpoverty": 6922,
  "Ġchased": 23732,
  "ulated": 4602,
  "ahu": 9477,
  "ĠPOLIT": 24642,
  "Ġsuitable": 12725,
  "Ġinvited": 8241,
  "ĠTwilight": 23465,
  "Ġmuster": 30852,
  "connect": 12291,
  "Ġlays": 24410,
  "ĠThese": 2467,
  "ĠCharleston": 22823,
  "Ġmoved": 3497,
  "ju": 16003,
  "olation": 21741,
  "^^": 26686,
  "Ġdecisions": 4664,
  "eh": 28650,
  "ĠMarco": 13828,
  "Ġenriched": 31776,
  "rises": 26022,
  "Ġwat": 4116,
  "ĠMPs": 10936,
  "Jay": 26715,
  "Ġclearer": 19558,
  "aeda": 8966,
  "Ġblah": 31204,
  "Over": 5869,
  "Ġseized": 10218,
  "Ġcu": 15148,
  "Ġframed": 21015,
  "ĠDVD": 11825,
  "ĠCow": 9334,
  "ĠII": 3514,
  "though": 1883,
  "ivable": 20950,
  "107": 23102,
  "Ġreferee": 19848,
  "Ġinheritance": 25373,
  "Ġprofits": 8691,
  "Ġwhy": 1374,
  "Ġtrib": 6211,
  "Ġrocked": 30324,
  "Ġtogether": 1861,
  "Ġexert": 24479,
  "Ġworker": 7562,
  "Ġmechanic": 20943,
  "Ġsin": 8365,
  "Ġobstruction": 23616,
  "antically": 29846,
  "ĠChester": 25940,
  "Ġentries": 14283,
  "Ġare": 338,
  "Ġpink": 12432,
  "Ġvaccine": 11994,
  "short": 23463,
  "ĠWaste": 29676,
  "leased": 15812,
  "Ġseas": 19027,
  "Ġmouth": 6583,
  "ub": 487,
  "ĠLTE": 22655,
  "Ġliterature": 8911,
  "Ġbud": 2955,
  "Ġhand": 1024,
  "Ġcitation": 26777,
  "midt": 17252,
  "estyle": 10233,
  "Ġsatisfaction": 15528,
  "reland": 5959,
  "Ġspouses": 29100,
  "ĠFrankfurt": 26803,
  "herence": 22453,
  "Sur": 14733,
  "999": 24887,
  "Ġloudly": 22526,
  "Ġgiven": 1777,
  "Ġcoined": 26163,
  "Ġnotify": 23908,
  "Ġbrill": 8448,
  "Ġorbital": 28046,
  "Ġ))": 25682,
  "ĠMold": 30224,
  "urer": 29636,
  "phasis": 28280,
  "Ġfirsthand": 30717,
  "izes": 4669,
  "Ġthinkers": 24448,
  "ĠNFL": 4293,
  "Ġgem": 18083,
  "âĪĴ": 13393,
  "Ġinvolve": 5476,
  "ĠProgress": 11936,
  "ARY": 18784,
  "ĠHor": 8055,
  "ĠMeteor": 28024,
  "help": 14347,
  "ĠWatt": 27534,
  "aun": 7086,
  "ĠIsle": 30233,
  "that": 5453,
  "Ġsailed": 30313,
  "Advertisement": 3713,
  "zel": 17376,
  "Ġfly": 5802,
  "ĠInfinity": 27272,
  "Ġimproper": 18299,
  "Out": 9765,
  "Ġinvestor": 13593,
  "San": 14566,
  "Ġsaint": 31523,
  "Ġoffered": 4035,
  "ledged": 29471,
  "Ġbiography": 21316,
  "fed": 20649,
  "inke": 30598,
  "amin": 6024,
  "ĠAsk": 18106,
  "hen": 818,
  "uchi": 27244,
  "Clearly": 23901,
  "oqu": 19180,
  "Ġinch": 13936,
  "Ġunhappy": 16967,
  "ĠHudson": 16962,
  "ĠGill": 10955,
  "Ġdirected": 7048,
  "cest": 9665,
  "Ġprocurement": 28211,
  "Ġchemical": 5486,
  "Ġsearched": 15632,
  "Ġcompassionate": 27943,
  "eer": 29270,
  "ĠMyst": 30706,
  "ĠDL": 25641,
  "eremy": 9736,
  "ĠYeah": 9949,
  "Ġsc": 578,
  "Ġexpanded": 8405,
  "Ġturned": 2782,
  "ysis": 3104,
  "Ġorb": 16509,
  "ĠCenter": 3090,
  "Ġrelates": 19436,
  "ĠMuch": 12013,
  "Ġconditioned": 31780,
  "Ġallowance": 27578,
  "ĠWelsh": 17990,
  "ritz": 26131,
  "Ġfog": 20668,
  "Ġbattling": 17083,
  "ĠIslamic": 4384,
  "kinson": 22024,
  "Ġraft": 28029,
  "Ġdisagreements": 30027,
  "Ġcelebrity": 13682,
  "ĠRobertson": 19122,
  "icult": 2054,
  "ĠREL": 31460,
  "Ġoffensively": 31914,
  "Ġfamiliar": 4981,
  "Ġbenef": 2083,
  "ĠConstant": 28472,
  "Ġindications": 23722,
  "raz": 2994,
  "rae": 23990,
  "writer": 13339,
  "Ġcomply": 13085,
  "lies": 6920,
  "Ġdominate": 15188,
  "Ġcolony": 17231,
  "brow": 30908,
  "Ġchase": 14443,
  "heading": 30368,
  "Ġ138": 31051,
  "Ġeditors": 12783,
  "ĠCollect": 15495,
  "Ġgoals": 3769,
  "ĠPolit": 6789,
  "Ġinterpret": 7369,
  "Ġdisg": 12915,
  "yrrha": 25055,
  "hours": 30965,
  "Ġdesigning": 15821,
  "Ġwinning": 4405,
  "config": 18986,
  "ĠSSD": 23562,
  "Ġintegral": 17692,
  "IA": 3840,
  "ĠBased": 14114,
  "Ġking": 6666,
  "icut": 12569,
  ".),": 11998,
  "ĠTul": 29660,
  "ti": 16988,
  "point": 4153,
  "ĠDowntown": 21678,
  "ĠBE": 12375,
  "iya": 22241,
  "Ġteach": 4456,
  "Ġcapitalize": 28805,
  "agues": 5020,
  "Occ": 28227,
  "igrated": 30744,
  "Ġanch": 11611,
  "7": 23,
  "ĠSW": 13927,
  "Ġmansion": 22285,
  "ĠFitzgerald": 23297,
  "zan": 21988,
  "Ġlighting": 11793,
  "ĠWalt": 17046,
  "uary": 2508,
  "set": 3025,
  "elfare": 25654,
  "Ġchallenges": 5420,
  "07": 6668,
  "Ġpublic": 1025,
  "ipal": 23790,
  "Ġspots": 9433,
  "bird": 19106,
  "Ġartillery": 17818,
  "Ġoffenders": 15843,
  "Ġemb": 3828,
  "ĠTag": 21841,
  "Ġtreaty": 13038,
  "Ġmonkey": 22493,
  "Å£": 25660,
  "Ġliable": 22228,
  "Ġbold": 10051,
  "Pay": 20216,
  "ĠTW": 20443,
  "Ġhorsepower": 30955,
  "ĠSims": 25113,
  "ANK": 20227,
  "Ġfundamentally": 14332,
  "orously": 22352,
  "Ġdiagn": 6930,
  "lar": 19131,
  "Ġclarify": 16482,
  "Week": 20194,
  "Ġcomposed": 12398,
  "ĠTrans": 4110,
  "Ġenthusiasm": 14224,
  "ĠTri": 8646,
  "ĠSol": 5294,
  "Ġtim": 4686,
  "Ġdominating": 24739,
  "Ġdirections": 12365,
  "Ġmem": 991,
  "ĠViktor": 29014,
  "ifted": 20509,
  "Ġattracts": 28185,
  "ĠSinger": 24720,
  "tz": 19628,
  "amples": 18594,
  "MW": 31712,
  "Ġshook": 17225,
  "ĠTor": 3654,
  "pher": 16531,
  "Ġfossils": 27527,
  "ins": 1021,
  "ino": 2746,
  "ĠCombat": 22564,
  "nothing": 24227,
  "aped": 5754,
  "ĠSiber": 25784,
  "Ġrelocation": 30113,
  "abin": 5784,
  "ieg": 26497,
  "Ġverdict": 13111,
  "Ġurgent": 15464,
  "Ġshowc": 17964,
  "ona": 4018,
  "Ġriders": 11548,
  "Ġguns": 5893,
  "iddle": 2287,
  "Ġcharming": 22399,
  "OT": 3512,
  "Ġcitiz": 3030,
  "Ġchatter": 31952,
  "ussia": 26251,
  "Ġstrict": 7701,
  "Ġpledge": 11815,
  "Ġzombie": 17574,
  "Ġinferior": 19484,
  "Ġslowed": 17768,
  "ĠTayy": 31176,
  "Ġparks": 12021,
  "Ġmunicipalities": 23460,
  "ĠDominic": 29627,
  "ace": 517,
  "resh": 3743,
  "ĠAndre": 9869,
  "Ġairstrikes": 21073,
  "iggins": 19003,
  "Ġparticipate": 7756,
  "Ġcentral": 3710,
  "Ġresponders": 27271,
  "Ġinstant": 10075,
  "ĠArmor": 28052,
  "Ġacron": 28957,
  "owship": 24256,
  "aughter": 3542,
  "ĠOffensive": 31963,
  "ĠEs": 8296,
  "Ġhem": 17385,
  "Ġliv": 15582,
  "ĠBangl": 14674,
  "ĠVenezuel": 10629,
  "Ġprosecutor": 11235,
  "ĠTraditional": 29492,
  "ĠRub": 5362,
  "rip": 6173,
  "Ġmodeling": 20345,
  "lement": 1994,
  "Ġvehement": 29733,
  "Ġfederal": 2156,
  "Ġrab": 15811,
  "Certainly": 29675,
  "mble": 10801,
  "ĠShar": 14562,
  "Ġblogs": 15578,
  "industrial": 24463,
  "ĠEk": 28979,
  "ĠMoving": 28061,
  "gery": 6844,
  "af": 1897,
  "urally": 17367,
  "ĠURL": 13135,
  "Ġbeams": 27466,
  "Ġincons": 12600,
  "Ġscore": 3537,
  "ĠBuffett": 28306,
  "Ġpuppy": 28564,
  "Ġliquor": 18446,
  "Ġcurrently": 2754,
  "Ġgarden": 11443,
  "Ġcommute": 25536,
  "Ġtaught": 7480,
  "Ġbald": 26519,
  "Ġright": 773,
  "Ġdisenfranch": 31165,
  "ĠEST": 20036,
  "ĠLord": 6582,
  "Ġsettlement": 8228,
  "Ġassignments": 24966,
  "verage": 1763,
  "Ġinviting": 20287,
  "Ġsubmar": 14643,
  "Ġtackling": 20257,
  ".âĢĿ)": 22788,
  "ĠECB": 25999,
  "Japan": 15607,
  "Researchers": 19281,
  "ĠCorp": 11262,
  "fold": 13539,
  "ĠFre": 7412,
  "Ġreserved": 10211,
  "Ġrazor": 27052,
  "ĠBolt": 24590,
  "Ġmemorandum": 31086,
  "Ġhomosexual": 10171,
  "Bet": 13021,
  "Ġvertically": 31526,
  "ĠStanford": 11296,
  "Ġrelieve": 26740,
  "ned": 1154,
  "ĠAud": 8924,
  "Ġautonomous": 14026,
  "ĠNobel": 15558,
  "Ġcoverage": 4490,
  "ĠClaus": 30577,
  "ation": 299,
  "oths": 26384,
  "oir": 18073,
  "Ġnovels": 13314,
  "gro": 13830,
  "Know": 23151,
  "Ġdenial": 13361,
  "Ġdeposit": 17464,
  "ĠFreud": 28112,
  "\")": 8473,
  "Ġhacking": 12297,
  "ĠCities": 20141,
  "erting": 15560,
  "Ġairing": 23363,
  "ĠRoland": 30193,
  "ĠIND": 30273,
  "Ġherb": 20794,
  "eon": 23699,
  "ĠMiddle": 5235,
  "oline": 13287,
  "ĠMyers": 21807,
  "Ġdimensions": 15649,
  "Ġpromotion": 10572,
  "cor": 10100,
  "ĠUntil": 12962,
  "stream": 5048,
  "Ġconsecutive": 11220,
  "Ġideas": 3712,
  "2001": 20449,
  "Ġclich": 28537,
  "ĠWalton": 28262,
  "it": 227,
  "Ġthreaten": 13570,
  "ĠKai": 29609,
  "Ġhybrid": 12774,
  "Ġfreezing": 20264,
  "ainted": 15641,
  "Ġmountains": 12093,
  "ĠAx": 15021,
  "ĠNote": 7985,
  "Ġcollectively": 17641,
  "Ġoversaw": 29944,
  "Ġbees": 17463,
  "Ġsafer": 12343,
  "Ġminer": 31596,
  "ĠSource": 10620,
  "itual": 9618,
  "Ġfortunate": 17321,
  "ĠKashmir": 18767,
  ",'\"": 21406,
  "Ġbay": 15845,
  "ĠOber": 28619,
  "mic": 10020,
  "Ġcrop": 7997,
  "Ġpreference": 13139,
  "ĠKra": 25288,
  "Ġpeasant": 31834,
  "aturally": 7522,
  "every": 15500,
  "ĠGab": 12071,
  "Ġwid": 6889,
  "SA": 4089,
  "Ġbots": 26947,
  "Ġmosque": 15606,
  "obo": 27089,
  "Ġdownloads": 20756,
  "Ġimprison": 11050,
  "ĠChern": 30484,
  "ĠÐ¿": 13758,
  "uerto": 12266,
  "Ġsummit": 10380,
  "ko": 6640,
  "Ġcameras": 7687,
  "female": 28959,
  "train": 25881,
  "olicy": 23988,
  "ĠPine": 21937,
  "Ġneighboring": 16204,
  "rett": 7104,
  "--": 841,
  "ĠPurple": 27046,
  "Ġproperly": 6885,
  "Ġcrossover": 25525,
  "blind": 29884,
  "Ġcheapest": 26383,
  "Ġextinction": 18248,
  "IO": 11438,
  "Ġexactly": 3210,
  "''": 15013,
  "ordinate": 25041,
  "uration": 5304,
  "Ġvari": 6094,
  "Ġprowess": 27330,
  "Ġown": 832,
  "Ġvehicle": 4437,
  "ĠWik": 6509,
  "Ġselection": 6803,
  "induced": 19158,
  "haul": 13235,
  "sych": 3043,
  "Ġstranded": 23987,
  "yer": 8904,
  "erential": 29520,
  "Mir": 29052,
  "ga": 4574,
  "ĠWeiss": 13728,
  "Ġbringing": 5340,
  "Ġlinks": 6336,
  "Ġremarkably": 17996,
  "ICE": 11661,
  "Ġtelesc": 28629,
  "agne": 19531,
  "ession": 2934,
  "Ġsacrifices": 24299,
  "party": 9558,
  "Ġedits": 30692,
  "ĠBasically": 19714,
  "Dr": 7368,
  "Ġhungry": 14233,
  "Ġonwards": 29529,
  "yond": 2992,
  "Ġevaluate": 13426,
  "Ġinnoc": 7325,
  "ouf": 30867,
  "rne": 27292,
  "Ġstro": 10462,
  "Ġpasta": 26739,
  "Ġimpoverished": 27109,
  "Ġtons": 9932,
  "Ġabsurd": 11280,
  "Ġmapped": 26265,
  "identified": 16622,
  "Ġmid": 2722,
  "present": 22864,
  "ĠCarney": 30653,
  "Ġadjusting": 22179,
  "Ġtechnological": 11986,
  "Ġguides": 18435,
  "Ġenvisioned": 24688,
  "cha": 13280,
  "ĠGaming": 17095,
  "Ġbalance": 5083,
  "ĠHelen": 21298,
  "Ġdrunken": 25314,
  "cho": 6392,
  "hod": 2410,
  "Ġimagination": 12778,
  "READ": 13742,
  "former": 11553,
  "ĠNicholson": 31375,
  "o": 79,
  "lik": 28771,
  "Ġflown": 18466,
  "ĠMak": 18922,
  "Ġexpensive": 5182,
  "Ġempowering": 29441,
  "ynasty": 17362,
  "mala": 25603,
  "Ġswitched": 14068,
  "ĠFriedman": 20261,
  "Ġprocessing": 8006,
  "Ġhinted": 21706,
  "nie": 10965,
  "Ġneighbors": 10168,
  "Ġbre": 1375,
  "Ġenjoyment": 25447,
  "ĠPorter": 17644,
  "Ġfamilies": 3678,
  "ĠPrincess": 16414,
  "Ġsharp": 7910,
  "Ġbased": 1829,
  "ĠEstate": 25082,
  "ĠOm": 17592,
  "igenous": 9857,
  "Ġincreases": 6092,
  "ĠBundy": 29244,
  "Ġgenerous": 13058,
  "Money": 24409,
  "Ġquake": 27788,
  "complete": 19836,
  "Ġdefinitive": 15339,
  "Ġgive": 1559,
  "Ġordering": 16708,
  "Ġcountry": 1244,
  "ĠForum": 14569,
  "Ġguarantee": 8663,
  "ĠChurch": 4512,
  "ĠAdam": 7240,
  "Ġtid": 28910,
  "Ġmagn": 7874,
  "ãģ£": 25910,
  "Ġcredit": 3729,
  "ĠReally": 16276,
  "Ġphoto": 4352,
  "Ġmasterpiece": 27080,
  "Ġrepeatedly": 6594,
  "Ġplenty": 5371,
  "ĠJihad": 27204,
  "Ġpipes": 19599,
  "Ġbarbecue": 30942,
  "Ġinformed": 7268,
  "Ġlaughs": 20796,
  "+": 11,
  "hyd": 23953,
  "ĠSkype": 21165,
  "ĠHindus": 27324,
  "ase": 582,
  "AM": 3253,
  "acles": 10425,
  "Ġlearned": 4086,
  "ĠLibyan": 19380,
  "ĠKobe": 25696,
  "14": 2067,
  "Ġcrossing": 11646,
  "ĠDC": 6390,
  "Ġexpected": 2548,
  "ĠCollective": 31657,
  "rom": 352,
  "witch": 4358,
  "Ġng": 22300,
  "Ġsophomore": 19045,
  "onomous": 30983,
  "Mus": 9687,
  "Ġfeathers": 26440,
  "Through": 12830,
  "Ġabundance": 18510,
  "Ġresurgence": 29570,
  "Ø": 147,
  "260": 29519,
  "Ġeverybody": 6088,
  "Red": 10728,
  "ĠMcCl": 21277,
  "ync": 16627,
  "âĸĳ": 30597,
  "Ġsilently": 27012,
  "Ġmeals": 13533,
  "Ġaccelerate": 19420,
  "Connell": 29673,
  "Ġcountries": 2242,
  "Ġqueen": 17541,
  "Ġdish": 9749,
  "ĠTer": 5084,
  "60": 2605,
  "Ġclearing": 17236,
  "Ġcheckpoint": 26621,
  "ĠPar": 2546,
  "input": 25326,
  "Ġoccupied": 11035,
  "asser": 22540,
  "Ġmeasures": 4799,
  "Ġpracticing": 16748,
  "Ġegreg": 24890,
  "ĠJan": 2171,
  "rome": 6538,
  "Ġquar": 23376,
  "Ġgetting": 1786,
  "ĠTroy": 19448,
  "Ġrupt": 29140,
  "Ġmisguided": 24070,
  "ĠFiles": 27114,
  "Ġembark": 17803,
  "Ġelimin": 5771,
  "Ġdismantle": 29596,
  "ĠHaz": 17597,
  "ĠClarke": 16437,
  "Ġdrunk": 10318,
  "Ġdiffere": 949,
  "Ġaccomplishments": 21990,
  "ĠNumbers": 30296,
  "Ġunravel": 25944,
  "ĠLeh": 22516,
  "Ġopp": 1112,
  "Ġdetention": 11206,
  "ĠPush": 26426,
  "Ġlicensing": 13621,
  "Ġgotta": 17011,
  "iscons": 7364,
  "iah": 11391,
  "Ġreset": 13879,
  ".\"[": 7280,
  "ĠAstros": 23659,
  "Ġturb": 12660,
  "Ġlead": 914,
  "Ġtherapy": 9808,
  "ĠWrestling": 25617,
  "ĠAlong": 15645,
  "hat": 16750,
  "Ġportray": 8801,
  "ĠJoan": 22923,
  "ishable": 29562,
  "ĠRepresentative": 18000,
  "ĠPhoenix": 10119,
  "ĠPaul": 2847,
  "Ġnotch": 29347,
  "Ġlogging": 18962,
  "atsu": 24975,
  "ĠHampshire": 11253,
  "Ġsteals": 25228,
  "Ġsquirrel": 29361,
  "Ġtwent": 19609,
  "Ġemotions": 10374,
  "ĠWC": 25931,
  "Ġsupremacy": 21846,
  "ĠSyri": 2495,
  "ĠNeg": 20705,
  "Ġdispro": 13244,
  "ryn": 28990,
  "Ġescalation": 24024,
  "Ġvigil": 14505,
  "Ġminus": 19389,
  "Ġteammate": 15636,
  "ĠMonsanto": 21228,
  "Ġransom": 21069,
  "Ġacknowledge": 9974,
  "Ġlou": 20731,
  "ĠWong": 23359,
  "ĠRichmond": 14673,
  "Ġsurveys": 14656,
  "Ġdismissal": 21985,
  "ĠBaghdad": 16066,
  "enas": 28998,
  "View": 9730,
  "ĠPepper": 26021,
  "iss": 722,
  "ogn": 2269,
  "ibus": 28996,
  "Ġincred": 4417,
  "ĠBrief": 22593,
  "Ġsom": 20679,
  "Ġcoward": 25050,
  "Ġpromise": 6380,
  "ĠTreaty": 19067,
  "Ġsits": 10140,
  "working": 14517,
  "Ġexplosive": 12492,
  "ĠFle": 11564,
  "Ġcrippling": 31214,
  "ĠGaz": 17979,
  "Ġridiculously": 29460,
  "Ġinsisting": 18601,
  "ĠAmanda": 21701,
  "ploy": 1347,
  "ĠGol": 25350,
  "Ġrubber": 14426,
  "ĠBit": 4203,
  "ĠDw": 16871,
  "ĠSummers": 30888,
  "Ġareas": 2811,
  "Ġcrisp": 23362,
  "ÂĴ": 8877,
  "ĠComplex": 21950,
  "ĠClinton": 2068,
  "emaker": 30900,
  "Ġfurther": 2113,
  "Ġblew": 15948,
  "Ġemphasizing": 29603,
  "Ġexpands": 24265,
  "Ġprevalent": 19809,
  "ĠLuis": 16657,
  "levision": 3873,
  "ĠFire": 5035,
  "Ġflav": 10917,
  "Ġharming": 31814,
  "Just": 5267,
  "Ġsexy": 19187,
  "Ġfishermen": 27071,
  "UTERS": 12481,
  "ĠIo": 22597,
  "Un": 3809,
  "Ġdeploy": 5195,
  "ĠThomas": 5037,
  "Ġcontraception": 23949,
  "Ġinstinct": 12667,
  "ĠGeek": 28440,
  "lementary": 14101,
  "Ġpowered": 12078,
  "ĠThanksgiving": 18086,
  "hill": 12000,
  "ĠDiet": 19220,
  "ĠWant": 17684,
  "ĠEnvironmental": 12008,
  "ĠMarty": 24297,
  "Ġdom": 2299,
  "ĠLoc": 17513,
  "Ġdim": 7624,
  "Ġscanning": 22191,
  "ĠCreate": 17598,
  "Ġconstantly": 7158,
  "ĠPit": 8268,
  "Ġheal": 14947,
  "Ġknows": 3889,
  "lying": 3214,
  "ĠOpportunity": 28758,
  "ĠLew": 7264,
  "ĠMatthew": 8423,
  "Ġcases": 2626,
  "ĠDoct": 31353,
  "ĠSH": 10542,
  "âĢĻ,": 7671,
  "Ġstatements": 5936,
  "Tri": 26103,
  "Ġadminister": 23217,
  "TM": 22076,
  "Ġwait": 3983,
  "Ġjournalism": 10575,
  "ĠSri": 17763,
  "most": 1562,
  "Ġble": 7117,
  "In": 748,
  "ĠRefuge": 22109,
  "ĠROM": 24487,
  "Ġtext": 2851,
  "Ġpsychedelic": 27799,
  "bean": 14043,
  "Ġsuperf": 20081,
  "Palest": 23551,
  "Ġdischarge": 21219,
  "Community": 29574,
  "Ġdessert": 28144,
  "Ġdefenders": 12839,
  "ayette": 24641,
  "Ġfrequent": 10087,
  "Ġwreckage": 30555,
  "ĠAdobe": 21051,
  "gl": 5273,
  "Ġantib": 11099,
  "avier": 23377,
  "erted": 8855,
  "Ġpamph": 28035,
  "design": 25544,
  "Ġsacrific": 13062,
  "ndra": 18943,
  "ĠRailroad": 31832,
  "Ġessentially": 6031,
  "Ġbri": 26738,
  "usk": 18494,
  "Ġcord": 15886,
  "Ġmiles": 4249,
  "shed": 30398,
  "political": 19037,
  "Ġannot": 22571,
  "Ġproducts": 3241,
  "ĠSu": 2112,
  "oly": 4282,
  "Ġcontest": 6286,
  "nton": 23326,
  "Ġfundamentals": 28481,
  "ĠPur": 13091,
  "cos": 5933,
  "Ġgloss": 21387,
  "Ġorchestra": 31081,
  "Ġcomparatively": 28988,
  "Ġthink": 786,
  "Ġexamples": 6011,
  "balanced": 27637,
  "Ġspreads": 25165,
  "Ġheadaches": 27100,
  "pered": 13977,
  "Ġmotif": 30458,
  "Ġenthus": 7322,
  "Ġovers": 8538,
  "ges": 3049,
  "Ġaddressing": 11634,
  "eder": 5317,
  "Ġbarrels": 15049,
  "ĠCub": 6284,
  "ĠTyson": 23501,
  "le": 252,
  "[]": 31296,
  "2016": 8546,
  "Ġsuburbs": 16529,
  "Ġrefers": 10434,
  "Ġscreening": 13293,
  "lem": 14137,
  "Ġbip": 11744,
  "Ġdescript": 13875,
  "ights": 2921,
  "ĠCommun": 4431,
  "Ġsavvy": 25538,
  "Ġperformance": 2826,
  "ĠZap": 31893,
  "Ġlisting": 14240,
  "Ġrent": 5569,
  "ĠFM": 21037,
  "Ġattorneys": 11617,
  "ĠKnown": 31938,
  "oft": 7285,
  "bn": 8286,
  "Ġunpredictable": 19348,
  "Ġinterrupt": 12280,
  "Ġblockade": 24087,
  "Ġconstitute": 16840,
  "inez": 15430,
  "ayson": 28036,
  "cil": 2487,
  "Ġshort": 1681,
  "Ġreportedly": 5805,
  "ĠArticles": 23714,
  "Ġcriminal": 3830,
  "irk": 13537,
  "Ġvector": 17421,
  "Ġtribute": 14431,
  "ĠGirls": 15637,
  "ĠFlying": 24785,
  "Ġinsanity": 27832,
  "Ġabst": 19798,
  "Ġretrieved": 30875,
  "Ġdwarf": 23521,
  "photo": 21105,
  "Ġhundreds": 4314,
  "open": 9603,
  "Ġclimbing": 13465,
  "Ġ,": 1626,
  "ĠEuropean": 2869,
  "Ġfaculty": 12095,
  "Ġcompromised": 15905,
  "eng": 1563,
  "lantic": 21485,
  "Ġcompliance": 12890,
  "hement": 29070,
  "Ġtrillion": 9580,
  "ĠCurtis": 21131,
  "resolution": 27296,
  "extreme": 23418,
  "Ġgenome": 17982,
  "ĠLaur": 12036,
  "Ġsmiling": 17138,
  "Ġbub": 9011,
  "ĠStrength": 29154,
  "Ġmetals": 20321,
  "Ġozone": 31599,
  "ĠEthiopia": 25891,
  "Miller": 30104,
  "Ġme": 466,
  "Ġsecret": 2890,
  "Ġtox": 7967,
  "SO": 14755,
  "Ġgrocery": 14828,
  "Ġtook": 1524,
  "Ġdrowning": 29276,
  "ravo": 28242,
  "unity": 11007,
  "Ġloud": 7712,
  "Ġsee": 727,
  "https": 8052,
  "Ġ1996": 8357,
  "Ġskies": 22135,
  "ipping": 5432,
  "Ġstaffers": 17184,
  "eller": 11773,
  "Ġleaf": 13901,
  "waukee": 13020,
  "Ġround": 2854,
  "Ġeducation": 3309,
  "Ġhelping": 5027,
  "Ġassertion": 16966,
  "Ġchart": 6320,
  "Ġ@": 2766,
  "Ġoutraged": 21403,
  "due": 21661,
  "ĠZombie": 31248,
  "Ġtenant": 28514,
  "Ġfeather": 17471,
  "icted": 5137,
  "ĠOEM": 31703,
  "outube": 13813,
  "Ġexposes": 28765,
  "Ġdonations": 9557,
  "Ġhook": 8208,
  "Ġgatherings": 30687,
  "Lib": 29497,
  "ĠWolver": 24215,
  "Ġtestim": 8325,
  "ĠFurther": 8184,
  "Ġambassador": 11982,
  "ÐµÑĢ": 29076,
  "ĠGC": 23484,
  "Ġrendering": 14762,
  "Ġgrocer": 12306,
  "ĠFrances": 23828,
  "ĠTokyo": 11342,
  "ilem": 18455,
  "Listen": 21177,
  "ottesville": 20727,
  "Ġoptimistic": 12770,
  "am": 280,
  "ahn": 14254,
  "Ġcorrectness": 24954,
  "ĠHi": 20148,
  "ĠInvestment": 20744,
  "Ġprinc": 5100,
  "Ġnothing": 2058,
  "Ġscience": 3248,
  "ĠKO": 25011,
  "ĠDark": 7180,
  "Ġassault": 4122,
  "comment": 25261,
  "Ġvodka": 31702,
  "ĠCentre": 7992,
  "Ġrall": 12859,
  "Ġflock": 27773,
  "Ġplaying": 2334,
  "ĠDestiny": 26965,
  "Ġphrase": 9177,
  "ĠIsraeli": 4657,
  "Ġsway": 18462,
  "Ġwondered": 13170,
  "blog": 13887,
  "ĠStudent": 16948,
  "Ġcad": 17885,
  "Ġnationals": 20244,
  "Ġthief": 26919,
  "ihar": 28631,
  "Ġplan": 1146,
  "Ġdrivers": 5955,
  "Ġnotoriously": 23868,
  "Ġnucleus": 28269,
  "Ġfetus": 30379,
  "document": 28002,
  "Ġvariation": 13116,
  "data": 11701,
  "Ġsubsequently": 10610,
  "shirts": 19782,
  "Ġindoor": 21142,
  "reon": 26867,
  "Ġdowntown": 7507,
  "Ġmuscular": 27833,
  "Ġcert": 6597,
  "Ġintersection": 15342,
  "Level": 21082,
  "Ġstellar": 20381,
  "References": 13440,
  "hig": 21533,
  "ACH": 22249,
  "ĠEdmonton": 16237,
  "Ġstyl": 19899,
  "ĠCamp": 5244,
  "Ġdone": 1672,
  "Ġtipping": 25794,
  "ĠNap": 11867,
  "Ġtroubled": 15204,
  "Ġmyster": 6101,
  "Ġminimize": 17539,
  "Ġslept": 21093,
  "ĠFinals": 17220,
  "Ġarrange": 7952,
  "Ġadmire": 18360,
  "First": 5437,
  "James": 13454,
  "Def": 9829,
  "Ġresulting": 7183,
  "Ġbod": 18324,
  "info": 15287,
  "imates": 27226,
  "ĠGDP": 10304,
  "Ġbath": 7961,
  "Ġpunches": 24443,
  "High": 13787,
  "constitutional": 15010,
  "Ġphotographs": 11217,
  "DO": 20660,
  "ĠPuerto": 12752,
  "powered": 12833,
  "ĠJo": 5330,
  "Ġformations": 27608,
  "Ġinnate": 28441,
  "Ġsi": 18420,
  "Ġaer": 9438,
  "Ġchurches": 12498,
  "Ġprohibit": 19605,
  "ĠWireless": 25585,
  "Government": 23389,
  "Ġlanes": 12484,
  "ĠTaking": 20889,
  "onel": 24325,
  "gue": 16900,
  "Ġsuperintendent": 28874,
  "Ãī": 29171,
  "wide": 3881,
  "Fre": 24342,
  "BM": 8941,
  "Ġparent": 2452,
  "Ġcalculate": 16338,
  "Ġstd": 22639,
  "ĠGraham": 9443,
  "ĠTV": 2813,
  "rational": 17946,
  "ĠBachmann": 28152,
  "Ġ1500": 23590,
  "Ġsusceptible": 21488,
  "Ġexclusively": 10631,
  "Ġpremises": 19446,
  "Ġfigured": 10855,
  "onian": 28571,
  "Ġterrific": 19978,
  "ĠWI": 28683,
  "Ġtoward": 3462,
  "Ġmessaging": 16178,
  "Ġgenerations": 9310,
  "ador": 6032,
  "ĠWay": 6542,
  "ĠSP": 7799,
  "oves": 5884,
  "lear": 2471,
  "JUST": 21804,
  "ant": 380,
  "Ġextending": 15105,
  "Ġdiss": 5582,
  "oms": 4827,
  "Ġrandomized": 29095,
  "ĠClick": 9337,
  "cert": 31027,
  "Ġlakh": 22382,
  "Ġtide": 17528,
  "Ġlawsuits": 13825,
  "cation": 25207,
  "Ġboundaries": 12252,
  "Ġneighborhood": 5091,
  "earth": 18616,
  "And": 1693,
  "Ġserv": 1067,
  "Ġdie": 4453,
  "swer": 23367,
  "ingen": 29155,
  "Ġprophe": 20567,
  "\");": 21790,
  "Ġelementary": 17678,
  "ĠDIS": 27692,
  "hester": 18028,
  "ĠSar": 6548,
  "Ġtransitional": 31616,
  "ĠSHARES": 31417,
  "ĠPlatform": 22030,
  "Ġ52": 8613,
  "deal": 26894,
  "Ġ1975": 14159,
  "Ġcommittees": 16254,
  "ĠOperations": 17159,
  "ictions": 8476,
  "Ġsystematically": 22333,
  "ĠLeon": 9737,
  "ĠRays": 30260,
  "Ġmanip": 7329,
  "ĠGarden": 12906,
  "Ġbreeze": 30617,
  "Ġlobby": 8290,
  "Ġumbrella": 21908,
  "·": 116,
  "Ġhandic": 28974,
  "otes": 7245,
  "Friday": 19987,
  "Ġdef": 778,
  "130": 16696,
  "ighter": 4934,
  "oji": 26798,
  "Ġpassenger": 10765,
  "Ġphone": 2720,
  "Ġsuggesting": 8102,
  "Ġsafely": 11623,
  "HD": 13674,
  "aciÃ³n": 23785,
  "Fred": 27649,
  "Ġwhere": 750,
  "aco": 11061,
  "Ġproducing": 8066,
  "gel": 13708,
  "Ġenerget": 21928,
  "Ġminimum": 5506,
  "Ġrenegoti": 30010,
  "ĠGiants": 10789,
  "Mass": 19007,
  "Ġunaff": 23056,
  "Ġhills": 19176,
  "ken": 3699,
  "Ġreserv": 5313,
  "hetti": 31621,
  "ierre": 11985,
  "ĠNormally": 31151,
  "Ġ90": 4427,
  "Ġlaw": 963,
  "rong": 14568,
  "ĠTH": 3308,
  "Ġelectronic": 8044,
  "Te": 5957,
  "Ġfarming": 13822,
  "Ġfoe": 27722,
  "ĠGrey": 15567,
  "Ġsalt": 9147,
  "Ġadvertised": 22205,
  "Ġopposite": 6386,
  "Ġhospitalized": 26668,
  "our": 425,
  "ĠThrow": 29951,
  "endo": 26690,
  "Ġkeyboards": 28544,
  "ĠMississippi": 11722,
  "edience": 22187,
  "ĠBY": 13680,
  "Ġlast": 804,
  "div": 9634,
  "So": 2184,
  "Ġremarked": 21541,
  "Ġsuperstar": 21936,
  "Ġinvestigations": 9244,
  ")-": 19950,
  "Ġplots": 19079,
  "ĠSter": 18098,
  "Ġupside": 15132,
  "Ref": 8163,
  "Ġmonuments": 23537,
  "Ġrim": 20513,
  "Ġwheelchair": 24337,
  "Stars": 30330,
  "Ġplac": 23178,
  "eros": 26167,
  "Ġcrystal": 16999,
  "mo": 6942,
  "University": 21236,
  "including": 8421,
  "Or": 6891,
  "à¹": 29104,
  "ĠTam": 11325,
  "Ġproceeds": 16517,
  "ĠDreams": 26012,
  "az": 1003,
  "Ġintroduction": 9035,
  "Ġwrist": 15895,
  "Subscribe": 18967,
  "who": 7757,
  "ĠCivic": 26865,
  "Rou": 28482,
  "Ġshooting": 3893,
  "habi": 27817,
  "Ġunfavor": 27783,
  "resident": 1479,
  "Ġsuccess": 1683,
  "Ñĭ": 13071,
  "Ġprocedures": 9882,
  "sequently": 19953,
  "shine": 18754,
  "Ġneur": 11298,
  "Ġorganize": 13926,
  "Ġgigantic": 23207,
  "Ġarrests": 11620,
  "Ġsubur": 10505,
  "Ġstraight": 3818,
  "Ġ./": 31564,
  "Ġtakes": 2701,
  "Ġtourist": 15208,
  "Ġoutlaw": 19485,
  "Ġsimulations": 23179,
  "Ġcreate": 2125,
  "ĠFull": 8156,
  "Ġoffices": 8569,
  "prem": 31951,
  "prus": 22754,
  "Ġavoids": 28833,
  "Ġec": 9073,
  "Ġhigh": 960,
  "nor": 12228,
  "Ġclash": 15934,
  "Ġpositives": 31721,
  "ĠRed": 2643,
  "Ġenter": 4145,
  "Ġdownloading": 22315,
  "Ġyields": 17904,
  "ĠClar": 13839,
  "Ġadditional": 3424,
  ")\"": 25513,
  "Ġwe": 306,
  "sever": 25996,
  "Ġparliament": 6304,
  "Bl": 4573,
  "Ġundec": 24114,
  "local": 16189,
  "Ġlabels": 13427,
  "ĠHundreds": 26451,
  "IND": 21600,
  "Ġcancers": 24085,
  "turned": 25814,
  "locked": 28328,
  "occupied": 25315,
  "Ġquir": 23106,
  "ĠWizards": 19868,
  "ĠSle": 31071,
  "Ġpir": 10680,
  "ĠMillennium": 31379,
  "Ġcaucus": 17127,
  "ĠBO": 17914,
  "Ġolive": 20454,
  "ĠMut": 17538,
  "Ġis": 277,
  "Ðµ": 4640,
  "ĠParis": 5403,
  "usc": 16513,
  "Ġfusion": 20059,
  "ĠSecurities": 24028,
  "Ġer": 1964,
  "room": 3150,
  "bench": 27162,
  "ĠBug": 23169,
  "Ġmature": 14632,
  "Ġtruth": 3763,
  "ĠVict": 6046,
  "gered": 9794,
  "ĠIF": 22305,
  "Ġstable": 7871,
  "ĠWalsh": 19023,
  "Ġfingers": 10967,
  "Hom": 29982,
  "Ġunderwent": 21379,
  "etta": 13896,
  "Ġpardon": 26538,
  "Ġraging": 27712,
  "ĠSylv": 27064,
  "Ġairports": 18052,
  "Ġmelody": 29545,
  "Ġfundament": 5187,
  "Ġfederally": 28257,
  "ĠAllan": 27076,
  "ĠJuda": 21336,
  "ĠReturns": 29889,
  "Ġefficient": 6554,
  "Ġcage": 17490,
  "ural": 1436,
  "Ġpunishment": 9935,
  "ulative": 13631,
  "ĠEver": 10273,
  "camp": 17374,
  "ĠFar": 6398,
  "Ġpal": 6918,
  "Ġremarkable": 9594,
  "Ġexcel": 25168,
  "Ġrebounds": 16751,
  "ĠCJ": 29099,
  "Ġnarr": 6761,
  "Ġoutgoing": 23752,
  "ĠNine": 16834,
  "ĠLinda": 20088,
  "Ġphilos": 5148,
  "Ġleaks": 13909,
  "Ġpens": 28044,
  ".'": 4053,
  "inc": 1753,
  "Ġdice": 19095,
  "stay": 28352,
  "Ġfriend": 1494,
  "Ġpeople": 576,
  "Ġprogressives": 22136,
  "Ġgenres": 23694,
  "Ġundeniable": 29811,
  "Ġearlier": 2518,
  "cht": 17778,
  "raud": 5676,
  "ĠTow": 24950,
  "Context": 28774,
  "Ġhen": 30385,
  "ĠLike": 4546,
  "Ġextract": 7396,
  "licted": 26992,
  "ĠâĢĻ": 7616,
  "ĠIRA": 27441,
  "essors": 19945,
  "Ġencouraging": 10206,
  "Ġcapped": 24372,
  "Ġunchanged": 20113,
  "Ġcraz": 24230,
  "Ġwinter": 6728,
  "ĠGle": 30751,
  "node": 27347,
  "deb": 16686,
  "water": 5794,
  "Ġcollapsed": 13320,
  "Ġfury": 25774,
  "ĠOfficials": 22272,
  "oda": 11838,
  "Ġstereotypes": 19263,
  "ĠSingle": 19748,
  "Down": 11200,
  "pay": 16258,
  "Ġinhabitants": 17745,
  "ĠEarth": 3774,
  "ĠIniti": 16081,
  "Ġremedies": 31845,
  "Ġguru": 29818,
  "Ġsunk": 23856,
  "Jose": 21979,
  "posts": 25622,
  "repe": 30166,
  "All": 3446,
  "atform": 3132,
  "Ġcompetition": 4516,
  "ĠLeo": 20682,
  "ĠDO": 9313,
  "ĠHands": 28059,
  "Lou": 20811,
  "ĠGreens": 14813,
  "ĠLowe": 27841,
  "Plan": 20198,
  "Ġgovernments": 5351,
  "Ġrecognize": 6914,
  "ĠBur": 5240,
  "Ġfighter": 9210,
  "Ġlength": 4704,
  "onding": 31097,
  "ĠHealthcare": 29778,
  "Ġredd": 19761,
  "rance": 21399,
  "Ġ''": 13380,
  "uilding": 6901,
  "grass": 28891,
  "ĠAlv": 24039,
  "Ġbills": 7332,
  "Ġadolesc": 21097,
  "Ġfinished": 4841,
  "ds": 10009,
  "Ġdou": 2211,
  "Ġwhales": 18223,
  "Ġacre": 27620,
  "oka": 20495,
  "Ġcouncil": 5376,
  "ĠMAC": 29540,
  "Ġ\\": 5891,
  "Ġcrimin": 9647,
  "ads": 7026,
  "ĠICO": 25065,
  "Ġjur": 8547,
  "Ġgrowing": 3314,
  "ranean": 14719,
  "Ġgenerated": 7536,
  "ĠWed": 2729,
  "Ġrevolutions": 31875,
  "THE": 11802,
  "etime": 7826,
  "Ġexceptions": 13512,
  "Ġpredatory": 29518,
  "Ġhalt": 14133,
  "Ġmeet": 1641,
  "ĠMoody": 28384,
  "Ġsever": 1583,
  "Ġpossessions": 20816,
  "ĠKill": 14837,
  "Ġignored": 8917,
  "igen": 7789,
  "activity": 23725,
  "Ġolig": 21022,
  "Call": 16864,
  "Ġbut": 433,
  "raph": 7611,
  "Ġoffseason": 11842,
  "Ġfrustration": 11915,
  "Ġcommissioner": 13269,
  "ĠEld": 23419,
  "ĠATM": 28583,
  "Ġshare": 2454,
  "ĠDart": 26914,
  "Ġdistinguished": 19096,
  "atherine": 13967,
  "verts": 22948,
  "Mult": 19163,
  "Ġfacilitating": 31136,
  "rap": 1344,
  "ĠMonthly": 30665,
  "wo": 3102,
  "Ġfert": 10787,
  "built": 19142,
  "ĠTerror": 14442,
  "Ġbuilt": 2861,
  "Ġgroundwork": 31547,
  "Chris": 13785,
  "Ġorganizing": 13344,
  "Ġaxe": 27849,
  "Ġmisc": 11642,
  "Ġclear": 1879,
  "Ġreperc": 26353,
  "tri": 27848,
  "athetic": 16363,
  "ĠPurdue": 28767,
  "íķ": 27159,
  "ĠYorker": 22054,
  "ĠAnders": 21287,
  "Ġrefuses": 16601,
  "ande": 27897,
  "ĠWade": 15370,
  "ĠVanderbilt": 31610,
  "Ġfollowed": 3651,
  "ĠYosh": 28125,
  "Fs": 31752,
  "stra": 11333,
  "result": 31196,
  "Ġalive": 6770,
  "EF": 31491,
  "ĠFinancial": 11454,
  "Ġactually": 1541,
  "ĠGro": 10193,
  "Ġrumored": 23334,
  "ĠFF": 20613,
  "Ġexempl": 19274,
  "bage": 12851,
  "affe": 13558,
  "eg": 20761,
  "Ġplanetary": 22764,
  ")<|": 10371,
  "ĠJill": 20122,
  "GBT": 7006,
  "Ġmore": 460,
  "works": 4483,
  "brew": 12272,
  "Ġev": 760,
  "iving": 1335,
  "ados": 18619,
  "env": 30861,
  "Ġinevitably": 14307,
  "ĠIan": 12338,
  "Ġincomes": 15642,
  "ĠKatherine": 28724,
  "ĠWow": 27471,
  "Ġcarrying": 6515,
  "Pr": 7665,
  "ĠGen": 6016,
  "Ġrails": 26812,
  "Ġwidget": 31911,
  "Ġplayers": 1613,
  "Ġencryption": 14016,
  "Ġmotivate": 28958,
  "leck": 30190,
  "I": 41,
  "Ġcloses": 22488,
  "Ġblood": 3252,
  "arium": 20397,
  "culture": 21192,
  "inger": 3988,
  "Made": 30171,
  "Ġera": 5377,
  "athe": 25425,
  "Ġobese": 23952,
  "Ġtoday": 1622,
  "ĠBoyle": 30012,
  "ĠBrom": 26033,
  "ĠEisenhower": 27180,
  "225": 28006,
  "roc": 12449,
  "ĠTerritory": 29383,
  "balance": 20322,
  "Ġsalad": 20978,
  "Ġinvitation": 15870,
  "Ġchains": 13564,
  "ification": 3015,
  "Ġ1949": 22630,
  "Ġobserving": 20396,
  "Ġarmy": 5005,
  "ĠCleveland": 8734,
  "Ġsucc": 16737,
  "Ġmelted": 24390,
  "Labour": 25291,
  "father": 10583,
  "ĠService": 5101,
  "ĠWillis": 28184,
  "Ġ:": 2042,
  "loading": 28485,
  "Ġobjective": 9245,
  "ĠBowman": 31284,
  "ĠJourney": 26476,
  "Ġinstruments": 12690,
  "Ġescorted": 27475,
  "ĠInto": 23899,
  "Ġforgot": 17113,
  "ĠWales": 9815,
  "Ġcarbon": 5386,
  "ĠFootball": 8852,
  "RT": 12683,
  "addy": 14055,
  "akers": 3293,
  "ĠPlains": 31267,
  "ĠLevin": 25394,
  "Ġnurs": 10408,
  "Ġcompetitiveness": 29010,
  "Ġdevelopments": 10851,
  "TB": 22770,
  "ĠMexicans": 29030,
  "(\"": 10413,
  "lease": 3597,
  "Ġobservations": 11898,
  "Ġregret": 11698,
  "Ġconversations": 8700,
  "ĠTA": 27538,
  "fc": 27227,
  "Ġfright": 12531,
  "Ġlikes": 6957,
  "Ġsupermarket": 21325,
  "ake": 497,
  "Ġcontends": 29001,
  "project": 20656,
  "iotic": 27950,
  "Ġaux": 27569,
  "Ger": 24989,
  "ĠBerkeley": 11979,
  "url": 13738,
  "Ġcreatures": 9861,
  "ĠVR": 7950,
  "Ġpetro": 15444,
  "net": 3812,
  "Ġphysician": 15266,
  "Ġrhetoric": 9969,
  "Prince": 30917,
  "Ġprolific": 23072,
  "ĠVirgin": 4864,
  "plays": 31018,
  "ĠGujarat": 23310,
  "Ġmetic": 26945,
  "();": 12591,
  "Ġmol": 17205,
  "Ġpol": 638,
  "Ġcoun": 2049,
  "Check": 11707,
  "oret": 9367,
  "inoids": 30898,
  "opus": 27931,
  "chie": 2855,
  "Ġfixes": 15910,
  "Chief": 20510,
  "French": 21345,
  "Ġlately": 15207,
  "Ġquestioning": 11902,
  "Ġ~": 9378,
  "ĠDortmund": 25972,
  "lando": 9835,
  "Ġmasturb": 27691,
  "Ġpair": 5061,
  "ĠShepherd": 28953,
  "kee": 10032,
  "ĠLego": 25521,
  "Ġswap": 16761,
  "Ġharvest": 12709,
  "Ġbarn": 25514,
  "Ġwines": 27424,
  "ĠSessions": 12118,
  "Ġcommits": 25926,
  "Ġrequires": 4626,
  "ĠPhillip": 26060,
  "Ġhelmets": 27404,
  "Ġlim": 1801,
  "Ġmarine": 13693,
  "ĠCologne": 29813,
  "Ġwandering": 23998,
  "ĠMalaysia": 14583,
  "Ġvillains": 22839,
  "Indeed": 14417,
  "Ġpeer": 11743,
  "ĠBaseball": 15726,
  "ĠTher": 15324,
  "contin": 25511,
  "Ġbureau": 8511,
  "Ġacquisitions": 29022,
  "ĠAr": 1004,
  "ĠCancer": 16996,
  "Ġ1970": 6784,
  "ĠLindsay": 28505,
  "ĠGabriel": 18595,
  "Ġtrig": 5426,
  "ser": 3905,
  "Ġinh": 26981,
  "Ġburglary": 28915,
  "Ġsticky": 25417,
  "Ġlaund": 20653,
  "ĠInterest": 13371,
  "?),": 31346,
  "utt": 12180,
  "Ġhover": 19860,
  "ĠHolly": 27927,
  "Ġurl": 24734,
  "ĠAlonso": 26861,
  "Romney": 30788,
  "Ġcompile": 18744,
  "index": 15991,
  "Ġmeasuring": 15504,
  "Journal": 21953,
  "Ġaverages": 22573,
  "othy": 14217,
  "ui": 10117,
  "Ġharvested": 31010,
  "Ġprovocative": 23019,
  "ĠPrinc": 13352,
  "CH": 4627,
  "Ġduration": 12293,
  "Ġstudent": 3412,
  "ĠFans": 21391,
  "Ġcollected": 7534,
  "ensual": 28548,
  "Ġtube": 14942,
  "Ġsurvive": 7466,
  "Ġexpans": 17956,
  "Ġunemployed": 16348,
  "funding": 20091,
  "Where": 8528,
  "Ġgoverned": 21256,
  "ĠErd": 15388,
  "Ġalien": 8267,
  "Ġtrash": 12889,
  "Ġwarnings": 13243,
  "ĠGiuliani": 30899,
  "Ġcyt": 30759,
  "Ġ1913": 30878,
  "\";": 15214,
  "etermined": 28605,
  "Ġms": 20766,
  "Ġbrowsers": 19504,
  "Late": 24502,
  "Ġchallenged": 10808,
  "ooting": 13849,
  "Ġfurious": 19716,
  "lium": 28103,
  "Ġaudio": 7406,
  "azing": 4295,
  "Got": 31454,
  "Ġclothing": 9675,
  "ĠOp": 9866,
  "Ġcosmetic": 30101,
  "ĠEston": 21814,
  "Ġfuels": 13824,
  "owitz": 17461,
  "Ġtaxi": 15453,
  "Ġcarried": 5015,
  "Hop": 19629,
  "Shortly": 24314,
  "Ġcereal": 30735,
  "itude": 4057,
  "ĠWorlds": 24519,
  "drug": 28202,
  "Ġterm": 3267,
  "ĠComet": 31886,
  "Ġcompetitions": 19295,
  "rence": 6712,
  "Ġmoment": 2419,
  "Ġconviction": 11231,
  "Ġinsert": 16021,
  "Ð¿": 20723,
  "Ġfight": 1699,
  "cause": 24623,
  "Ġlimits": 6982,
  "ĠMath": 16786,
  "ĠSens": 15980,
  "Results": 27951,
  ".''": 18480,
  "Ġvent": 10913,
  "Ġbother": 11313,
  "Ġwholesale": 21101,
  "arus": 22658,
  "Ġbathrooms": 26511,
  "Ġtension": 11357,
  "ĠTournament": 20061,
  "pless": 14960,
  "Ġbags": 11249,
  "IAN": 24515,
  "Ġlicens": 8440,
  "iu": 18946,
  "ĠGael": 30679,
  "Fix": 28186,
  "Ġextends": 14615,
  "Ġinvite": 13328,
  "incre": 22883,
  "Ġoverlooked": 18358,
  "ĠGO": 10213,
  "ike": 465,
  "atin": 12193,
  "ennis": 9187,
  "Ġnight": 1615,
  "ĠKit": 10827,
  "bed": 3070,
  "ĠFranken": 19779,
  "Gold": 15421,
  "ldon": 22806,
  "Ġdepend": 4933,
  "%.": 7555,
  "ĠAlbany": 25450,
  "ĠComp": 3827,
  "ĠNapoleon": 28222,
  "Ġtimes": 1574,
  "Ġens": 2946,
  "GG": 20341,
  "ĠEverett": 31310,
  "Ġarguing": 9330,
  "Ġrecruit": 9850,
  "Ġkilled": 2668,
  "ĠMahmoud": 26723,
  "ĠMaxwell": 25478,
  "ult": 553,
  "LGBT": 28212,
  "Ġcrash": 6829,
  "Ġrestored": 14617,
  "Ġbicycle": 15720,
  "Ġpresidents": 14471,
  "Ġhope": 2416,
  "Ġsidewalk": 20609,
  "ammar": 16975,
  "special": 22203,
  "ĠSession": 30895,
  "Ġmor": 1944,
  "TL": 20860,
  "ĠGrande": 27173,
  "ost": 420,
  "iggle": 26356,
  "Ġvict": 1933,
  "rupt": 3480,
  "Ġbachelor": 27136,
  "Ġsoul": 7113,
  "ĠEspecially": 17696,
  "ĠED": 12253,
  "ĠFacility": 30452,
  "ĠStein": 12452,
  "Ġsuburb": 18920,
  "Ġlogged": 18991,
  "ĠDaesh": 31231,
  "Ġrequesting": 20050,
  "Product": 29510,
  "Ġwatches": 16998,
  "ĠHass": 18181,
  "âĢĲ": 10135,
  "Ġshouted": 17145,
  "RC": 8540,
  "ĠEL": 20575,
  "Ġincrease": 2570,
  "ĠJuly": 2558,
  "otton": 12883,
  "ĠNSW": 19225,
  "riger": 18903,
  "AMA": 24298,
  "ĠCompanies": 22043,
  "pecially": 2151,
  "Ġpressures": 16059,
  "ĠDecember": 3009,
  "pun": 31948,
  "ione": 8099,
  "ĠEnh": 30021,
  "ĠAbout": 8058,
  "ĠTerms": 30579,
  "Ġuncle": 15964,
  "Ġuniform": 7869,
  "compass": 16136,
  "Ġmutations": 22785,
  "ĠLieutenant": 23232,
  "Ġpine": 20421,
  "ĠBenef": 25200,
  "Ġrolls": 15141,
  "sty": 20969,
  "under": 5262,
  "Ġwould": 489,
  "Ġforeigners": 16386,
  "Another": 5644,
  "wed": 10340,
  "Ġbiologist": 26443,
  "rition": 10970,
  "Ġforest": 8600,
  "Ġtargeting": 9163,
  "another": 27398,
  "athan": 6123,
  "avorite": 24150,
  "Ġgrinding": 29251,
  "Ġautop": 20238,
  "Ġaccessory": 29634,
  "Ġhistorical": 6224,
  "ĠSho": 19068,
  "Ġfighters": 7139,
  "Ġparental": 21263,
  "Ġdiscount": 9773,
  "ĠPublishing": 23824,
  "AAAA": 18678,
  "Ġantis": 25808,
  "Ġwounds": 14483,
  "Ġconverted": 11576,
  "Ġintegration": 10459,
  "Ġblueprint": 21924,
  "Ġannually": 11894,
  "Ġmassive": 4099,
  "employment": 28480,
  "Early": 14663,
  "Ġloading": 15584,
  "Ġleaning": 20919,
  "Ġmos": 9369,
  "llectual": 26303,
  "Ġborn": 4337,
  "Advertisements": 11859,
  "web": 16433,
  "Ġfastball": 26484,
  "ched": 1612,
  "och": 5164,
  "Ġcivilizations": 31484,
  "Ġmetabolic": 24109,
  "Ġtortured": 18904,
  "Ġframework": 8270,
  "Micro": 14589,
  "cd": 15816,
  "Ġrelatives": 11729,
  "Ġborrowers": 24987,
  "ĠCBO": 28864,
  "Ġgroups": 2294,
  "Ġequipment": 5367,
  "istas": 29692,
  "ĠDevon": 31903,
  "ĠProtocol": 24895,
  "Support": 20962,
  "omore": 17495,
  "Ġpond": 17822,
  "Ġendorse": 9770,
  "ĠTang": 29132,
  "Ġcourts": 7202,
  "Ġsucceeding": 31442,
  "chet": 24165,
  "Ġcompeted": 23740,
  "ĠLimbaugh": 26505,
  "iens": 10532,
  "Ġshooter": 12148,
  "ĠPlant": 20223,
  "ority": 14869,
  "types": 26636,
  "Ly": 31276,
  "Season": 21272,
  "ĠMs": 6269,
  "ĠUs": 5067,
  "ĠLast": 5194,
  "ĠAccess": 10263,
  "Ġfares": 27926,
  "Ġtaller": 26598,
  "ĠHampton": 29993,
  "}}": 9973,
  "igma": 13123,
  "em": 390,
  "Ġ1976": 14119,
  "Ġdancing": 14633,
  "Met": 13433,
  "Ġperformed": 6074,
  "Ġmean": 1545,
  "Roman": 29351,
  "ĠMes": 15561,
  "Ġmonth": 1069,
  "Friend": 24238,
  "iversary": 8281,
  "ERT": 26255,
  "ĠInd": 1288,
  "asted": 8872,
  "Ġdevotion": 26107,
  "iet": 1117,
  "ĠTac": 25624,
  "Ġintegrate": 16343,
  "Bring": 30839,
  "lett": 14855,
  "ĠMot": 6468,
  "ĠStrike": 18434,
  "ĠOnline": 10549,
  "ĠTHC": 23210,
  "tv": 20031,
  "Ġretains": 26746,
  "cer": 1014,
  "Server": 26604,
  "IAL": 20568,
  "Ġracket": 31140,
  "YouTube": 29824,
  "ĠMilky": 29959,
  "ĠLink": 9612,
  "ĠWen": 31234,
  "Ġcompens": 7346,
  "Ġemp": 10308,
  "Ġrefuge": 4723,
  "Resp": 20353,
  "Ġwishing": 23918,
  "Ġinfluence": 4132,
  "ĠLumia": 27103,
  "Ġmighty": 22246,
  "Ġlib": 12733,
  "Ġpigs": 20678,
  "ĠCoun": 3338,
  "ĠHand": 10477,
  "Ġum": 18342,
  "Ġresemb": 11367,
  "Ġdisguise": 27084,
  "ict": 664,
  "Ġeffective": 4210,
  "ĠCI": 18632,
  "ĠAlger": 21071,
  "acas": 31795,
  "Ġfundraising": 13684,
  "Ġformats": 18540,
  "ĠBCE": 30695,
  "ĠÂŃ": 17669,
  "sheet": 22262,
  "Ġconflic": 3755,
  "Ġstripes": 26904,
  "Ġindividuals": 3770,
  "Ġsetting": 4844,
  "Ġbackend": 28500,
  "Ġwrestling": 13376,
  "ĠRob": 3918,
  "aji": 25184,
  "Ġguys": 3386,
  "Ali": 25325,
  "Ġredesigned": 31741,
  "Ġmog": 24415,
  "Ġconcrete": 9010,
  "Ġprogression": 16872,
  "London": 21748,
  "Ġcommand": 3552,
  "Ġcongest": 18643,
  "roy": 3505,
  "Ġfruits": 16783,
  "ĠPhilipp": 8344,
  "Ġopens": 9671,
  "occup": 17751,
  "acks": 5080,
  "ĠRomero": 30726,
  "ĠTayyip": 31945,
  "ski": 12786,
  "ĠInterstate": 25405,
  "ĠMichael": 3390,
  "aters": 13783,
  "chens": 24045,
  "Ġequality": 9125,
  "Ġcharac": 1604,
  "Ġbenefited": 19879,
  "ĠAdult": 26858,
  "Ġarist": 25924,
  "ĠEconomist": 28970,
  "Ġplayground": 21919,
  "Ġswim": 9064,
  "Ġborne": 28642,
  "Ġcig": 9223,
  "owl": 4881,
  "iver": 1689,
  "Ġtalks": 4997,
  "Ġmaps": 8767,
  "Ġpressing": 12099,
  "Ġdies": 9996,
  "rath": 22790,
  "ĠMy": 2444,
  "ktop": 23139,
  "ita": 5701,
  "worthy": 16275,
  "Starting": 22476,
  "Ġlaps": 20020,
  "ATION": 11412,
  "Ġhapp": 1041,
  "ollywood": 6352,
  "Ġescape": 6993,
  "oil": 21655,
  "Ġphotographer": 14004,
  "133": 26890,
  "izon": 7759,
  "ĠPony": 30748,
  "Ġslain": 30648,
  "Ġpits": 26546,
  "Ġpeace": 3792,
  "Ġbid": 7005,
  "Ġbusted": 29812,
  "alse": 4052,
  "Ġassist": 3326,
  "ĠFab": 13588,
  "aching": 7989,
  "owa": 7024,
  "Ġdisproportion": 15951,
  "sp": 3429,
  "Ġclicked": 27388,
  "itially": 18071,
  "ĠPump": 31307,
  "Ġchildhood": 9276,
  "ĠLed": 19936,
  "Ġinspection": 16777,
  "fe": 5069,
  "Ġunin": 23970,
  "Ġinterventions": 18879,
  "adder": 30919,
  "ĠOdyssey": 31265,
  "Ġ122": 27600,
  "zman": 26646,
  "arks": 5120,
  "ĠAssassin": 30657,
  "Ġcompulsory": 28656,
  "Ġcopy": 3570,
  "ĠDrew": 16328,
  "ĠBoard": 6222,
  "Ġnarrator": 27340,
  "Ĩ": 185,
  "Ġmedication": 14172,
  "ĠBund": 12904,
  "loaded": 19319,
  "ĠDocument": 23381,
  "RNA": 28436,
  "forms": 27619,
  "ĠProspect": 27457,
  "Ġquicker": 18375,
  "pering": 21782,
  "ĠNavy": 7726,
  "Ġsentiments": 22415,
  "uting": 14894,
  "Ġassim": 24139,
  "Ġdragged": 16563,
  "Ġprocessed": 14599,
  "Ġflag": 5865,
  "Ġenergies": 27643,
  "Ġprobe": 10578,
  "Ġmoves": 6159,
  "Ġhealing": 13878,
  "ĠMemory": 21031,
  "ĠAz": 9574,
  "overed": 2468,
  "Ġassured": 12799,
  "ĠAfrica": 4696,
  "Ġcampus": 6411,
  "Jam": 26736,
  "alsh": 17530,
  "ĠÑģ": 14841,
  "ĠCustom": 10471,
  "ĠWood": 5909,
  "ĠSherlock": 26676,
  "]<|": 12463,
  "Ġalternatives": 12638,
  "ĠRoot": 26970,
  "Ġbriefly": 10645,
  "Ġscript": 5053,
  "Ġtransp": 6973,
  "odied": 28531,
  "pload": 8198,
  "Ġpurse": 25389,
  "ometric": 21587,
  "map": 11685,
  "words": 11606,
  "Ġdesperate": 10526,
  "Ġdiscretion": 16623,
  "ĠExper": 9813,
  "gren": 27460,
  "Ġcontinues": 3773,
  "ãĢģ": 16787,
  "Previously": 30121,
  "ĠPom": 24559,
  "ĠCBD": 24752,
  "ste": 4141,
  "ĠBenjamin": 12454,
  "Ġprovider": 11116,
  "=\"": 5301,
  "Ġscant": 30554,
  "Ġreceipts": 30337,
  "ĠAbdullah": 20230,
  "Ġaesthetics": 30883,
  "ÙĪ": 23157,
  "ulic": 27894,
  "covery": 16016,
  "Ġwallets": 25487,
  "Ġfac": 1603,
  "Ġbelt": 11139,
  "Ġoutput": 6185,
  "Ġlate": 2343,
  "ĠWe": 726,
  "ĠCenters": 20492,
  "ulars": 28784,
  "Ġfacility": 6353,
  "Ġ2006": 4363,
  "ĠStrat": 23498,
  "Ġtro": 3432,
  "Ġnewspaper": 5878,
  "Ġshutting": 20636,
  "Ġneglect": 17548,
  "Cont": 5786,
  "elin": 24547,
  "Ġ108": 22757,
  "Ġexempt": 19671,
  "ĠSn": 7850,
  "Ġintricate": 25981,
  "ĠPrest": 21751,
  "ACP": 27533,
  "ĠMeeting": 25703,
  "Ch": 2175,
  "Ġendanger": 29344,
  "onial": 24111,
  "Ġpoor": 3304,
  "urations": 24573,
  "istry": 4096,
  "ĠAlfred": 19269,
  "Ġk": 441,
  "Â»": 17032,
  "Ġadults": 6337,
  "resents": 5890,
  "ller": 5556,
  "ares": 3666,
  "Ġundergone": 26526,
  "Ġincome": 3702,
  "Across": 31878,
  "Ġcrater": 27978,
  "Ġten": 3465,
  "Ġsidelined": 29991,
  "Ġfooting": 27504,
  "ĠLondon": 3188,
  "essed": 7373,
  "Ġcorner": 4947,
  "Ġstainless": 31244,
  "system": 15288,
  "ĠKang": 27510,
  "Ġstages": 8919,
  "Ġavoidance": 28168,
  "Ġarts": 10071,
  "ĠIsraelis": 15676,
  "Ġformidable": 22437,
  "Ġcelebrate": 9315,
  "Ġanten": 18473,
  "Ġdictator": 20776,
  "Ġbikes": 14377,
  "Ġerr": 20992,
  "Ġgoddess": 25743,
  "necess": 10126,
  "izabeth": 9159,
  "Ġfolded": 24476,
  "asive": 16013,
  "ĠâĻ": 31208,
  "Bern": 19596,
  "uced": 13753,
  "Ġentirety": 19668,
  "Ġcreature": 10368,
  "Ġcontro": 1217,
  "Path": 22108,
  "li": 906,
  "Ġchatting": 28725,
  "Ġevery": 738,
  "Ġdawn": 16884,
  "users": 20155,
  "Second": 12179,
  "Ġsite": 2406,
  "ĠShane": 20670,
  "ĠHansen": 22551,
  "ĠPlaza": 20616,
  "ĠAlexandria": 26374,
  "Ġna": 9764,
  "ĠESPN": 8232,
  "Econom": 23579,
  "Ġleave": 2636,
  "Ġclicks": 24681,
  "ĠMathem": 28661,
  "ĠSant": 5463,
  "ĠKickstarter": 12058,
  "isan": 7225,
  "ably": 1251,
  "Ġsets": 5764,
  "Ġdynamically": 30956,
  "oki": 30537,
  "Ġreferend": 8660,
  "ĠDetails": 20635,
  "anne": 15614,
  "ĠOfficial": 18978,
  "Ġmanned": 28851,
  "iates": 30210,
  "Ġlyrics": 13546,
  "uit": 3112,
  "ĠGian": 24580,
  "×ķ": 31615,
  "Ġreiter": 15244,
  "Ġspread": 3824,
  "Ġlogos": 28163,
  "uss": 953,
  "Ġnest": 15785,
  "Ġbiggest": 3206,
  "ĠMorris": 12278,
  "Within": 19347,
  "ĠWins": 25633,
  "ĠDel": 4270,
  "Ġsingular": 19246,
  "Ġtall": 7386,
  "ĠAbb": 8970,
  "Ġshock": 7802,
  "Â©": 15906,
  "ĠTheir": 5054,
  "ĠAce": 22369,
  "Ġtitles": 7467,
  "ĠMother": 11212,
  "Ġunnecess": 10935,
  "squ": 15908,
  "Ġinvaded": 23041,
  "Ġgranting": 21215,
  "ĠDallas": 7286,
  "Ġpenalties": 12234,
  "uch": 737,
  "urry": 16356,
  "afa": 25973,
  "Ġbout": 15538,
  "vironments": 11309,
  "Ġprohibiting": 27901,
  "ultane": 9122,
  "Ġaccounted": 16700,
  "Ġprover": 29371,
  "Ġweight": 4055,
  "isconsin": 7370,
  "Ġinteractions": 11508,
  "Ġagreed": 4238,
  "Ġstat": 2220,
  "ĠTypically": 28268,
  "Mr": 4377,
  "weather": 20219,
  "35": 3617,
  "thening": 18866,
  "Ġchick": 16854,
  "ĠAch": 24493,
  "riving": 13686,
  "Ġneed": 718,
  "Stack": 27996,
  "Ġjustice": 4690,
  "Ġaesthetic": 17355,
  "uters": 5059,
  "Ġpreservation": 20772,
  "Ġ1922": 30267,
  "uits": 8726,
  "Ġcitations": 31555,
  "Ġregulated": 15800,
  "Ġbacker": 31193,
  "Ġepidem": 25444,
  "Luck": 29630,
  "Ġincon": 15304,
  "ĠRecovery": 27311,
  "Ġacceleration": 20821,
  "ĠApart": 21204,
  "Ġrhetorical": 30222,
  "Ġcollisions": 28324,
  "Ġprinting": 12416,
  "communication": 31769,
  "ï": 170,
  "Ġoffic": 947,
  "Ġdetermining": 14932,
  "uristic": 22811,
  "Ġimpressive": 6825,
  "Ġwedding": 10310,
  "Ġillustrates": 20040,
  "Ġcloud": 5778,
  "Ġshows": 2298,
  "Ġeliminating": 16124,
  "ĠYears": 14626,
  "plane": 15015,
  "pen": 4039,
  "lickr": 15008,
  "Ġtaxpayer": 13258,
  "Ġredemption": 28315,
  "Ġpersonnel": 7517,
  "Ġtotally": 6218,
  "Ġdevelop": 1073,
  "President": 8032,
  "Ġembraced": 14751,
  "Creat": 29103,
  "profits": 25381,
  "Ġfict": 13670,
  "ĠKub": 22059,
  "pherd": 22174,
  "right": 2308,
  "ynchronous": 29716,
  "Apple": 14480,
  "Ġinvaluable": 27631,
  "Ġcontributions": 8698,
  "Ġnoodles": 31584,
  "mt": 22409,
  "Ġexpect": 1382,
  "Ġsevere": 5773,
  "hire": 10576,
  "ĠColeman": 18885,
  "Ġdecreased": 13073,
  "ĠBack": 5986,
  "Ġlenses": 18804,
  "Ġscholar": 16909,
  "Ġmisled": 31910,
  "Ġmotivation": 12300,
  "ĠMT": 23932,
  "53": 7995,
  "ave": 992,
  "Ġfunctions": 6250,
  "ĠHicks": 26075,
  "Ġ08": 17115,
  "Ġowes": 25295,
  "Ġtelev": 16710,
  "itant": 22876,
  "Ġloan": 7257,
  "control": 15062,
  "Ġdetermination": 13605,
  "Ġeveryday": 10029,
  "Ġexceptional": 14559,
  "Ġscrapped": 27354,
  "Ġ126": 29121,
  "Ġinfections": 15989,
  "positive": 25078,
  "Ġunre": 11103,
  "Ġdisappoint": 5741,
  "ĠBesides": 16863,
  "Ġmodifications": 20781,
  "Ġburial": 21416,
  "Ð½Ð¸": 24880,
  "iary": 12601,
  "aments": 11046,
  "ĠJos": 18873,
  "ĠGreeks": 22868,
  "Ġkilomet": 9519,
  "AF": 9923,
  "Ġtasting": 25320,
  "Ġrelentless": 20685,
  "Ġoccasions": 11347,
  "Ġminister": 4000,
  "Ġmarvel": 21785,
  "Anna": 27020,
  "Ġscaled": 24257,
  "Ġgrab": 6316,
  "Ġchecking": 10811,
  "ĠRain": 12364,
  "Ġwander": 27405,
  "âĢĶâĢĶâĢĶâĢĶâĢĶâĢĶâĢĶâĢĶâĢĶâĢĶâĢĶâĢĶâĢĶâĢĶâĢĶâĢĶ": 31462,
  "Ġachieving": 15043,
  "Ġincub": 22858,
  "Hub": 15311,
  "ĠGret": 29653,
  "oit": 21478,
  "ĠGOOD": 16773,
  "Ġdisclose": 14306,
  "ĠBob": 6291,
  "ĠEDT": 28417,
  "de": 3058,
  "Ġ2015": 1841,
  "Ġbitch": 24602,
  "Ġbounced": 27063,
  "Ġunequ": 18896,
  "ĠHerbert": 24566,
  "Ġangry": 7301,
  "ructure": 2873,
  "ATA": 21117,
  "natural": 11852,
  "even": 9725,
  "published": 27281,
  "Ġconsiderable": 10627,
  "irgin": 4423,
  "ĠLebanon": 13624,
  "ml": 6426,
  "Er": 14997,
  "angerous": 22384,
  "Ġexposing": 18345,
  "reams": 7524,
  "ĠEnt": 11718,
  "Ġchasing": 17632,
  "Ġmobility": 15144,
  "Ġromance": 19336,
  "Ġretain": 7108,
  "Ġdistances": 18511,
  "ĠGotham": 26610,
  "ĠKeynes": 24841,
  "ĠFrequ": 29335,
  "ĠNormal": 25664,
  "Ġcleared": 11542,
  "oba": 17608,
  "Ġspree": 30486,
  "ĠAlternative": 25817,
  "Ġapplauded": 29583,
  "Ġlabour": 10269,
  "ont": 791,
  "Ġbroadcast": 5757,
  "Ġtelevision": 4241,
  "Ġubiquitous": 22163,
  "Ġpartic": 1260,
  "Ho": 27560,
  "upload": 29955,
  "ĠDestroy": 30230,
  "udge": 12565,
  "Gar": 24792,
  "nerg": 30275,
  "Ġadvisors": 27852,
  "ĠFri": 22631,
  "Ġextremes": 27525,
  "Ġprototype": 12427,
  "ĠGroup": 4797,
  "Ġopin": 3481,
  "join": 28872,
  "ĠYemen": 9699,
  "Ġcomplaining": 16180,
  "called": 5904,
  "cester": 28794,
  "esville": 17207,
  "Ġbir": 27837,
  "robe": 27372,
  "Ġloving": 14121,
  "ĠHebrew": 18228,
  "Ġstolen": 8895,
  "Ġindependently": 13902,
  "Ġsit": 1333,
  "ONE": 16848,
  "Ġinterface": 7811,
  "Ġengineered": 20419,
  "ocaust": 13914,
  "Ġcros": 22096,
  "ĠScouts": 26323,
  "ĠPay": 7832,
  "ĠKatie": 22541,
  "forcement": 12988,
  "Ġsuggests": 4944,
  "Ġaugmented": 26516,
  "ĠFAA": 24616,
  "Ġreach": 2956,
  "ĠLucas": 13254,
  "Ġsignature": 9972,
  "match": 20631,
  "Ġforced": 3609,
  "ĠBilly": 14621,
  "icans": 19230,
  "Ġsuc": 6076,
  "Ġenergetic": 23860,
  "atility": 17174,
  "Ġir": 4031,
  "Ġneeds": 2292,
  "ĠLoad": 14142,
  "ĠÐ½": 15516,
  "ĠPav": 22860,
  "Ġsupreme": 16878,
  "Ġairline": 14085,
  "),âĢĿ": 30380,
  "usch": 24034,
  "Adding": 29966,
  "Ġpatience": 15434,
  "agonal": 27586,
  "Ġoutrage": 9392,
  "ih": 4398,
  "Ġboards": 11192,
  "Ġmuch": 810,
  "Ġsidel": 26789,
  "Ġfabricated": 28326,
  "Ġsie": 13976,
  "ANT": 15002,
  "bridge": 8996,
  "naire": 26958,
  "ĠQueens": 11121,
  "Ġknock": 10302,
  "Ġbaseline": 15797,
  "pad": 18241,
  "NC": 6454,
  "Ġevil": 6961,
  "ailed": 9452,
  "Ġgenerals": 22890,
  "Ġprofound": 10617,
  "ĠONE": 20388,
  "rights": 21313,
  "Ġaccepted": 6098,
  "ato": 5661,
  "2018": 20465,
  "ĠRobert": 4658,
  "ĠMt": 19069,
  "itness": 3964,
  "Ġanalysts": 10152,
  "Ġincorporate": 17606,
  "ĠLicense": 23248,
  "ĠUnity": 16743,
  "lah": 8509,
  "ln": 21535,
  "KE": 10712,
  "Ġshirt": 10335,
  "Ġdead": 2520,
  "Your": 8863,
  "Ġmeddling": 27318,
  "ĠVol": 6181,
  "Ġsquares": 24112,
  "40": 2800,
  "Ġtrail": 5223,
  "ĠEugene": 22177,
  "ails": 1874,
  "Win": 20890,
  "Ġinvestigators": 8531,
  "Ġcompuls": 21425,
  "Ġmode": 5513,
  "imated": 15544,
  "emit": 11809,
  "Ġdistinctly": 29047,
  "rites": 27391,
  "ĠGent": 22760,
  "Ġtwist": 13625,
  "ĠVery": 12797,
  "ĠSail": 29135,
  "rent": 1111,
  "ĠToy": 11822,
  "According": 3742,
  "ĠFund": 7921,
  "Ġspecifically": 5345,
  "ĠBolton": 28639,
  "ĠâĨĴ": 20646,
  "Ġteachings": 19405,
  "Ġ01": 13015,
  "hed": 665,
  "ĠÑĩ": 31006,
  "ients": 2506,
  "Ġshowed": 3282,
  "Es": 18182,
  "rior": 9958,
  "Ġresumed": 24321,
  "city": 20812,
  "Ġthing": 1394,
  "Ġvivid": 19740,
  "Ġanalysis": 3627,
  "BC": 2277,
  "ING": 3935,
  "ĠCamb": 18271,
  "Ġflu": 6800,
  "OPA": 31829,
  "Ġcertified": 17484,
  "Ġcowork": 28501,
  "Â´": 26387,
  "Ġathleticism": 28582,
  "Ġadversaries": 29036,
  "ĠCanada": 2929,
  "ĠAND": 8272,
  "Ġphysics": 10714,
  "Ġactual": 4033,
  "ĠLearn": 18070,
  "ĠInstall": 25005,
  "ĠAnnie": 27049,
  "zene": 27836,
  "165": 28749,
  "ĠJu": 13036,
  "Ġtestimony": 9115,
  "ĠRS": 21562,
  "letes": 30506,
  "Ġdiscussing": 9820,
  "Ġsimpler": 16549,
  "ĠDani": 20164,
  "Ġgeop": 22830,
  "ĠPv": 21209,
  "ad": 281,
  "Ġwond": 3056,
  "ĠSyrian": 5129,
  "ãĤĤ": 30629,
  "lift": 28130,
  "Ġyearly": 23189,
  "Ġgruesome": 29587,
  "Ġtan": 24259,
  "ovich": 15754,
  "Ġrefine": 28983,
  "Ġincompetent": 28956,
  "Ġnerv": 8683,
  "Ġpeaceful": 10478,
  "Ġrash": 28946,
  "ĠBass": 21122,
  "western": 12382,
  "ĠHoney": 23175,
  "Ġaided": 24284,
  "Ġundere": 16005,
  "istance": 11140,
  "Ġjury": 8285,
  "ĠScots": 26274,
  "ĠBy": 2757,
  "Ġrelate": 14635,
  "Ġpeanut": 25493,
  "Ġaccept": 2409,
  "Ġgallery": 14388,
  "Robert": 16807,
  "ress": 551,
  "ĠMillenn": 19806,
  "abouts": 25510,
  "Ġphotographed": 21657,
  "ĠItem": 30105,
  "ĠEnterprise": 15629,
  "Ġstealth": 19641,
  "Ġusually": 3368,
  "rendered": 23317,
  "Ġbomber": 19928,
  "ĠCivil": 7317,
  "det": 18996,
  "amera": 18524,
  "ĠBren": 17306,
  "ĠLoren": 25138,
  "Ġassistance": 7377,
  "Ġsubsidiary": 20626,
  "Ġsubstitute": 15487,
  "tesque": 31641,
  "alone": 17715,
  "Ġhandling": 8692,
  "ĠThor": 13250,
  "ĠColin": 16214,
  "Ġkeyboard": 10571,
  "ambling": 11358,
  "icky": 19878,
  "Ġborrowing": 18843,
  "Ġbliss": 30557,
  "urable": 13409,
  "ĠPennsylvania": 8255,
  "Ġreflects": 11307,
  "Ġecological": 20523,
  "($": 21021,
  "Ġcried": 19235,
  "vo": 11290,
  "ĠStudents": 16139,
  "Ġseek": 3125,
  "ĠKol": 24035,
  "Ġpictures": 5842,
  "ĠBas": 7231,
  "pically": 18149,
  "Ġastronauts": 20563,
  "ĠHome": 6527,
  "ĠLocation": 26398,
  "Ġjokes": 12618,
  "|": 92,
  "39": 4762,
  "Ġversus": 8352,
  "Ġf": 234,
  "ĠStone": 8315,
  "idents": 3007,
  "ĠHeavy": 18700,
  "eye": 27225,
  "Ġmural": 31719,
  "len": 13212,
  "Ap": 26999,
  "Shell": 29122,
  "Ġqualifier": 31764,
  "iox": 11465,
  "Ġincentives": 13515,
  "Ġparody": 24886,
  "ĠCE": 21563,
  "Ġinequality": 10162,
  "Ġprosperous": 27959,
  "ĠSaw": 20647,
  "school": 13016,
  "record": 20416,
  "utions": 3227,
  "Ġresearch": 2063,
  "aic": 23164,
  "Ġchap": 12621,
  "Ġcelebrities": 17029,
  "Ġoverview": 17865,
  "Ġliqu": 6681,
  "ĠTy": 4687,
  "ĠAIDS": 18740,
  "Ġemphasizes": 28066,
  "ĠTar": 13447,
  "Ġrays": 24746,
  "Ġdeclarations": 31784,
  "iona": 31633,
  "Ġmercy": 19691,
  "round": 696,
  "ĠBelfast": 22845,
  "Ġoverse": 7530,
  "Ġprops": 24735,
  "scenes": 24908,
  "ĠGut": 22641,
  "ĠMoines": 28298,
  "ĠTower": 10898,
  "ĠAlexander": 9128,
  "Ġlabel": 5998,
  "Ġjournal": 3182,
  "Ġmemorable": 15539,
  "Ġpray": 15296,
  "Ġsack": 20663,
  "Ġinsignificant": 30561,
  "ĠCer": 21603,
  "Ġnonsense": 16064,
  "Ġreside": 26218,
  "Port": 15883,
  "osta": 31266,
  "Ġgoogle": 28698,
  "ĠArmen": 13799,
  "Bay": 14286,
  "Louis": 27285,
  "Ġprecaution": 29495,
  "Ġantit": 22233,
  "Ġgren": 18012,
  "Ġimmoral": 27197,
  "Ġh": 245,
  "ampionship": 4547,
  "Ġeducate": 17582,
  "Ġflaw": 7955,
  "gg": 967,
  "Ġpornography": 16539,
  "Ġfiction": 8337,
  "Ġchore": 25128,
  "Ġoccupy": 19766,
  "Ġco": 640,
  "Ġcorruption": 7639,
  "Ġlingu": 18715,
  "Ġbroadband": 14017,
  "Ġimplicitly": 29729,
  "Hundreds": 28358,
  "Ġ|": 2026,
  "Ġtriggering": 24018,
  "ĠWilliamson": 28769,
  "Ġlongest": 12231,
  "ĠNic": 8047,
  "strap": 27176,
  "AGE": 27231,
  "Ġ280": 27154,
  "Ġskeleton": 22961,
  "Ġtrio": 16566,
  "ĠSpeaker": 12066,
  "Ġconfirmed": 4152,
  "Ġtalents": 16632,
  "Ġauthenticity": 22886,
  "appropriate": 12029,
  "Advertising": 25436,
  "Ġguilt": 14710,
  "Ġshr": 9407,
  "Ġaccounting": 13677,
  "ĠWho": 5475,
  "ĠKn": 7037,
  "Ġthings": 1152,
  "imet": 26786,
  "ĠNath": 30375,
  "Ġ1946": 22919,
  "Ġduo": 15156,
  "Ġtraced": 20740,
  "Ġemulate": 28688,
  "ource": 3601,
  "idepress": 26054,
  "oty": 5380,
  "Ġrevelation": 15231,
  "Ġbesie": 30532,
  "ĠSM": 13147,
  "ĠJudicial": 27002,
  "Ġrot": 5947,
  "Ã§": 10535,
  "controlled": 12605,
  "Ġconceal": 22452,
  "istine": 28748,
  "man": 714,
  "flight": 19916,
  "Ġshakes": 30749,
  "Gen": 16091,
  "Ġmanufacture": 6207,
  "Ġoptimal": 17649,
  "Ġderived": 12110,
  "Ġsupporter": 12020,
  "Central": 28869,
  "Ġsyll": 27156,
  "Ġlocate": 17785,
  "Ġkeen": 11211,
  "ĠCort": 24819,
  "ouched": 27797,
  "###": 30889,
  "Ġ12": 1465,
  "95": 5487,
  "Ġadvis": 7538,
  "friend": 6530,
  "uts": 5607,
  "ĠGreenpeace": 30109,
  "Ġdetector": 28282,
  "ĠFallout": 29183,
  "ce": 303,
  "Ġconnectivity": 17256,
  "ĠSinclair": 28690,
  "inn": 3732,
  "ĠThom": 19317,
  "Ð¾": 4105,
  "Ġtin": 21527,
  "Ġfuss": 28770,
  "Ġrecommending": 29864,
  "shirt": 14220,
  "pert": 16269,
  "orate": 11359,
  "Ġmeaning": 3528,
  "don": 9154,
  "¸": 117,
  "Ġratified": 31303,
  "Ġoperation": 4789,
  "Ġsignals": 10018,
  "Ġpenalty": 7355,
  "Ġavoid": 3408,
  "Ġpracticed": 18062,
  "ige": 11287,
  "ĠNC": 8084,
  "ĠDOJ": 20275,
  "ĠGoal": 26137,
  "Ġcause": 2939,
  "Ġgirlfriend": 10399,
  "ĠChange": 10771,
  "NPR": 28897,
  "ĠAur": 18733,
  "ĠBillboard": 23308,
  "Ġpasser": 23211,
  "ĠSacramento": 16122,
  "Ġpledges": 24685,
  "Ġhp": 30829,
  "grav": 15879,
  "pring": 13689,
  "ophobic": 18655,
  "ĠLie": 12394,
  "pill": 29362,
  "Ġlb": 20892,
  "Ġmalicious": 15738,
  "uscript": 15876,
  "bons": 21939,
  "Ġimpartial": 29195,
  "ĠFla": 18300,
  "Ġoptional": 16089,
  "lier": 2079,
  "scope": 31771,
  "ras": 7097,
  "Ġaccompan": 10282,
  "Ġdemocracy": 6197,
  "Ġsituations": 7256,
  "Ġsomebody": 7111,
  "wait": 17288,
  "Ġinhab": 11390,
  "rison": 6595,
  "ochond": 23378,
  "mut": 19506,
  "ĠTe": 1752,
  "160": 18261,
  "ieties": 8881,
  "ships": 24709,
  "Ġportable": 17756,
  "Ġprofessionally": 24810,
  "X": 56,
  "Ġ1940": 13949,
  "Ġcoh": 18966,
  "ĠdÃ©": 23118,
  "late": 21758,
  "produ": 15198,
  "anic": 25494,
  "Mar": 7743,
  "ission": 1456,
  "ĠEagle": 18072,
  "Ġchromos": 24529,
  "arro": 29023,
  "Ġdeadline": 10131,
  "non": 11175,
  "Ġeconomics": 10022,
  "olphins": 13788,
  "Ġestablish": 4709,
  "Ġstronger": 7073,
  "Democratic": 25435,
  "Ġcooperation": 9465,
  "Ġbutt": 9303,
  "Ġshortages": 22448,
  "Ġintimidated": 30078,
  "side": 1470,
  "ĠAmy": 14380,
  "ĠSix": 9680,
  "Ġsnap": 14693,
  "Ġanonymity": 14668,
  "lich": 22017,
  "reeze": 22588,
  "metal": 31722,
  "Ġdisconnected": 28905,
  "selves": 1848,
  "Ġshortfall": 31753,
  "Ġinvention": 17843,
  "ĠPerson": 9487,
  "Ġstep": 2143,
  "Ġtraffic": 4526,
  "ĠPatricia": 28106,
  "fired": 21036,
  "ĠAad": 28483,
  "message": 28520,
  "Ġnavigating": 30800,
  "Ġlawyers": 7495,
  "ĠF": 359,
  "Ġbelief": 4393,
  "Ġdeadliest": 31553,
  "eking": 18334,
  "mes": 6247,
  "Ġapocalypse": 31281,
  "Ġgradually": 11876,
  "dc": 28534,
  "ĠEll": 6566,
  "Ġcontributing": 12270,
  "icle": 1588,
  "Ġconsistently": 8624,
  "chedel": 20007,
  "ĠGarc": 13662,
  "Comm": 10065,
  "ubs": 21732,
  "Ġhumor": 12929,
  "Ġdeliber": 7911,
  "ĠDiamond": 15776,
  "lude": 13611,
  "Ġvisualization": 29871,
  "rug": 1928,
  "Ġyou": 317,
  "ĠOK": 8024,
  "ĠCurt": 16868,
  "ĠAntonio": 10321,
  "Ġdad": 8853,
  "ĠUkraine": 6037,
  "ĠMars": 7588,
  "Ġflower": 16592,
  "hetically": 28662,
  "card": 10871,
  "Ġapologized": 18702,
  "olk": 12919,
  "Ġhood": 14281,
  "ĠIndigenous": 18959,
  "Ø§Ø": 24968,
  "ld": 291,
  "Ġfunnel": 24454,
  "ĠBra": 9283,
  "Ġremain": 3217,
  "hma": 23567,
  "ĠQueensland": 15967,
  "Ġsurrounding": 6698,
  "ļ": 205,
  "Ġentities": 12257,
  "forth": 24646,
  "Ġresembles": 21373,
  "Ġexample": 1666,
  "âĢ¦]": 21510,
  "ĠPatri": 8770,
  "ĠEthiop": 19192,
  "ÙĦ": 12142,
  "Ġfart": 15033,
  "inyl": 19638,
  "Ġ170": 20214,
  "Ġscreenshot": 20565,
  "Ġprofoundly": 22855,
  "Ġproliferation": 22723,
  "ĠBlackhawks": 28289,
  "ulent": 13794,
  "Ġjam": 15961,
  "Ġcontentious": 20610,
  "ĠBenn": 12060,
  "Putin": 28763,
  "ĠLav": 18748,
  "ĠProvidence": 25594,
  "Ġunderstandable": 18665,
  "ĠRoyal": 7842,
  "ĠWatson": 12126,
  "ĠKB": 29190,
  "Ġbegun": 8089,
  "ĠUpgrade": 26993,
  "Ġsolemn": 31944,
  "Ġtwentieth": 25892,
  "writing": 14218,
  "ĠGlen": 18858,
  "Ġmag": 2331,
  "Ġripped": 17413,
  "ĠClaire": 22282,
  "Ġcollaboration": 10154,
  "etition": 16146,
  "Ġthroughout": 3407,
  "Ġaspect": 4612,
  "Ġphysicians": 17491,
  "ala": 6007,
  "bour": 4765,
  ">>": 5570,
  "ĠKennedy": 8634,
  "ĠSheriff": 10722,
  "epernick": 22646,
  "ula": 4781,
  "rolet": 27115,
  "Ġwasted": 16801,
  "ugh": 6638,
  "Ġbouncing": 29343,
  "Pinterest": 28107,
  "ĠCharg": 14647,
  "ĠCrist": 20704,
  "ĠFernand": 21292,
  "agonist": 15241,
  "Ġvendors": 14803,
  "ĠLGBT": 7581,
  "Ġlever": 16876,
  "ĠWeb": 5039,
  "Ġshame": 9297,
  "ĠCON": 10766,
  "aint": 3602,
  "Ġdrugs": 4511,
  "Ġinsect": 13003,
  "ĠAuburn": 20094,
  "Ġhelpful": 8926,
  "Ġunprecedented": 10147,
  "antine": 17562,
  "ĠVatican": 15535,
  "um": 360,
  "sequ": 2991,
  "Ġimmedi": 2682,
  "ĠHuffington": 18017,
  "Ġtweeted": 8444,
  "ĠKhan": 10327,
  "ĠPist": 20137,
  "Ġtying": 24884,
  "Ġimage": 3019,
  "mission": 3943,
  "Ġpersonal": 2503,
  "ĠActiv": 16361,
  "Australian": 30509,
  "Ġfulfill": 14308,
  "Ġremoval": 10062,
  "Ġpopul": 12335,
  "Th": 756,
  "ĠYard": 26997,
  "Ġmidterm": 31079,
  "Ġhast": 29802,
  "ĠHom": 7666,
  "Ġexperiments": 9211,
  "ĠAustralians": 18585,
  "Information": 27846,
  "ĠState": 1755,
  "ags": 4189,
  "erald": 11242,
  "Ġseriously": 5610,
  "Laughs": 27772,
  "ĠOffice": 4239,
  "Ġavenues": 27256,
  "erem": 29523,
  "aith": 3921,
  "ĠLooking": 16745,
  "Ġfought": 7634,
  "pective": 4736,
  "Ġcul": 9229,
  "Ġsqu": 2730,
  "Ġoperators": 11445,
  "ĠClaim": 26017,
  "ĠShawn": 22201,
  "Ġintegrating": 26287,
  "Ġmobile": 4439,
  "Fund": 22343,
  "Ġball": 2301,
  "assis": 21386,
  "ĠMaria": 13210,
  "Ġeven": 720,
  "Ġsporting": 14879,
  "Ġhomeowners": 19161,
  "oli": 10098,
  "Ġgradual": 22566,
  "arrison": 21461,
  "ĠScreen": 17916,
  "ĠBerg": 18496,
  "Ġcustomization": 30901,
  "vie": 24584,
  "iac": 9795,
  "arth": 3038,
  "ĠSharma": 31422,
  "doc": 21035,
  "Ġbacteria": 10880,
  "ĠWhitney": 29718,
  "Ġwindows": 9405,
  "Ġsingled": 26190,
  "panz": 29178,
  "ĠForrest": 30017,
  "ĠRegist": 24008,
  "Ġstopped": 4800,
  "Ġurge": 12999,
  "ĠRookie": 29703,
  "Id": 11616,
  "doing": 16062,
  "Ġparticles": 12206,
  "elf": 8144,
  "ĠMae": 27891,
  "ĠJackson": 5689,
  "ĠFrancis": 4242,
  "Ġiconic": 11551,
  "claimed": 13347,
  "Ġtentative": 31170,
  "Ġlot": 1103,
  "ĠRoc": 12296,
  "Ġwealthy": 9351,
  "Ġpit": 5013,
  "ĠBert": 21132,
  "pection": 16574,
  "Ġadmitted": 5888,
  "Ġassumes": 18794,
  "ĠMoreover": 11085,
  "Ġear": 1319,
  "Ġwom": 1046,
  "Ġreviewing": 15190,
  "Ġlimiting": 14184,
  "Ġprosecute": 20822,
  "Since": 5503,
  "innamon": 24611,
  "Ġadequately": 21059,
  "Node": 29458,
  "Ġvacuum": 16170,
  "irable": 13203,
  "uddled": 28539,
  "Ġblunt": 17268,
  "ĠIns": 6875,
  "Ġneoliberal": 24214,
  "Ġfeelings": 7668,
  "minster": 16009,
  "ĠStewart": 10931,
  "Off": 7394,
  "Ġbrackets": 30477,
  "rod": 16307,
  "Ġsalmon": 23075,
  "Ġconvert": 10524,
  "ucked": 17034,
  "ady": 4538,
  "ĠSER": 28572,
  "ĠBrighton": 28511,
  "Ġobjects": 6020,
  "ĠHappy": 18142,
  "Ġdownt": 6439,
  "ĠWars": 6696,
  "istics": 4434,
  "ĠVoters": 28353,
  "EO": 3924,
  "Ġonslaught": 30357,
  "Ġdisappears": 29558,
  "ĠChristians": 8040,
  "ĠIntel": 10038,
  "thus": 31536,
  "ĠHalifax": 27627,
  "Ġprin": 5903,
  "Ġslave": 13072,
  "Ġstay": 2466,
  "ĠAnalytics": 28388,
  "Pat": 11818,
  "ĠDEC": 29128,
  "Tuesday": 24863,
  "Ġapplicant": 26592,
  "Ġhaving": 1627,
  "ĠRelease": 18408,
  "Ġtum": 11610,
  "Ġministers": 10655,
  "fix": 17214,
  "ĠOcean": 10303,
  "ikhail": 31990,
  "Ġcharter": 15163,
  "When": 2035,
  "Ġslash": 23611,
  "watch": 9885,
  "ĠWas": 9267,
  "Ġmargin": 9670,
  "Ġfor": 285,
  "Ġreasons": 3549,
  "ĠConnecticut": 13164,
  "ĠBrewing": 15675,
  "ĠGodd": 25606,
  "ĠBlind": 28173,
  "lege": 2424,
  "Ġdemos": 29324,
  "Ġwal": 6746,
  "ĠMarketing": 22871,
  "Ġparked": 17139,
  "OS": 3022,
  ",'": 5392,
  "antle": 15617,
  "Ġdas": 25187,
  "Ken": 20328,
  "ĠMIN": 27123,
  "ĠGHz": 28868,
  "Ġforming": 13945,
  "uous": 5803,
  "icism": 9426,
  "Ġauth": 5911,
  "ĠRw": 26850,
  "ament": 1817,
  "Ġcharacterize": 30276,
  "GA": 9431,
  "141": 30758,
  "ord": 534,
  "Ġeditor": 5906,
  "icated": 3402,
  "ĠHale": 31650,
  "uggets": 25621,
  "Ġcd": 31286,
  "Ġarchaeologists": 31871,
  "ios": 4435,
  "ĠPerformance": 17576,
  "Ġlawy": 4109,
  "Ġasc": 20076,
  "Ġfracture": 31757,
  "Russian": 13899,
  "Ġsigning": 6531,
  "pat": 8133,
  "ĠTexans": 16822,
  "ĠPa": 11392,
  "Ġrebuild": 15090,
  "Ġtent": 11197,
  "Ġgaze": 20983,
  "Ġbewild": 31904,
  "aning": 7902,
  "Ġfailure": 4973,
  "tail": 13117,
  "Ġ__": 19370,
  "Ġdeveloped": 3751,
  "cific": 8356,
  "ascist": 26996,
  "ifying": 3958,
  "Ġlooming": 21270,
  "inction": 8939,
  "Ġideal": 7081,
  "Ġexplicitly": 11045,
  "Ġvisa": 13507,
  "Ġtherapeutic": 22041,
  "Ġdefiant": 30192,
  "Ġcreativity": 13735,
  "ĠICC": 26152,
  "Ġstatutes": 28782,
  "Ġintolerance": 27219,
  "ĠMarvel": 8860,
  "Ġsynd": 11275,
  "Ġappet": 15979,
  "Ġclut": 29999,
  "Ġbig": 1074,
  "ãģ¾": 24556,
  "iatus": 29002,
  "Ġmisunderstanding": 27025,
  "Ġfleet": 10546,
  "Anti": 26414,
  "Ġthanks": 5006,
  "ĠRapid": 29176,
  "wn": 629,
  "ĠNeuro": 17155,
  "ĠCannabis": 25640,
  "Ġline": 1529,
  "ĠSemin": 31744,
  "Ġmeteor": 17152,
  "ĠTea": 12425,
  "SH": 15760,
  "iership": 29439,
  "economic": 15503,
  "Ġstaff": 2616,
  "Ġnor": 4577,
  "Ġpraise": 11943,
  "adi": 9745,
  "org": 3944,
  "download": 27720,
  "ĠTex": 3096,
  "Ġtested": 6795,
  "ĠOdd": 23715,
  "Ġweekday": 25059,
  "ĠAC": 8837,
  "toos": 25951,
  "Ġorig": 1758,
  "arl": 5939,
  "ĠFore": 4774,
  "video": 20891,
  "Ġdisag": 6861,
  "Ġcharismatic": 28757,
  "ILL": 11058,
  "Ġinfluential": 11112,
  "ĠMax": 6806,
  "SP": 4678,
  "Following": 11435,
  "rain": 2719,
  "Ġoutside": 2210,
  "law": 6175,
  "Ġfreeze": 15914,
  "192": 29018,
  "After": 2947,
  "Ġmetabol": 17476,
  "fight": 21161,
  "ĠDetective": 23657,
  "Tes": 31695,
  "Ġwithhold": 21650,
  "ĠHumans": 30327,
  "Ġsensation": 19065,
  "Ġdungeon": 26556,
  "rimination": 6997,
  "ī": 188,
  "Ġrallies": 16886,
  "Ġplanes": 11976,
  "oubtedly": 14477,
  "uren": 29406,
  "Ġpecul": 20204,
  "Ġprovide": 2227,
  "master": 12855,
  "Ġfreel": 16867,
  "Ġpitching": 15947,
  "ufficient": 14993,
  "Ġthreat": 1974,
  "eren": 16100,
  "Ġhabitats": 29326,
  "as": 248,
  "Ġouting": 26976,
  "aze": 6719,
  "ĠOver": 4508,
  "Ġfinancially": 15135,
  "Ġcontroversial": 6584,
  "ĠFilipino": 27607,
  "Ġintim": 9484,
  "Ġclose": 1819,
  "ĠHTML": 11753,
  "Ġforcibly": 27718,
  "Ġherbs": 27944,
  "Ġbench": 7069,
  "ĠTool": 22466,
  "ĠHist": 6349,
  "Ġrapper": 20777,
  "backed": 13052,
  "Ġconvinced": 8185,
  "kens": 15001,
  "ran": 2167,
  "rete": 7401,
  "ora": 6493,
  "Ġsuccessful": 3813,
  "ĠGalaxy": 9070,
  "cial": 2456,
  "ĠLegend": 15349,
  "Ġlegislature": 12954,
  "Ġsurveillance": 6689,
  "Ġamounted": 24871,
  "illas": 22442,
  "Ġreiterated": 20378,
  "choice": 22312,
  "Ġtuition": 16034,
  "Ġfarewell": 29848,
  "Ġceremonies": 23977,
  "eption": 22878,
  "][": 2960,
  "ĠPedro": 23079,
  "ĠNutrition": 29453,
  "ATE": 7755,
  "Ġyelled": 21358,
  "ë": 166,
  "ĠHospital": 8610,
  "Govern": 22534,
  "ĠWindsor": 26693,
  "ĠImagine": 16372,
  "Ġabolish": 29321,
  "irmed": 15692,
  "Ġempty": 7047,
  "ĠQuran": 27552,
  "band": 3676,
  "Ġver": 3439,
  "Ġ[+": 30180,
  "Ġreceiving": 6210,
  "ĠPhilippine": 23355,
  "Ġhandy": 15423,
  "Ġstatistical": 13217,
  "Ġconsulted": 23504,
  "Ġlargely": 4639,
  "itated": 13741,
  "Ġconnections": 8207,
  "Ġwasn": 2262,
  "Ġtract": 23486,
  "ĠFilms": 25327,
  "Ġdonor": 15827,
  "Ġfrenzy": 28071,
  "Need": 25331,
  "Ġpermissions": 27175,
  "ĠMac": 3915,
  "çĶ": 26310,
  "Ġenrollment": 20830,
  "nders": 26003,
  "Ġagreeing": 20411,
  "ape": 2131,
  "Ġsophisticated": 11723,
  "Ġshrine": 31105,
  "inement": 19684,
  "Ed": 7403,
  "Engine": 28581,
  "Ġsw": 1983,
  "2013": 10076,
  "Ġdepartment": 4424,
  "Ġgrandson": 26990,
  "Ġcheap": 6492,
  "ateful": 10874,
  "ĠMcGregor": 25179,
  "France": 23241,
  "ĠTort": 28968,
  "ĠFR": 12024,
  "ĠÂ«": 19549,
  "inch": 8669,
  "ocrats": 14899,
  "Ġdental": 23984,
  "ANS": 19312,
  "opal": 28832,
  "ky": 2670,
  "ELD": 29647,
  "ishops": 20077,
  "ĠComment": 20507,
  "nm": 26212,
  "Ġcoins": 11806,
  "Ġfollowers": 9616,
  "Ġbicy": 11477,
  "ĠHealth": 4174,
  "Ġexpansion": 6083,
  "etts": 7925,
  "Ġturtles": 30585,
  "ho": 8049,
  "Ġal": 381,
  "WN": 30923,
  "Ġmushrooms": 23593,
  "levard": 17993,
  "Ġextreme": 3141,
  "ĠNBA": 6179,
  "Ġsurviv": 9887,
  "anged": 5654,
  "Ġpushed": 6191,
  "ĠRandom": 24101,
  "Ġsitcom": 26031,
  "ĠFreedom": 8632,
  "personal": 21914,
  "ĠHut": 29363,
  "GHz": 25106,
  "Ġmenstru": 31586,
  "Ġansw": 2527,
  "Ġnaturally": 8857,
  "Ġelectric": 4355,
  "ĠSolutions": 23272,
  "ĠMor": 3297,
  "Ùĩ": 24717,
  "Ġtimet": 28976,
  "stract": 8203,
  "Sep": 14199,
  "Ġbalancing": 20350,
  "Ġguitars": 31198,
  "ode": 1294,
  "ĠAnth": 7532,
  "idi": 17529,
  "DR": 10921,
  "((": 30523,
  "Ġconclusion": 7343,
  ".'\"": 17121,
  "Ġweaken": 12149,
  "Ġattribut": 26813,
  "Ġaccuses": 28131,
  "tsky": 30705,
  "Ġsetup": 10026,
  "Light": 21740,
  "rop": 1618,
  "ĠDry": 29704,
  "ĠEverton": 19939,
  "Deb": 21006,
  "ĠIndustries": 22093,
  "Ġbrakes": 22693,
  "ose": 528,
  "Ġfails": 10749,
  "Ġfost": 20367,
  "ĠSchumer": 19320,
  "Ġemotional": 6421,
  "Ġskysc": 30721,
  "Ġboxes": 10445,
  "ovsky": 23517,
  "Ġverses": 25502,
  "iven": 1417,
  "Ġclosest": 10579,
  "Ġsergeant": 28338,
  "management": 23654,
  "Ġtotals": 23023,
  "Ġtrial": 4225,
  "Ġpersisted": 29166,
  "Ġtreated": 5605,
  "ĠTSA": 22953,
  "Ġupgraded": 17940,
  "Price": 21974,
  "Ġ2007": 3923,
  "Ġrecharge": 31242,
  "Ġstrains": 20314,
  "develop": 15604,
  "Ġcous": 12062,
  "Data": 12259,
  "bor": 2664,
  "Å¡": 13992,
  "was": 9274,
  "Ġbenign": 28643,
  "enne": 28040,
  "Mot": 28972,
  "Ġforces": 2944,
  "brance": 31184,
  "ĠTucson": 31016,
  "Ġreconsider": 23507,
  "Ġcould": 645,
  "ĠHistorical": 24332,
  "My": 3650,
  "Ġstats": 11041,
  "ĠParad": 19500,
  "ĠTen": 9531,
  "ADVERTISEMENT": 13413,
  "ĠVox": 29784,
  "ĠBitcoins": 28415,
  "roud": 5173,
  "oustic": 21439,
  "early": 10453,
  "Î¼": 28281,
  "ĠRiyadh": 29635,
  "critical": 23528,
  "ink": 627,
  "ibal": 18974,
  "Donnell": 18303,
  "Ġbland": 31646,
  "Ġillum": 24650,
  "ĠMark": 3151,
  "ĠJustin": 9208,
  "ilda": 28624,
  "Ġquint": 25579,
  "Ġceasefire": 21525,
  "atta": 23333,
  "ĠStates": 1676,
  "enders": 7041,
  "Ġidol": 21322,
  "orest": 20627,
  "avy": 2871,
  "Wat": 31823,
  "KR": 31688,
  "Ġscreened": 27575,
  "Ġclone": 21516,
  "bled": 19732,
  "Ġpurely": 12959,
  "Field": 26052,
  "ĠMMA": 14122,
  "anium": 13566,
  "hetical": 18323,
  "Ġmay": 767,
  "Ġbigot": 20028,
  "Ġspices": 29566,
  "Ġcollege": 3588,
  "Ġdistributed": 8783,
  "Ġvehicles": 5276,
  "Ġinternationally": 16370,
  "Ġsequences": 16584,
  "tering": 6393,
  "TR": 9945,
  "Ã©n": 24652,
  "ĠRanger": 24926,
  "Ġpuls": 22139,
  "ĠSafe": 21633,
  "Ġsatisfying": 17764,
  "uma": 8148,
  "nen": 27264,
  "Ġcaf": 17177,
  "ĠRochester": 23545,
  "Force": 19930,
  "Ġreconnaissance": 31673,
  "Ġclarified": 23664,
  "Ġunab": 31982,
  "Ġfitting": 15580,
  "ĠDian": 16659,
  "apes": 7233,
  "Ġprud": 24726,
  "unning": 7103,
  "uj": 11631,
  "Ġconsiders": 13284,
  "ĠMeyer": 20330,
  "Ġsimplify": 27289,
  "axis": 26817,
  "Ġunanim": 13964,
  "ĠPip": 22532,
  "ilipp": 7812,
  "ĠHa": 9049,
  "put": 2496,
  "Ġlevel": 1332,
  "ĠClose": 15376,
  "autions": 30605,
  "ĠBB": 13863,
  "|>âĢľ": 16575,
  "stein": 5123,
  "ĠTM": 20707,
  "Ġremoving": 10639,
  "inas": 21433,
  "Ġprice": 2703,
  "ĠKabul": 23979,
  "Ġrice": 12112,
  "Ġoperate": 7444,
  "ĠPatel": 27597,
  "ĠTed": 9272,
  "Ġgentleman": 24865,
  "op": 347,
  "Jan": 13416,
  "ivals": 8721,
  "ĠWrong": 28524,
  "Ġphen": 6174,
  "Ġtrait": 18832,
  "ĠKevin": 6810,
  "Ġdivisive": 22414,
  "ĠBiology": 27537,
  "Ġcour": 1019,
  "Ġmanipulating": 26611,
  "Fr": 6740,
  "ĠVers": 21567,
  "Ġhurry": 24326,
  "Ġneedle": 20865,
  "nn": 22491,
  "Ġproviding": 4757,
  "gate": 10415,
  "ÑĢ": 6550,
  "ĠChemical": 26967,
  "ĠDatabase": 30699,
  "ĠSwedish": 11868,
  "COMMENT": 30746,
  "ĠChild": 6748,
  "âĢ¢âĢ¢âĢ¢âĢ¢": 27132,
  "ĠHit": 7825,
  "osph": 16651,
  "Ġmailing": 23225,
  "Matt": 16653,
  "Ġbanners": 27130,
  "ili": 2267,
  "elcome": 11923,
  "Ġcabin": 17082,
  "Ġprocessor": 12707,
  "Ġmaterial": 2768,
  "izing": 2709,
  "Initially": 31322,
  "iddles": 28361,
  "ĠKush": 18216,
  "Ġparadise": 29274,
  "Ġdisgust": 25018,
  "Ġlocations": 6845,
  "ĠAc": 4671,
  "Ġslavery": 12477,
  "Ġdeception": 24226,
  "ĠIvy": 27127,
  "ĠTimber": 28069,
  "ĠMafia": 31513,
  "Ġvarieties": 19325,
  "Ġlan": 27126,
  "Ġgo": 414,
  "Ġceased": 24228,
  "hea": 23821,
  "appointed": 26957,
  "NOT": 20138,
  "Ġboast": 24553,
  "Ġsuggestions": 11774,
  "Ġaddicts": 27828,
  "Ġlimbs": 22779,
  "Ġskinny": 28060,
  "Ġendorsement": 15250,
  "âĢĶ": 877,
  "Ġing": 6091,
  "ating": 762,
  "Ġcreat": 1807,
  "Ġwidth": 12955,
  "Ġradioactive": 20525,
  "imposed": 30354,
  "Ġfut": 11473,
  "sensitive": 28747,
  "Ġdisl": 26608,
  "reb": 22771,
  "otally": 25775,
  "Ġdent": 17394,
  "Ġdrown": 15347,
  "Ġdeveloper": 7100,
  "Ġsurn": 30287,
  "ĠPhase": 22595,
  "Ġextradition": 28633,
  "itional": 1876,
  "ir": 298,
  "ĠFiction": 28049,
  "ĠTown": 8256,
  "Ġstole": 16635,
  "Ġintermitt": 29741,
  "Ġdetection": 13812,
  "SM": 13637,
  "Ġdrought": 14280,
  "members": 31065,
  "ĠPitt": 23088,
  "asonable": 17663,
  "ĠHead": 8563,
  "Ġthirteen": 27682,
  "Hey": 10691,
  "ĠMaps": 19655,
  "rifice": 11190,
  "Ġamassed": 30167,
  "Ġriff": 30467,
  "Ġwebsites": 8093,
  "ĠJudy": 28230,
  "Ġprepared": 5329,
  "Travel": 31117,
  "ĠLinks": 24344,
  "Ġseeming": 28837,
  "ĠExtreme": 26753,
  "Ġsoph": 8327,
  "\":\"": 10265,
  "Ġfail": 1751,
  "Ġhighway": 12515,
  "ĠType": 11208,
  "ĠPain": 20669,
  "Ġdownloaded": 16024,
  ");": 2969,
  "Ġripping": 30803,
  "Ġrecipients": 18004,
  "Ġfaith": 4450,
  "CLOSE": 24278,
  "Ġafterwards": 13939,
  "oneliness": 31292,
  "ifies": 7689,
  "Ġthem": 561,
  "Ġfoods": 9892,
  "Ġdownturn": 24438,
  "Ġlabeled": 14549,
  "WS": 12205,
  "Ġalley": 22712,
  "Ġuniverse": 6659,
  "Ġdiscredited": 31993,
  "Ġtalked": 5631,
  "rub": 28967,
  "ĠAaron": 10708,
  "ĠCoff": 16809,
  "Ġgameplay": 10684,
  "ĠLouisiana": 11135,
  "Ġsenators": 11088,
  "Ġcrude": 12572,
  "ĠButler": 14996,
  "iders": 3878,
  "Ġcrus": 9859,
  "Ġmetab": 12998,
  "ET": 3753,
  "ĠOlympics": 11163,
  "ĠDud": 30090,
  "Ġsket": 12097,
  "ot": 270,
  "Ġbeard": 20207,
  "Ġmerged": 22031,
  "Ġtherap": 7447,
  "Ġdec": 680,
  "riv": 10830,
  "Inc": 19108,
  "Ġsadd": 16712,
  "ĠHill": 2787,
  "Ġlegitimacy": 17451,
  "Ġclashes": 16388,
  "ĠJournal": 5381,
  "Ġcasual": 8310,
  "Ġderivative": 30471,
  "ĠChoice": 21323,
  "Ġlod": 19173,
  "ĠFat": 14099,
  "Ġast": 5646,
  "fashion": 22287,
  "ĠMarin": 30181,
  "Ġpersuade": 17591,
  "fil": 13383,
  "Ġfragile": 17988,
  "Sorry": 21766,
  "Ġsheer": 13615,
  "Ġfeaturing": 8224,
  "ĠAdminist": 6955,
  "Ġfinals": 14537,
  "Ġintellig": 10370,
  "Ġunveiling": 30890,
  "ĠLen": 11963,
  "ĠBrit": 1981,
  "minded": 12327,
  "Ġanalyze": 15458,
  "ĠSamsung": 8806,
  "ĠSoviet": 6473,
  "Ġmissed": 6019,
  "ĠARM": 21442,
  "ĠRoute": 20583,
  "ea": 24382,
  "Ġdismissing": 31525,
  "Ġoutp": 25883,
  "will": 10049,
  "Ġsocietal": 22489,
  "Ġprotections": 12010,
  "Ġpleased": 10297,
  "Ġwhistleblower": 25722,
  "ĠUSDA": 26203,
  "Ġescal": 10059,
  "ĠTo": 1954,
  "owner": 17024,
  "ions": 462,
  "attered": 10685,
  "Ġbecom": 2671,
  "enh": 23170,
  "ĠFront": 9134,
  "ĠArnold": 18122,
  "Ġpublishers": 14205,
  "ction": 588,
  "104": 21429,
  "ansen": 29225,
  "ealous": 16341,
  "encer": 12026,
  "îĢ": 30860,
  "Ġguitarist": 24542,
  "Tra": 25646,
  "Ġcuriosity": 19143,
  "±": 110,
  "Ġgoes": 2756,
  "series": 24557,
  "Ġturbine": 30711,
  "riend": 1256,
  "ĠSouth": 2196,
  "Ġsche": 3607,
  "rev": 19185,
  "Ġrecycling": 21397,
  "ĠShanghai": 17566,
  "Ġsteel": 8651,
  "Ġpragmatic": 26089,
  "Ġenact": 10907,
  "Ġsurge": 11488,
  "Ġcandle": 27547,
  "Ġknowledge": 3843,
  "ĠRange": 19725,
  "Ø±": 19226,
  "Ġnic": 9723,
  "ĠWE": 17518,
  "Ġinjured": 5929,
  "ĠRay": 7604,
  "IES": 17952,
  "Ġreactive": 30826,
  "Ġturning": 5586,
  "Ġsudo": 27334,
  "ĠNearly": 19215,
  "Ġshe": 637,
  "Ġmankind": 19726,
  "ĠAdmir": 21595,
  "Do": 5383,
  "Ġoccurred": 5282,
  "Bel": 11238,
  "ĠEmb": 13214,
  "Ġ1929": 26539,
  "Ġhunter": 20611,
  "Ġsplits": 28933,
  "âĶ": 9385,
  "ĠCock": 30999,
  "Ġglob": 13562,
  "Ġbook": 1388,
  "Ġorganised": 15781,
  "Ġprepares": 23027,
  "Ġindepend": 3035,
  "js": 9643,
  "----": 1535,
  "ĠJr": 6742,
  "Ġclashed": 29033,
  "Ġveh": 2953,
  "CA": 7003,
  "lington": 14799,
  "Ġbum": 31188,
  "Ġcris": 3540,
  "ross": 1161,
  "ĠNULL": 30982,
  "ĠVariety": 31789,
  "Ġapplic": 2500,
  "ĠLiberia": 29826,
  "Us": 7819,
  "Ġcoolest": 31508,
  "activ": 18356,
  "uzzle": 26779,
  "Ġbarriers": 12823,
  "Ġuncom": 7801,
  "Ġprivileges": 19526,
  "cod": 21278,
  "Ġcompleting": 15017,
  "arm": 1825,
  "Ġantibiotics": 20086,
  "Ġot": 29048,
  "arly": 834,
  "ĠTalking": 30144,
  "Ġnamely": 14742,
  "Ġpredecessor": 15119,
  "exp": 14705,
  "Obs": 30057,
  "erence": 1891,
  "TH": 5369,
  "ĠNow": 2744,
  "Ġfuzz": 24245,
  "ĠBuzzFeed": 21266,
  "Ġsurviving": 16096,
  "Ġsmiles": 23185,
  "Ġaccomp": 7484,
  "ĠCath": 5327,
  "third": 15469,
  "Ġviruses": 20193,
  "justice": 28339,
  "ĠEmbassy": 19881,
  "neath": 13881,
  "ĠREUTERS": 13118,
  "Ġversions": 6400,
  "Ġpaused": 26926,
  "Ġdangers": 14252,
  "Ġfinest": 18597,
  "Ġmarry": 13860,
  "Ġaccumulate": 28647,
  "].": 5074,
  "Ġradio": 4474,
  "ĠAssad": 9914,
  "Ġverge": 22316,
  "Ġactions": 3682,
  "Ġdisdain": 26951,
  "ĠOption": 24104,
  "ĠTamil": 24915,
  "ãģª": 20280,
  "Ġsa": 400,
  "apers": 5203,
  "rients": 19477,
  "Ġmeasles": 28354,
  "Ġtsun": 21551,
  "istle": 10836,
  "Ġneg": 2244,
  "Ġresc": 6293,
  "Ġboycot": 28798,
  "Ġpoet": 11243,
  "Ġbright": 6231,
  "ĠLex": 17722,
  "ults": 12147,
  "Ġforemost": 18183,
  "Ġfal": 22344,
  "deen": 31869,
  "ĠAk": 9386,
  "Audio": 31849,
  "Ġfake": 7531,
  "ĠLight": 7217,
  "Ġrain": 6009,
  "oen": 7919,
  "ĠInitiative": 17339,
  "ĠHigh": 3870,
  "Ġanytime": 16655,
  "ĠZh": 13289,
  "GO": 8437,
  "Ġnearing": 30715,
  "Ġimproperly": 31093,
  "ag": 326,
  "Ġsings": 29911,
  "Att": 12587,
  "social": 16090,
  "Ġimpuls": 23382,
  "iao": 20129,
  "ĠHoff": 18450,
  "Ġtele": 5473,
  "fest": 22214,
  "Ġrulers": 22676,
  "ĠSolid": 19407,
  "Ġlucrative": 17652,
  "ilitation": 17766,
  "ĠContin": 7393,
  "ĠOrtiz": 28100,
  "ĠCarroll": 17467,
  "race": 17203,
  "Ġstreak": 13251,
  "Ġland": 1835,
  "Ġthereby": 12984,
  "ĠProject": 5681,
  "Ġsolo": 10915,
  "Ġwind": 2489,
  "leep": 10812,
  "Ġ1992": 9449,
  "Ġreminiscent": 20721,
  "ĠSem": 16160,
  "Acc": 21309,
  "Ġcompar": 4610,
  "Ġcombined": 5613,
  "iffany": 31992,
  "ĠWitch": 23166,
  "Quest": 17272,
  "Ġprescribed": 19231,
  "Ġlean": 11239,
  "orkshire": 25243,
  "Ġcarp": 27906,
  "Ġunilateral": 28947,
  "Oper": 19542,
  "ĠRalph": 18330,
  "dro": 6864,
  "orage": 5334,
  "ĠTour": 9060,
  "Ġparole": 22363,
  "Ġonstage": 30710,
  "Ġhorr": 18136,
  "ĠCountry": 13560,
  "Ġpaper": 3099,
  "ĠSnapchat": 27596,
  "ĠEx": 1921,
  "ĠDan": 5237,
  "Ġtraded": 11456,
  "Ġhostages": 25960,
  "Ġdarker": 18555,
  "redients": 26892,
  "Ġpassion": 6771,
  "Ġsubscribe": 10561,
  "Ġecology": 30953,
  "Ġpremiere": 14612,
  "Ġmystery": 10221,
  "idd": 1602,
  "Ġ34": 6585,
  "ys": 902,
  "Ġappealed": 17741,
  "Ġspelling": 24586,
  "Ġconform": 18026,
  "Ġfronts": 23649,
  "oice": 9590,
  "Ġways": 2563,
  "Ġfaulty": 28181,
  "ech": 2681,
  "NT": 12094,
  "Ġaver": 7968,
  "Ġappearance": 5458,
  "Ġcomedy": 8818,
  "metric": 28239,
  "ued": 1522,
  "Ġpitch": 5785,
  "Ġconstraints": 15950,
  "ĠGreg": 7810,
  "kward": 11652,
  "ãħ": 25506,
  "Ġmate": 14819,
  "Ġvib": 14825,
  "Ġdemolished": 25519,
  "Ġtoast": 27122,
  "Ġreturned": 4415,
  "Å": 128,
  "Ġ64": 7514,
  "Ġscrew": 11137,
  "Ġrespect": 2540,
  "ĠRider": 28513,
  "Ġforcing": 9329,
  "Ġconventions": 18317,
  "ĠQuestion": 21715,
  "Ġthigh": 24358,
  "lynn": 10889,
  "Pacific": 19792,
  "Ġkidney": 21668,
  "Ġgest": 10177,
  "ĠPresident": 1634,
  "Ġcompass": 31180,
  "Ġconvey": 14245,
  "LP": 22008,
  "ĠGuinea": 21674,
  "ac": 269,
  "tes": 7641,
  "ĠAp": 8598,
  "Ġprovision": 9331,
  "115": 21199,
  "ĠSchultz": 20591,
  "Ġhierarch": 25974,
  "Ġyours": 14298,
  "Ġchamber": 11935,
  "Ġresidual": 30656,
  "waves": 25857,
  "ĠBronx": 24875,
  "stal": 9629,
  "ismo": 31471,
  "ĠMethods": 31844,
  "source": 13140,
  "Ġvind": 25210,
  "Ġshelf": 17577,
  "Ġsaus": 25385,
  "Â°": 9120,
  "Ġferv": 24882,
  "themed": 21556,
  "what": 4815,
  "imensional": 16608,
  "Try": 27167,
  "Ġadolescents": 28934,
  "!!!": 14344,
  "Ġfresh": 4464,
  "ĠCanyon": 21662,
  "ĠNature": 11451,
  "dullah": 19071,
  "ĠApple": 3527,
  "Ġblowing": 17561,
  "Ġhearing": 4447,
  "Ġsubst": 3392,
  "icing": 6048,
  "92": 9168,
  "Ġviability": 27303,
  "Science": 24787,
  "sterdam": 20468,
  "uce": 7916,
  "Project": 19242,
  "ĠAltern": 14994,
  "Ġchickens": 22774,
  "Ġdinosaurs": 22377,
  "ĠYorkers": 28700,
  "ĠScand": 24086,
  "Bro": 16856,
  "Ġprojection": 19278,
  "Ġmurder": 4641,
  "ĠVancouver": 8608,
  "inders": 29049,
  "ĠEmperor": 17368,
  "ĠBoyd": 24279,
  "Ġcru": 4170,
  "Ġextensively": 18110,
  "ĠKry": 31062,
  "Ġunsupp": 17872,
  "Ġpasswords": 18899,
  "Ġaccessories": 20172,
  "TOR": 26111,
  "ĠCarbon": 25338,
  "Develop": 18155,
  "Ġdependence": 20279,
  "ising": 1502,
  "Ġstamps": 21003,
  "Ġpneumonia": 30810,
  "pty": 6251,
  "Ġreven": 8371,
  "Ġprov": 908,
  "ĠTVs": 27326,
  "ciples": 7018,
  "ensor": 31298,
  "Ġindictment": 16625,
  "Ġinterference": 13374,
  "Ġpython": 26136,
  "DI": 16176,
  "lish": 2257,
  "Ġbooster": 28737,
  "Ġabbre": 30263,
  "ĠFil": 6828,
  "Ġsmuggling": 23340,
  "Ġtaxing": 30821,
  "uki": 14489,
  "rol": 4002,
  "roller": 12872,
  "Download": 14767,
  "Ġdistant": 12317,
  "Ġincorrect": 11997,
  "ĠTurk": 7074,
  "ccess": 1482,
  "ingle": 16947,
  "Ġurged": 9131,
  "Ġinstitutional": 13329,
  "Ġstatute": 17234,
  "-$": 21891,
  "responsible": 19271,
  "ĠPlease": 5440,
  "Ġdestined": 21579,
  "ĠHorizon": 24106,
  "Ġconsortium": 27409,
  "Ġeast": 6904,
  "Tor": 13820,
  "ĠCass": 13468,
  "Ġextensive": 7089,
  "Ġrecommends": 19889,
  "ani": 3130,
  "Ġbent": 18426,
  "ĠReyn": 17359,
  "Ġshootout": 28056,
  "Ġintend": 14057,
  "Ġparticularly": 3179,
  "Ġstarters": 15903,
  "Ġeth": 4034,
  "ĠOptions": 28206,
  "Ġmapping": 17119,
  "ĠCharlie": 10028,
  "occ": 13585,
  "Ġimposing": 17774,
  "Ġdispensaries": 26991,
  "Ġdetermines": 20335,
  "ĠCain": 23447,
  "Ġcirculation": 18353,
  "Ġterrified": 20140,
  "ĠNHL": 6996,
  "ĠAnim": 13804,
  "anch": 3426,
  "Ġnonprofit": 12486,
  "ĠKerr": 27248,
  "Europe": 13756,
  "Ġm": 242,
  "Tax": 26445,
  "Ġenjoying": 12377,
  "Ġyet": 1746,
  "kill": 14852,
  "Op": 18165,
  "Ġshapes": 14441,
  "Ġoriginal": 2625,
  "Ġtrustworthy": 31679,
  "'s": 382,
  "ĠBudd": 8491,
  "Ġsummar": 15510,
  "ĠMLB": 14823,
  "Ġdive": 14774,
  "Ġserve": 4382,
  "rey": 4338,
  "Ġpulse": 20371,
  "Ġtoxic": 10166,
  "Family": 25382,
  "00": 407,
  "ĠShah": 14881,
  "Ġstormed": 27288,
  "ĠREAD": 22506,
  "OB": 30858,
  "Ġaims": 10205,
  "Ġslightest": 25707,
  "Ġmechanical": 12566,
  "lie": 13572,
  "ĠQuebec": 11820,
  "oxy": 29158,
  "ĠInnov": 19248,
  "ek": 874,
  "rative": 7854,
  "ĠPros": 16506,
  "ĠQatar": 14776,
  "Richard": 18472,
  "Ġimm": 2096,
  "Ġdairy": 16788,
  "%,": 7987,
  "IGN": 23228,
  "Ġempir": 17397,
  "Sure": 17545,
  "ĠKeith": 12916,
  "Ġparts": 3320,
  "ĠSF": 15041,
  "Ġtargeted": 6648,
  "rogen": 15399,
  "Ġturmoil": 20998,
  "Officials": 19025,
  "Ġash": 12101,
  "ĠBarclays": 30056,
  "Ġworkplace": 13316,
  "ractions": 31617,
  "vez": 25420,
  "ĠTai": 9898,
  "ĠAndreas": 30174,
  "osition": 2727,
  "Ġcoup": 10187,
  "ĠHam": 3894,
  "Ġparking": 7156,
  "ACE": 17005,
  "Ġability": 2700,
  "Ġreddit": 26261,
  "ĠSyria": 3642,
  "72": 8621,
  "ifting": 13707,
  "ĠMarijuana": 23399,
  "Ġlauded": 30686,
  "encies": 3714,
  "Ġoppress": 31359,
  "arten": 21230,
  "Ġfre": 2857,
  "seek": 27995,
  "Ġbehaving": 31882,
  "Ġgrim": 17081,
  "Post": 7930,
  "ĠTurks": 25236,
  "Ġsided": 30049,
  "ĠLibertarian": 23303,
  "requency": 29987,
  "Ġdrag": 6978,
  "Ġpartnered": 23564,
  "Ġsurprised": 6138,
  "Ġwilderness": 22298,
  "erry": 3762,
  "Ġcance": 9088,
  "Ġjeopard": 18419,
  "ĠTem": 7224,
  "Ġavenue": 31301,
  "ĠMcC": 3287,
  "Ġincreased": 3348,
  "Ġappropriately": 19552,
  "atively": 9915,
  "Ġappointed": 9041,
  "Ġample": 22480,
  "Coun": 24963,
  "ongyang": 17434,
  "Ġessential": 6367,
  "ĠSimp": 17216,
  "Ġpossess": 9480,
  "Ġnegotiations": 7537,
  "Ġengineering": 7614,
  "ĠNetherlands": 11183,
  "Ġmerchants": 20792,
  "ĠStack": 26317,
  "yo": 8886,
  "ante": 13579,
  "Ġsurveyed": 17009,
  "BE": 14872,
  "Taylor": 28921,
  "Ġdolphins": 28793,
  "Ġnuts": 14149,
  "Ġlows": 26882,
  "mis": 22441,
  "ĠGod": 2596,
  "Ġanti": 2556,
  "Ġholder": 19423,
  "Ġdownright": 26104,
  "ĠUnderstanding": 29511,
  "Ġreviews": 8056,
  "Ġwart": 26745,
  "ĠAbr": 18038,
  "Ġmis": 2834,
  "Ġrepresented": 7347,
  "Ġadvocacy": 12151,
  "ĠCruz": 6694,
  "PG": 8150,
  "Ġcriticize": 19658,
  "Ġray": 30116,
  "Ġ140": 15187,
  "Ġmillenn": 13286,
  "Ġreclaim": 20120,
  "Ġfirearm": 15133,
  "ĠPure": 24122,
  "zhou": 28648,
  "ĠBrus": 12169,
  "jee": 28462,
  "National": 15383,
  "These": 4269,
  "inks": 3039,
  "Ġfacilities": 6916,
  "ĠOttawa": 11144,
  "Update": 10366,
  "Ġmistaken": 15065,
  "Ġmail": 7645,
  "Ġexpectation": 15179,
  "Ġslack": 28875,
  "Ġ71": 13025,
  "Ġlisted": 6125,
  "Ġalongside": 6570,
  "ARR": 30336,
  "Ġlust": 27546,
  "Ġofficer": 3467,
  "ĪĴ": 7115,
  "Ġbark": 22131,
  "Ġdisadvantaged": 31212,
  "Ġwa": 2121,
  "WATCH": 27433,
  "yton": 26106,
  "Ġseizures": 22558,
  "ĠJPMorgan": 30630,
  "Ġdemocrat": 22401,
  "AW": 28529,
  "ĠSun": 4045,
  "Ġgimm": 27644,
  "Ġissue": 1828,
  "Ġsubstantial": 8489,
  "Ġsingers": 31735,
  "ĠCyprus": 23645,
  "umen": 21961,
  "ĠEN": 20019,
  "Ġorganizations": 4995,
  "ĠHoover": 25733,
  "aging": 2537,
  "Ġpinch": 25232,
  "ĠRP": 30246,
  "ĠCollege": 4963,
  "ribute": 4565,
  "Ġju": 7830,
  "Ġtoys": 14493,
  "Ġcontaining": 7888,
  "Ġflaws": 15686,
  "spired": 30063,
  "lications": 24781,
  "ĠCanal": 26716,
  "Ġsuccessor": 14653,
  "Ġtranscript": 13852,
  "ĠCommunist": 12768,
  "Ġshaken": 25391,
  "Ġpaint": 7363,
  "Ġscientific": 5047,
  "Ġcold": 5073,
  "ĠBath": 23962,
  "hani": 29598,
  "imen": 19447,
  "pires": 23995,
  "Ġclinical": 9724,
  "Ġscreen": 3173,
  "Ġcab": 15127,
  "Ġcere": 6340,
  "onest": 16613,
  "ĠHuckabee": 25180,
  "Ġfigur": 28673,
  "IFF": 30568,
  "Ġrid": 5284,
  "âĢĿ),": 19183,
  "International": 22834,
  "Ġrating": 7454,
  "ĠKazakhstan": 28722,
  "Ġsex": 1694,
  "ĠProgramming": 31853,
  "ÑģÐº": 27980,
  "ĠFergus": 11960,
  "ĠHS": 17482,
  "Ġlectures": 23313,
  "Ġcollaborators": 30050,
  "ĠTerminal": 26217,
  "Ġillicit": 20550,
  "ĠFew": 18816,
  "Ġpack": 2592,
  "Ġbear": 7017,
  "Ġcanvas": 21723,
  "Ġbiological": 10322,
  "Ġhandcuffed": 31295,
  "ifa": 18869,
  "Ġcell": 2660,
  "59": 6837,
  "cut": 9025,
  "Ġfaint": 21593,
  "ĠNV": 29747,
  "Ġclues": 18492,
  "Ġgrit": 19701,
  "ĠAngel": 3782,
  "ĠVince": 20130,
  "null": 19623,
  "Ġappend": 23261,
  "far": 14922,
  "Ġabide": 26352,
  "istence": 22445,
  "Ġearned": 6533,
  "ourney": 5956,
  "ober": 1791,
  "eming": 28628,
  "Ġsupremacists": 29751,
  "Ġunits": 5127,
  "atching": 17219,
  "ols": 10383,
  "Ġadj": 12018,
  "ulsion": 14497,
  "Ġcircle": 9448,
  "ĠBeer": 15700,
  "Ġinhabit": 14343,
  "í": 168,
  "Ġrelentlessly": 30689,
  "ĠMariners": 26906,
  "Ġdamage": 3298,
  "ĠFairfax": 25674,
  "Cap": 13402,
  "Ġbeast": 16860,
  "ĠCBC": 15498,
  "ĠThe": 349,
  "Ġvic": 17864,
  "Ġsuffers": 19280,
  "ĠJoey": 24211,
  "Ġsomet": 978,
  "ĠBrend": 16296,
  "Ġlittle": 1273,
  "250": 10320,
  "rief": 3560,
  "giving": 13128,
  "false": 21053,
  "Ġvideos": 5547,
  "ĠTimothy": 20034,
  "ĠChip": 16233,
  "acy": 1441,
  "Ġresponding": 12230,
  "ren": 866,
  "Ġprim": 2515,
  "aura": 30969,
  "Ġprison": 3269,
  "Ġbeing": 764,
  "Ġreliant": 30976,
  "Ġdecl": 2420,
  "stead": 25197,
  "Ġcoin": 11518,
  "guyen": 31453,
  "Ġcornerback": 19622,
  "Ô": 143,
  "Ġoppressed": 22675,
  "ĠItaly": 6931,
  "Ġnumbers": 2833,
  "ĠNash": 11511,
  "ĠAuthorities": 26901,
  "Ġinvasive": 23183,
  "fires": 22619,
  "irty": 6128,
  "ize": 1171,
  "Ġdressed": 11419,
  "PT": 19177,
  "Ġimproving": 8802,
  "Educ": 29222,
  "Ġont": 30389,
  "ĠConc": 21357,
  "ĠPop": 8957,
  "Ġsymp": 8952,
  "Ġinteraction": 9998,
  "Ġ20": 491,
  "Ġvoluntarily": 20576,
  "ĠWah": 31009,
  "PC": 8391,
  "ĠPoor": 23119,
  "Ġanniversary": 9381,
  "OME": 16018,
  "Ġconfronted": 14760,
  "Ġsought": 6214,
  "Ġartic": 14882,
  "Ġidentity": 4889,
  "gold": 29187,
  "Ġresisting": 24100,
  "ĠHamas": 11466,
  "asis": 20520,
  "prop": 22150,
  "Ġfairly": 6275,
  "colored": 26290,
  "Ġep": 2403,
  "Ġframeworks": 23890,
  "Ġweakest": 31145,
  "id": 267,
  "Ġcomforting": 31335,
  "ifference": 26115,
  "ĠJPM": 28596,
  "ãģ¦": 19580,
  "gia": 6023,
  "Ġprecious": 13597,
  "Ġentity": 11421,
  "Ġmaintaining": 10361,
  "Ġflesh": 14390,
  "FL": 3334,
  "Ġbless": 12995,
  "Ġoak": 28918,
  "slaught": 28371,
  "ML": 7148,
  "Ġdiscrimination": 8003,
  "Ġobserve": 13746,
  "~~": 11523,
  "min": 1071,
  "ĠPHP": 18402,
  "ium": 1660,
  "Ġcand": 2152,
  "Ab": 5348,
  "sy": 1970,
  "Ġdepicts": 24636,
  "800": 8870,
  "Ġdiary": 25211,
  "ĠSaskatchewan": 24452,
  "Ġappears": 3498,
  "OH": 16778,
  "Ġbuttons": 12836,
  "Inf": 15523,
  "night": 4615,
  "raved": 30961,
  "Ġdens": 27190,
  "Ġfluctuations": 29078,
  "Ġsplash": 21869,
  "Ġgangs": 18094,
  "osing": 2370,
  "Ġmaneu": 15576,
  "Ġpurp": 3333,
  "Ġwhereabouts": 29461,
  "Ã¶": 6325,
  "Ġgarner": 26437,
  "Ġrefreshing": 21180,
  "110": 12857,
  "imum": 3487,
  "Rod": 24484,
  "abe": 10436,
  "Ġfunction": 2492,
  "oyal": 4606,
  "untary": 27220,
  "J": 42,
  "ĠMail": 10464,
  "jo": 7823,
  "Ġsurvival": 9191,
  "Ġamidst": 29742,
  "Ġpanel": 5625,
  "FT": 14962,
  "Children": 26645,
  "Ġseemingly": 8506,
  "ĠTommy": 17291,
  "äº": 19544,
  "ĠCrypt": 20361,
  "Ġpalace": 20606,
  "Ġsettings": 8438,
  "ĠSaudis": 25499,
  "Ġrh": 18890,
  "atorium": 24878,
  "old": 732,
  "clock": 18486,
  "Ġcreator": 11608,
  "ĠAmong": 9356,
  "ĠTS": 30159,
  "Ġrespective": 12176,
  "om": 253,
  "ayer": 5114,
  "lund": 31290,
  "ĠRank": 17405,
  "Ġelder": 10130,
  "ids": 2011,
  "ĠSimon": 10163,
  "Ġtunnel": 12352,
  "ĠMill": 9167,
  "Ġrested": 30323,
  "etheless": 10951,
  "jet": 24405,
  "ttp": 1985,
  "kit": 17765,
  "Ġquests": 26659,
  "Tex": 15737,
  "ĠRockefeller": 27255,
  "Ġparamount": 31906,
  "Ġhanding": 18287,
  "mor": 14832,
  "Ġthank": 5481,
  "ĠJacques": 28182,
  "ĠNo": 1731,
  "lang": 22975,
  "Ġtrap": 13871,
  "amina": 30106,
  "Ġwhiskey": 26462,
  "ĠMacDonald": 29782,
  "ĠPCs": 19722,
  "ĠWikipedia": 12953,
  "ĠAvengers": 19515,
  "ĠByz": 31448,
  "Ġinstit": 5280,
  "Ġremains": 3290,
  "('": 12140,
  "direct": 13172,
  "Ġembod": 19204,
  "Ġ86": 14484,
  "Ġinterior": 10393,
  "Way": 25241,
  "Ġauthorize": 30487,
  "pc": 19481,
  "100": 3888,
  "undreds": 16468,
  "Ġsections": 10081,
  "step": 9412,
  "Ġmindset": 16571,
  "ĠStephan": 18381,
  "Ġapproximate": 29472,
  "Ġsecrets": 12970,
  "ĠHat": 14175,
  "ĠFactor": 28955,
  "ĠWWII": 28255,
  "en": 225,
  "Ġpetitions": 27169,
  "Ġext": 1033,
  "dom": 3856,
  "Ġoutfit": 14015,
  "ĠSafari": 27241,
  "Ġprecautions": 31655,
  "Ġgram": 31333,
  "ĠQue": 4584,
  "Ġfemales": 13109,
  "Ġhorrifying": 27611,
  "ĠMessenger": 28542,
  "Des": 4872,
  "Ġdudes": 30670,
  "NOTE": 30519,
  "Ġcross": 3222,
  "gener": 8033,
  "find": 24612,
  "Ġaccessing": 20948,
  "ishers": 10969,
  "ĠLanc": 19022,
  "Ġcharitable": 19958,
  "ĠMunicipal": 27826,
  "Hall": 27492,
  "ĠTap": 19718,
  "Ġcorn": 11905,
  "Ġvariant": 15874,
  "ast": 430,
  "Eight": 26385,
  "Ġguess": 4699,
  "ĠWilliams": 5541,
  "ĠJD": 31522,
  "NP": 21999,
  "Ġholidays": 15938,
  "Ġnominate": 31779,
  "Ġstayed": 8558,
  "Ġprotein": 8859,
  "Ġprove": 5343,
  "ĠPaste": 30767,
  "kil": 25943,
  "rog": 5447,
  "imens": 12584,
  "hibition": 23221,
  "Ġgym": 11207,
  "ĠBoeing": 15994,
  "ĠQU": 28802,
  "Ġsixth": 9993,
  "gall": 23358,
  "Import": 26734,
  "Gl": 10630,
  "ĠFine": 19307,
  "ĠOil": 11162,
  "ĠLovecraft": 31723,
  "Ġcapac": 20169,
  "ĠKurdish": 11455,
  "Ġexploitation": 15046,
  "Ġgrowers": 28116,
  "Ġculmin": 19595,
  "character": 22982,
  "ext": 10508,
  "Ġstrategies": 9605,
  "markets": 28473,
  "Ú": 149,
  "Ġnightmare": 15116,
  "ĠRap": 12163,
  "ĠâĢ¦": 3440,
  "ĠAre": 4651,
  "ĠCli": 19250,
  "Ġpersonalized": 29024,
  "Ġversatility": 29029,
  "respond": 5723,
  "Ġbandwidth": 19741,
  "Ġdeep": 2323,
  "Ġimpeachment": 22927,
  "ĠLou": 4135,
  "roe": 18648,
  "Ġforce": 2584,
  "ographs": 31478,
  "atched": 15262,
  "Ġgeared": 27177,
  "!).": 19501,
  "ĠExpect": 23733,
  "ishing": 2937,
  "Ïģ": 24262,
  "Ġsatir": 24084,
  "Ġreferences": 10594,
  "Ġinvestigative": 16462,
  "efully": 6537,
  "ugin": 25869,
  "Ġbarr": 25410,
  "Ġplease": 4622,
  "Ġgain": 4930,
  "Yesterday": 21317,
  "Ġleaving": 4026,
  "ETA": 22347,
  "Ġexponentially": 28675,
  "Ġside": 1670,
  "Ġemploys": 21135,
  "ĠBar": 2031,
  "Ġaud": 2491,
  "Ġsleeping": 11630,
  "femin": 29949,
  "Ġspaces": 8368,
  "ila": 8730,
  "Ġracism": 9022,
  "ĠCommander": 16428,
  "ĠAsia": 6279,
  "ills": 2603,
  "Ġ300": 6232,
  "ĠList": 9209,
  "Ġlit": 1060,
  "above": 28413,
  "cam": 20946,
  "Ġovershadow": 28190,
  "Ġentirely": 4564,
  "ĠSpider": 13941,
  "ĠÎ±": 24220,
  "\\/": 19376,
  "ĠManager": 12084,
  "amboo": 29900,
  "planned": 31185,
  "uffed": 16405,
  "ems": 7808,
  "Ġinspiring": 17459,
  "June": 16120,
  "orical": 11885,
  "itas": 19443,
  "cycle": 29096,
  "Ġcompetence": 29629,
  "Ġcamer": 3355,
  "ĠMem": 5713,
  "Samsung": 28733,
  "Ġlibraries": 11658,
  "embed": 31972,
  "Ġnaval": 15740,
  "Left": 22364,
  "Ġeating": 6768,
  "Ġparties": 4100,
  "ULT": 29253,
  "Ġentered": 6221,
  "Ġappointments": 20757,
  "ĠFul": 24154,
  "Ġsimultaneously": 10857,
  "Ġo": 224,
  "opa": 29109,
  "Ġcust": 8788,
  "Ġaddressed": 8650,
  "ĠGitHub": 20003,
  "ĠLabour": 5824,
  "irling": 23083,
  "Ġdelegate": 20439,
  "erers": 18661,
  "chief": 15900,
  "BR": 12944,
  "ĠPruitt": 29505,
  "ri": 337,
  "ĠISPs": 21384,
  "Äģ": 10832,
  "tlet": 25255,
  "Ġassembled": 15358,
  "Ġclue": 17437,
  "ĠDual": 27960,
  "Ġposts": 6664,
  "Ġtitle": 3580,
  "Ġrented": 22618,
  "Ġ1979": 12367,
  "ifier": 10865,
  "ĠWiki": 11761,
  "Ġnegotiate": 13706,
  "itime": 18628,
  "Ġcomposite": 24946,
  "ĠReynolds": 19527,
  "Ġcontinu": 11100,
  "aly": 3354,
  "ĠOf": 3630,
  "ĠInqu": 21449,
  "Ġhopeless": 20960,
  "ĠCash": 17349,
  "veillance": 24260,
  "Ġrobotic": 20602,
  "Ġ1968": 13991,
  "Ġmitigation": 30930,
  "imeter": 15869,
  "Ġvolunteer": 12555,
  "Ġpioneer": 24076,
  "Pros": 31521,
  "ĠUb": 10985,
  "ĠContest": 30178,
  "ĠPam": 21842,
  "Ġscripts": 15888,
  "ĠBerlin": 9611,
  "ĠTonight": 24391,
  "ĠLenn": 22518,
  "only": 9006,
  "Ġawaken": 20633,
  "aturday": 3087,
  "Ġlining": 19397,
  "ĠMiami": 7030,
  "ĠPanthers": 15044,
  "inite": 11209,
  "eri": 31245,
  "ĠâĢĵ": 689,
  "ĠMiche": 25919,
  "Ġconservation": 12410,
  "ĠBuddh": 18605,
  "ĠHopkins": 17983,
  "Ġpartly": 10064,
  "Ġharass": 7019,
  "Ġcomplex": 3428,
  "wat": 26195,
  "Investigators": 25813,
  "Ġswallowed": 30876,
  "Ġextremist": 16068,
  "ĠArkansas": 13076,
[...]
