{
  "Ġstudying": 9761,
  "Ġafter": 642,
  "Ġsupposed": 3967,
  "Ġtr": 424,
  "atives": 2598,
  "ĠBattle": 8214,
  "teen": 7076,
  "estival": 5769,
  "Cl": 4322,
  "iform": 7009,
  "ĠThursday": 2868,
  "Ġlead": 914,
  "ĠSt": 543,
  "And": 1693,
  "ĠSquare": 8260,
  "k": 75,
  "Ġcoast": 5822,
  "Ġfiction": 8337,
  "Ġattempts": 5684,
  "Ġcapture": 7362,
  "Ġepisodes": 7920,
  "oked": 6310,
  "CE": 7125,
  "Ġil": 3457,
  "Ġfiscal": 8252,
  ",âĢĿ": 641,
  "Since": 5503,
  "ĠPolice": 3794,
  "rell": 9204,
  "omen": 3471,
  "Ġwine": 8238,
  "ĠWild": 6651,
  "Ġowners": 3911,
  "Ġ51": 8800,
  "Ġs": 221,
  "Des": 4872,
  "Ġbon": 6362,
  "Ġfold": 7082,
  "Ġstrength": 4633,
  "Ġsuspected": 8445,
  "ĠOut": 4977,
  "Ġnorthern": 6802,
  "Ġremarkable": 9594,
  "Ġchar": 1330,
  "Ġpers": 2862,
  "Ġfur": 9344,
  "Ġstate": 813,
  "Ġvalue": 2364,
  "Ġsw": 1983,
  "Ġbad": 1937,
  "AS": 2355,
  "Ġtransaction": 9841,
  "ĠL": 387,
  "Ġopponent": 6394,
  "FL": 3334,
  "Ġextend": 8402,
  "Ġchest": 9522,
  "ations": 547,
  "els": 1488,
  "Ġcon": 320,
  "Ġforms": 5248,
  "Ġcred": 2442,
  "base": 9738,
  "ĠRepublicans": 3329,
  "Ġadvertising": 7670,
  "bl": 2859,
  "ĠSum": 5974,
  "The": 402,
  "tenance": 9444,
  "ĠStation": 9796,
  "Ġaccepted": 6098,
  "ĠÎ": 6902,
  "Ġbottom": 4392,
  "encies": 3714,
  "Ġcoalition": 7238,
  "Ġboss": 6270,
  "Ġsle": 3444,
  "ording": 1092,
  "Ġprotesters": 6853,
  "portation": 9615,
  "Ġvir": 5491,
  "AR": 2318,
  "Ġwhite": 2340,
  "Ġpractices": 6000,
  "Ġargued": 5520,
  "Ġproper": 1972,
  "ĠCirc": 8129,
  "Un": 3809,
  "ĠBrown": 3874,
  "Ġcore": 4201,
  "Ġtemperatures": 8798,
  "mun": 6759,
  "rical": 8169,
  "Ġ250": 9779,
  "art": 385,
  "Ġemotional": 6421,
  "yan": 3574,
  "Ġme": 466,
  "ĠApp": 2195,
  "arily": 2972,
  "Ġweek": 1087,
  "Ġridic": 7844,
  "herent": 7667,
  "Ġofficially": 7066,
  "Ġpattern": 4156,
  "Ġmat": 1367,
  "year": 1561,
  "Ġconcent": 5539,
  "Ġspirit": 4863,
  "800": 8870,
  "Ġdress": 6956,
  "Ġcapabilities": 8956,
  "iled": 3939,
  "cover": 8589,
  "Ġchampion": 6981,
  "Ġhint": 8713,
  "Ġguitar": 8977,
  "ĠSund": 2795,
  "Ġrecre": 9894,
  "ruction": 2788,
  "Ġexact": 2617,
  "osh": 3871,
  "ena": 6389,
  "Ġadults": 6337,
  "Ġwithd": 6169,
  "ĠBloom": 9467,
  "ctions": 2794,
  "can": 5867,
  "è": 163,
  "iami": 6628,
  "izz": 6732,
  "h": 72,
  "Ġtelevision": 4241,
  "ĠPatrick": 8411,
  "adow": 5719,
  "Ġfault": 7861,
  "ĠCentre": 7992,
  "Ġincrease": 2570,
  "ĠProf": 4914,
  "irt": 2398,
  "ĠEngine": 8717,
  "Ġveget": 7731,
  "ĠFal": 9731,
  "Ġstrugg": 3034,
  "Ġscr": 5346,
  "cil": 2487,
  "Ġconv": 2099,
  "Ġincre": 1216,
  "osen": 5211,
  "ved": 1001,
  "Ġresc": 6293,
  "Ġwor": 429,
  "anchester": 7443,
  "owered": 6900,
  "Ġcro": 8480,
  "ĠOklahoma": 9415,
  "Ġtoo": 1107,
  "Ġthoughts": 5905,
  "Ġbelong": 5563,
  "ri": 337,
  "Ġfall": 2005,
  "ety": 2828,
  "ĠAlso": 5065,
  "Ġmotion": 6407,
  "F": 38,
  "Ġchanges": 2393,
  "eks": 2289,
  "ouri": 9266,
  "bar": 6578,
  "Ġgang": 6755,
  "ĠEric": 6476,
  "ites": 2694,
  "Ġgall": 7629,
  "Ġsuccessful": 3813,
  "ĠSyrian": 5129,
  "body": 2325,
  "ograp": 1904,
  "|": 92,
  "fare": 9186,
  "38": 4444,
  "Ġbegin": 2138,
  "ĠFr": 1147,
  "Ġdrivers": 5955,
  "uration": 5304,
  "Ġdrama": 8772,
  "Ġtaken": 1939,
  "ĠBet": 5686,
  "uten": 9469,
  "Ľ": 206,
  "rial": 4208,
  "essed": 7373,
  "hes": 974,
  "Ġcopies": 8841,
  "Ġaffili": 7711,
  "rific": 7510,
  "Last": 5029,
  "inated": 3849,
  "ĠPro": 1205,
  "Ġinj": 2315,
  "Ġreaching": 8108,
  "=": 29,
  "Ġdynamic": 8322,
  "Ġlost": 2360,
  "Ġyards": 5184,
  "Ġcollapse": 8181,
  "Ġsurvey": 4888,
  "Ġpromising": 9540,
  "olf": 4379,
  "ĠSol": 5294,
  "ĠSecurity": 4308,
  "ify": 2037,
  "ederal": 1771,
  "Ġgame": 894,
  "Ġmore": 460,
  "room": 3150,
  "Ġmedium": 7717,
  "rop": 1618,
  "aste": 4243,
  "Ġdid": 692,
  "iven": 1417,
  "ĠNovember": 2832,
  "Ġconstruct": 5615,
  "ĠMatt": 5780,
  "Ġnet": 1812,
  "Ġspent": 2900,
  "Ġbenef": 2083,
  "Ġ2015": 1841,
  "uff": 1705,
  "Ġarch": 3619,
  "ĠNev": 8916,
  "Ġmoments": 6388,
  "onic": 7230,
  "sey": 3866,
  "icism": 9426,
  "ĠBernie": 8204,
  "Ġnight": 1615,
  "ully": 2094,
  "ula": 4781,
  "Ġwaters": 8953,
  "ĠAfter": 2353,
  "uman": 3984,
  "Ł": 210,
  "rd": 4887,
  "Ġconservatives": 8951,
  "Ġpurs": 4476,
  "ician": 6256,
  "Ġconcerned": 4594,
  "flix": 8704,
  "idency": 7453,
  "ĠAny": 5355,
  "ux": 3363,
  "ĠAtt": 4467,
  "ĠFair": 8004,
  "Ġco": 640,
  "Ġenforce": 4077,
  "rey": 4338,
  "ĠEurope": 1682,
  "å": 160,
  "ĠSpe": 3278,
  "\".": 2785,
  "Ġredu": 2022,
  "ock": 747,
  "te": 355,
  "ĠBack": 5986,
  "ĠWeb": 5039,
  "Ń": 212,
  "#": 3,
  "Ġcontinued": 3312,
  "Ġpresence": 4694,
  "Ġunexpected": 9296,
  "ĠInc": 4475,
  "Ġbeach": 9926,
  "ĠHaw": 5557,
  "roid": 3956,
  "Ġnations": 6107,
  "wood": 3575,
  "Ġown": 832,
  "ĠAcadem": 7152,
  "ared": 1084,
  "Ġmy": 599,
  "ĠGreece": 8570,
  "Ġstarted": 1820,
  "duc": 6298,
  "Ġfacing": 5466,
  "Ġpres": 801,
  "igure": 6917,
  "ĠOb": 1390,
  "arm": 1825,
  "Ġalgorith": 7752,
  "Com": 7079,
  "igenous": 9857,
  "ger": 1349,
  "Ġthe": 218,
  "Ġtotal": 2493,
  "ĠWay": 6542,
  "Ġadvis": 7538,
  "Ġj": 426,
  "Ġforcing": 9329,
  "ĠRom": 3184,
  "Ġvill": 4213,
  "Ġcoverage": 4490,
  "Ġreached": 3865,
  "Ġener": 2206,
  "Ġruling": 5402,
  "ked": 7434,
  "Will": 8354,
  "at": 223,
  "Ġguest": 8742,
  "Ġonly": 662,
  "our": 425,
  "ĠOp": 9866,
  "Ġsteps": 4905,
  "Ġcourts": 7202,
  "min": 1071,
  "Ġtaxes": 5002,
  "ategy": 3857,
  "Ġinspir": 7569,
  "Ġdub": 9092,
  "by": 1505,
  "ublic": 717,
  "ĠâĤ¬": 8535,
  "ink": 627,
  "Ċ": 176,
  "Ġmos": 9369,
  "Ġsplit": 5777,
  "actions": 7433,
  "unning": 7103,
  "Sp": 5505,
  "lement": 1994,
  "OW": 5350,
  "UL": 7702,
  "sec": 2213,
  "Ġfood": 2008,
  "ĠLabor": 6985,
  "Ġ49": 6488,
  "asure": 6015,
  "very": 499,
  "Ġserves": 8323,
  "Ġinev": 7720,
  "ĠBelg": 9442,
  "Ġsym": 6313,
  "*": 10,
  "Ġlunch": 9419,
  "Ġclar": 9133,
  "ĠBen": 3647,
  "Ġconfirmed": 4152,
  "vern": 753,
  "Ġproved": 7300,
  "Ġstages": 8919,
  "Ġmis": 2834,
  "Ġrepeatedly": 6594,
  "ari": 3229,
  "Ġuncom": 7801,
  "Ġship": 4339,
  "ĠMus": 2365,
  "Ġdigital": 4202,
  "ĠSk": 7212,
  "ĠMs": 6269,
  "Ġsup": 7732,
  "on": 219,
  "Ġcomponent": 7835,
  "ĠCont": 3051,
  "owers": 3837,
  "ats": 1620,
  "Ġexecut": 2611,
  "eries": 8815,
  "ĠNick": 7535,
  "Ġstop": 2126,
  "Ġbus": 1184,
  "nt": 392,
  "vironment": 2216,
  "ĠThough": 7112,
  "ruit": 5118,
  "<": 28,
  "Ġnomination": 8864,
  "ir": 298,
  "ek": 874,
  "Ġaff": 1476,
  "imum": 3487,
  "Ġriding": 9659,
  "ĠGirl": 9196,
  "ĠUnder": 5201,
  "ilipp": 7812,
  "eman": 7981,
  "Ġlocation": 4390,
  "CO": 9302,
  "Ġsum": 2007,
  "Ġefficiency": 8785,
  "Ġpoliticians": 5536,
  "Ġeducation": 3309,
  "Ġexpand": 3808,
  "Col": 7627,
  "Ġatmosp": 6130,
  "change": 3806,
  "Ġident": 1796,
  "kel": 6523,
  "akes": 1077,
  "une": 1655,
  "ract": 1279,
  "ĠGames": 6465,
  "Ġhas": 410,
  "Ġregime": 5492,
  "Ġtur": 7184,
  "ĠMic": 6897,
  "ST": 4235,
  "Ġhuman": 1569,
  "zer": 5731,
  "ople": 544,
  "Ġhumans": 5140,
  "Ġspeed": 3062,
  "Ġdedicated": 6608,
  "Ġmechanism": 6449,
  "Ġbe": 265,
  "Ġhorse": 8422,
  "azon": 4619,
  "Ġpreparing": 9316,
  "erved": 8008,
  "ura": 7137,
  "ĠBefore": 7696,
  "heim": 8838,
  "ight": 393,
  "is": 228,
  "rating": 7439,
  "uf": 3116,
  "att": 2226,
  "const": 9748,
  "Oh": 5991,
  "Ġsuggesting": 8102,
  "Ġguilty": 6193,
  "IA": 3840,
  "Ġhardly": 8128,
  "annon": 9626,
  "han": 8456,
  "Ġquestioned": 9335,
  "irlf": 9366,
  "Ġdeclared": 5847,
  "Ġtrained": 8320,
  "Ġbul": 4814,
  "als": 826,
  "Ġtechnologies": 7155,
  "Dem": 9328,
  "Ġactually": 1541,
  "aration": 9760,
  "Ġrem": 765,
  "ĠCIA": 6576,
  "Ġlock": 6297,
  "Ġdelivery": 8000,
  "Ġtransform": 5981,
  "ĠAndrew": 5845,
  "Ġwins": 6529,
  "Ġwage": 6805,
  "Ġreceive": 3489,
  "ives": 990,
  "oln": 9925,
  "uty": 3735,
  "Ġuns": 4106,
  "ĠLee": 5455,
  "Ġcouncil": 5376,
  "Ġunlikely": 6252,
  "Ġvar": 1460,
  "active": 7539,
  "Ġ5": 740,
  "ĠCap": 3765,
  "Ġinitially": 6078,
  "Ġbot": 6163,
  "Ġcommission": 4959,
  "Ġfuck": 6919,
  "ows": 1936,
  "22": 3084,
  "://": 2043,
  "47": 4787,
  "DS": 6646,
  "91": 9734,
  "Ġshare": 2454,
  "Ġsmaller": 4580,
  "©": 103,
  "Ġpolitics": 3722,
  "Ġtend": 4159,
  "Ġmaybe": 3565,
  "Ġstructure": 4533,
  "Ġsol": 1378,
  "Ġdiplom": 6090,
  "uk": 3001,
  "Ġmoder": 6893,
  "Ġcann": 5788,
  "ĠCore": 8395,
  "iat": 6038,
  "Ġclosing": 8668,
  "R": 50,
  "Ġpart": 569,
  "inding": 7339,
  "epend": 2377,
  "Wh": 1113,
  "Ġincredibly": 7307,
  "Ġfurther": 2113,
  "Ġelectric": 4355,
  "Ġahead": 3482,
  "Ġenemy": 5630,
  "Ġlocked": 8807,
  "Ġgenerated": 7536,
  "Ġpitch": 5785,
  "IP": 5233,
  "[": 59,
  "Ġpros": 3977,
  "all": 404,
  "Ġenough": 1480,
  "Ġurged": 9131,
  "Ġscreens": 8284,
  "xx": 8705,
  "Ġbacking": 9814,
  "ribut": 2321,
  "with": 4949,
  "Ġdesk": 6652,
  "ĠNob": 7963,
  "These": 4269,
  "Ġprep": 3029,
  "Ġrarely": 7674,
  "Ġpossibility": 5185,
  "Ġratio": 8983,
  "Ġcondition": 4309,
  "ider": 1464,
  "secut": 3867,
  "ter": 304,
  "ll": 255,
  "from": 7505,
  "prof": 4950,
  "'m": 1951,
  "law": 6175,
  "king": 9130,
  "stone": 6856,
  "Ġlarger": 3816,
  "Ġtort": 6685,
  "Ġbecame": 2236,
  "istics": 4434,
  "ĠImage": 6402,
  "uma": 8148,
  "orney": 3665,
  "ains": 1334,
  "EN": 2678,
  "Ġhave": 370,
  "Ġprotein": 8859,
  "Ġsurface": 4597,
  "ĠIndust": 9568,
  "Ġpubl": 1997,
  "Ġunemploy": 6807,
  "Ġfact": 1042,
  "Ġprimary": 3842,
  "Ġhouses": 7205,
  "Ġbetween": 945,
  "per": 509,
  "overed": 2468,
  "Ġequ": 1652,
  "Ġarrest": 2652,
  "ĠAuthor": 7251,
  "15": 1892,
  "astic": 3458,
  "Ġprime": 5428,
  "Ġaw": 3257,
  "ĠUn": 744,
  "Ġey": 2157,
  "Ġhours": 2229,
  "Ġadding": 3971,
  "Ġdetails": 3280,
  "Us": 7819,
  "Ġ52": 8613,
  "ife": 864,
  "section": 9837,
  "lu": 2187,
  "ĠSher": 5997,
  "ĠKevin": 6810,
  "age": 461,
  "ĠProv": 9005,
  "uly": 1853,
  "ruct": 1368,
  "ois": 9398,
  "Ġcrop": 7997,
  "ĠJewish": 4689,
  "Ġhelp": 913,
  "ë": 166,
  "uilding": 6901,
  "ĠServ": 3504,
  "Ġsubjects": 8251,
  "Ġhyp": 5283,
  "ĠCare": 7425,
  "Ġtried": 2936,
  "ped": 8521,
  "Ġemb": 3828,
  "Ġcausing": 6673,
  "Ġmanagers": 9854,
  "ijing": 8765,
  "apes": 7233,
  "ĠLong": 6551,
  "orks": 3636,
  "ĠAmong": 9356,
  "ĠAmericans": 2692,
  "Ġparam": 7135,
  "ol": 305,
  "Ġimportance": 6327,
  "Ġarg": 1668,
  "mas": 4972,
  "Ġbuying": 6332,
  "Ġdrive": 3523,
  "Ġphysical": 3646,
  "om": 253,
  "aints": 5720,
  "Ġimportantly": 9466,
  "bro": 7583,
  "ð": 171,
  "son": 1219,
  "iger": 6474,
  "ene": 1639,
  "Ġbest": 1192,
  "ael": 2693,
  "lled": 2641,
  "ction": 588,
  "Ġphen": 6174,
  "aeda": 8966,
  "Ġrecommended": 8380,
  "Ġass": 835,
  "Ġstrik": 4386,
  "Ġtold": 1082,
  "Ġrecords": 4075,
  "Inst": 7446,
  "umn": 4828,
  "Ġaudience": 4389,
  "adelph": 7299,
  "aly": 3354,
  "bon": 3901,
  "ots": 1667,
  "Ġeastern": 8442,
  "Ġweeks": 2376,
  "Ġbal": 3598,
  ".\"<|": 5827,
  "ĠIN": 5691,
  "Ġcaused": 3914,
  "obal": 2198,
  "ins": 1021,
  "alt": 2559,
  "Ã": 126,
  "ith": 300,
  "lo": 5021,
  "Ġannual": 4654,
  "Ġillegal": 4370,
  "Ġminute": 5562,
  "Ġreact": 4553,
  "rency": 4978,
  "anging": 4693,
  "Ġpresum": 8485,
  "Ġlights": 7744,
  "ney": 1463,
  "Ġbeaut": 3775,
  "ocolate": 9363,
  "Ġsty": 8965,
  "uation": 2172,
  "ides": 1466,
  "Ġtheme": 6911,
  "Ġgal": 8795,
  "esh": 8433,
  "Ġsign": 964,
  "Ġloose": 9290,
  "Ġglobal": 2689,
  "Ġview": 1481,
  "Ġpayment": 7157,
  "ĠAssociated": 9094,
  "irlfriend": 9394,
  "lp": 876,
  "ĠThen": 3550,
  "enge": 3313,
  "adelphia": 7359,
  "ã": 158,
  "Ġages": 9500,
  "Ġadvant": 3803,
  "Ġminority": 7676,
  "Ġsenator": 9091,
  "ine": 468,
  "ĠPr": 1943,
  "ĠAgency": 6945,
  "Ġresponded": 5755,
  "ĠDon": 1988,
  "Ġstopped": 4800,
  "Ġcoffee": 6782,
  "Ġperformed": 6074,
  "Ġanimal": 5159,
  "ĠParis": 5403,
  "place": 4876,
  "Ġir": 4031,
  ".)": 2055,
  "Ġcrimes": 5848,
  "com": 869,
  "ĠVe": 5349,
  "Ġsetting": 4844,
  "Ġideas": 3712,
  "idd": 1602,
  "Ġqu": 581,
  "Ġdegree": 5089,
  "Ġopened": 4319,
  "ayer": 5114,
  "Ġaway": 1428,
  "Note": 8775,
  "Ġhttps": 5571,
  "We": 982,
  "Ġsaved": 7851,
  "mitted": 3359,
  "Ġpersonnel": 7517,
  "olly": 4732,
  "aran": 4462,
  "Ġcap": 1049,
  "Ġdef": 778,
  "Ġideal": 7081,
  "Ġindepend": 3035,
  "See": 6333,
  "lah": 8509,
  "Ġann": 1292,
  "Ġhomeless": 8810,
  "ĠPer": 2696,
  "Bl": 4573,
  "Ġ6": 898,
  "Ġcorruption": 7639,
  "ological": 2706,
  "ris": 1999,
  "Ġpair": 5061,
  "ĠRed": 2643,
  "Ġop": 958,
  "Ġchild": 1166,
  "Ġdrives": 9533,
  "dden": 4931,
  "Ġexplains": 5873,
  "Ġauthorities": 4004,
  "ÃĥÃĤ": 7004,
  "Ġpos": 1328,
  "ike": 465,
  "bit": 2585,
  "Ġdepth": 6615,
  "Ġready": 3349,
  "ggest": 1733,
  "Ġbread": 9140,
  "less": 1220,
  "ŀ": 209,
  "ability": 1850,
  "g": 71,
  "Ġobjective": 9245,
  "Ġrefere": 6434,
  "PS": 4425,
  "Ġbefore": 846,
  "Ġeducational": 9752,
  "Ġcrypt": 7662,
  "ĠOnly": 6216,
  "ours": 5382,
  "kins": 4650,
  "Ġsmell": 9284,
  "ĠJason": 7977,
  "aine": 5241,
  "ĠWh": 825,
  "Ġmad": 8866,
  "oice": 9590,
  "Ġspokesperson": 8804,
  "Ġherself": 5511,
  "vers": 639,
  "sels": 8095,
  "Ġinvest": 1138,
  "ĠTex": 3096,
  "ĠMil": 4268,
  "¿": 124,
  "abled": 5844,
  "Ġpromoting": 9718,
  "Ġpass": 1143,
  "ĠJo": 5330,
  "uclear": 3223,
  "Ġball": 2301,
  "Ġexactly": 3210,
  "chool": 1129,
  "º": 119,
  "ĠUt": 7196,
  "v": 86,
  "ĠHun": 7162,
  "Ġwww": 8443,
  "Ġmov": 1267,
  "Ġaccept": 2409,
  "Ġversion": 2283,
  "ural": 1436,
  "aur": 2818,
  "Ġlove": 1842,
  "term": 3899,
  "ĠDemocrat": 1830,
  "ice": 457,
  "Ġended": 3936,
  "Ġimportant": 1442,
  "Ġrum": 6397,
  "Â": 125,
  "formation": 4798,
  "Ġstore": 2735,
  "amb": 3516,
  "Ġmission": 4144,
  "Ġrepresentative": 8155,
  "Now": 3483,
  "asty": 8343,
  "Ġmyster": 6101,
  "Ġsupporting": 5555,
  "OM": 3734,
  "Ġperfectly": 7147,
  "AA": 4281,
  "Ġpossibly": 5094,
  "ĠSpace": 5664,
  "ĠMr": 1677,
  "Ġbuilt": 2861,
  "Ġframework": 8270,
  "Ġsu": 384,
  "Ġreserv": 5313,
  "ĠTaylor": 7508,
  "Ġdownt": 6439,
  "ĠCru": 5438,
  "ented": 4193,
  "Ġfriend": 1494,
  "reens": 5502,
  "Ġregulation": 8385,
  "ho": 8049,
  "Ġdecision": 2086,
  "ough": 563,
  "IL": 4155,
  "Ġmeasured": 8865,
  "ert": 1940,
  "Ġsystems": 3111,
  "ĠOk": 7046,
  "aver": 9222,
  "Ġmist": 3756,
  "Ġanniversary": 9381,
  "azine": 4823,
  "Ġtremend": 9532,
  "ĠHe": 647,
  "ont": 791,
  "entially": 3194,
  "even": 9725,
  "Ä": 127,
  "Ġpeak": 8278,
  "ĠDet": 8850,
  "Ġawarded": 9544,
  "ĠAud": 8924,
  "7": 23,
  "Ġapparently": 5121,
  "Ġagainst": 891,
  "estic": 4180,
  "ãĤ": 4510,
  "Ġcharg": 2330,
  "ĠP": 314,
  "Ġmil": 1275,
  "ibr": 3212,
  "par": 1998,
  "Ġcom": 344,
  "ĠChild": 6748,
  "ntil": 8998,
  "ĠDO": 9313,
  "ĠMount": 6121,
  "aming": 3191,
  "Sub": 7905,
  "Ġbarrel": 8832,
  "ĠAsian": 7091,
  "ordinary": 9227,
  "irds": 6246,
  "Ġcorner": 4947,
  "Ġsub": 889,
  "RL": 9043,
  "Ġusing": 1315,
  "AM": 3253,
  "stal": 9629,
  "new": 3525,
  "ĠStill": 7592,
  "Ġdemands": 7303,
  "ĠWolf": 9507,
  "Go": 4942,
  "Ġopposed": 5673,
  "ributed": 5699,
  "Ġangry": 7301,
  "ded": 9338,
  "Ġplaying": 2334,
  "llect": 6460,
  "Ġtargeting": 9163,
  "Ġresponsible": 4223,
  "ĠElizabeth": 9907,
  "alse": 4052,
  "Ġenter": 4145,
  "ales": 1987,
  "ient": 1194,
  "ĠGi": 7405,
  "ĠAll": 1584,
  "ĠST": 5256,
  "cl": 1211,
  "ira": 8743,
  "Ġveterans": 9137,
  "ĠSports": 6303,
  "Ġconstit": 7171,
  "Ġyield": 7857,
  "Ġmiles": 4249,
  "Ġwidespread": 8125,
  "Ġmedic": 6636,
  "ĠJoseph": 7316,
  "Ġindustries": 9920,
  "ĠHen": 6177,
  "aged": 1775,
  "Ġapproximately": 6822,
  "ters": 844,
  "icon": 4778,
  "Ġdie": 4453,
  "Ġfle": 4939,
  "ĠClinton": 2068,
  "ĠNow": 2744,
  "ĠMake": 8439,
  "igen": 7789,
  "Ġfederal": 2156,
  "Ġemails": 5910,
  "ĠNext": 8220,
  "ĠTurkey": 5758,
  "Ġbroad": 2650,
  "ĠHD": 8366,
  "Ġedge": 5918,
  "amm": 5653,
  "ead": 1276,
  "Ġdollar": 7450,
  "Ġconspir": 7367,
  "ball": 1687,
  "bow": 9252,
  "Ġpen": 3100,
  "ways": 1259,
  "Ġnation": 2667,
  "Ġfast": 3046,
  "edy": 6150,
  "Ġinto": 605,
  "ĠAk": 9386,
  "Ġsuggest": 1759,
  "ous": 467,
  "Ġutil": 8092,
  "div": 9634,
  "Ġcontact": 3013,
  "Ġselect": 3388,
  "80": 3161,
  "Ġkick": 4224,
  "Ġadditional": 3424,
  "end": 353,
  "Ġpanel": 5625,
  "ĠHow": 1384,
  "Ġfavorite": 3877,
  "udd": 4182,
  "Ġcopyright": 5671,
  "aug": 6999,
  "Ġraise": 4662,
  "oval": 8525,
  "Ġreliable": 9007,
  "Ġconsumers": 5568,
  "Ġclients": 7260,
  "Ġlimited": 3599,
  "ĠSy": 1600,
  "Ġbull": 5796,
  "Ġfruit": 8666,
  "Ġzone": 5698,
  "Ġoper": 1426,
  "imate": 1698,
  "Ġremarks": 8377,
  "Ġsaf": 1822,
  "Ġwon": 1557,
  ":<|": 7928,
  "vy": 7228,
  "ceed": 2949,
  "eds": 5553,
  "agram": 7213,
  "Ġcert": 6597,
  "Ġacknow": 4867,
  "Ġincl": 7150,
  "Ġwhereas": 9589,
  "Ġfairly": 6275,
  "Ġinflation": 8747,
  "Ġwhile": 911,
  "Ġunusual": 7618,
  "Ġrefuge": 4723,
  "ator": 1507,
  "Ġstone": 8667,
  "Ġwhich": 493,
  "Ġpersonality": 8671,
  "Ġeat": 4764,
  "Ġworse": 4220,
  "Ġgreatly": 9528,
  "Ġentr": 8658,
  "Ġsec": 735,
  "But": 1265,
  "verage": 1763,
  "ĠNations": 7122,
  "Ġfifth": 7083,
  "tempt": 1919,
  "ĠLow": 9145,
  "nes": 1924,
  "Ġsilence": 9435,
  "Ġben": 1785,
  "CS": 7098,
  "Ô": 143,
  "Ġhold": 1749,
  "ĠJapan": 2707,
  "What": 1965,
  "Ġintr": 9953,
  "that": 5453,
  "Ġdeaths": 6239,
  "ield": 1181,
  "Ġrep": 1062,
  "Ġtarg": 2091,
  "Ġneighbour": 8350,
  "achel": 9833,
  "ĠHis": 2341,
  "Ġresulting": 7183,
  "Ġlegislation": 4349,
  "Ġresult": 1223,
  "cing": 2082,
  "Ġharder": 6428,
  "Ġred": 2358,
  "own": 555,
  "Ġscript": 5053,
  "ne": 643,
  "Ġstrategies": 9605,
  "Ġtrem": 8780,
  "Ġexpectations": 7699,
  "!": 1,
  "Ġnumber": 1243,
  "coh": 5177,
  "ĠChe": 3317,
  "EL": 4032,
  "ster": 1708,
  "made": 9046,
  "Ġteacher": 6870,
  "iers": 3208,
  "ester": 8200,
  "Ġtraining": 2999,
  "Ġnever": 1175,
  "Ġwealth": 4396,
  "Ġpref": 8633,
  "Phone": 5640,
  "ĠJapanese": 4879,
  "Ġourselves": 5946,
  "Ġreplied": 9009,
  "ured": 1445,
  "Ġtournament": 6532,
  "ĠTri": 8646,
  "ĠCommission": 4196,
  "Ġst": 294,
  "Ġpassed": 3499,
  "Ġtot": 1986,
  "Ġremained": 5424,
  "raph": 7611,
  "She": 3168,
  "ult": 553,
  "Ġdefine": 8261,
  "Ġbasketball": 7748,
  "Ġdangerous": 4499,
  "ĠAsia": 6279,
  "ologists": 8143,
  "ĠRights": 6371,
  "Ġconcern": 4675,
  "ĠPhoto": 5456,
  "ention": 1121,
  "ĠAcc": 8590,
  "mp": 3189,
  "fore": 736,
  "Ġconvinced": 8185,
  "ject": 751,
  "edia": 5530,
  "Ġloc": 1134,
  "ĠY": 586,
  "Ġkm": 8678,
  "itable": 4702,
  "host": 5770,
  "ross": 1161,
  "Ġalong": 1678,
  "ĠFootball": 8852,
  "ĠScottish": 9539,
  "ĠPat": 3060,
  "Ġlibrary": 6307,
  "ĠMer": 4748,
  "ĠFree": 5559,
  ".âĢĿ<|": 5279,
  "Ġwords": 2474,
  "Ġwatch": 2162,
  "itol": 9563,
  "ĠChicago": 4101,
  "Ġfollows": 6106,
  "Ġmed": 996,
  "hetic": 6412,
  "Ġradical": 6114,
  "ixed": 8764,
  "ursday": 2779,
  "ĠFriday": 2632,
  "Ġwhose": 2764,
  "Ġmarriage": 4332,
  "dri": 8680,
  "Ġprovides": 4125,
  "Ġnecessarily": 6084,
  "odox": 9901,
  "ĠPolit": 6789,
  "Ġovers": 8538,
  "Ġrent": 5569,
  "Ġperpet": 8100,
  "Ġunderstand": 1718,
  "Ġtouchdown": 8388,
  "Ġexhib": 6804,
  "Ġblack": 2003,
  "ĠWW": 8595,
  "gered": 9794,
  "Ġdepends": 8639,
  "airs": 3478,
  "lymp": 5496,
  "\",": 2824,
  "ĠRoman": 7380,
  "mber": 1621,
  "ammed": 8592,
  "ref": 7649,
  "Ġpicks": 9457,
  "Ġinte": 930,
  "ĠState": 1755,
  "ĠDefense": 6714,
  "ĠHel": 6499,
  "Ġrecall": 9142,
  "Ġrespons": 2297,
  "Ġtransfer": 4530,
  "Ġorganization": 3547,
  "ros": 4755,
  "arc": 2402,
  "Î": 137,
  "ĠBook": 5573,
  "Ġguide": 6540,
  "Cons": 8889,
  "ĠMORE": 9606,
  "board": 3677,
  "Ġreality": 3400,
  "ĠMach": 9214,
  "20": 1130,
  "Ġfate": 9423,
  "ĠIndia": 3101,
  "Ġinvestigators": 8531,
  "J": 42,
  "Ġengine": 2856,
  "zens": 7051,
  "Ġcustomer": 6431,
  "Ġinstruct": 5730,
  "Ġboy": 2872,
  "Ġintense": 7585,
  "fort": 3376,
  "Ġpropag": 7643,
  "60": 2605,
  "Ġstandards": 5036,
  "Ġtall": 7386,
  "Ġdisplay": 3718,
  "Ġpred": 2457,
  "ulture": 6787,
  "Ġhor": 3018,
  "ructure": 2873,
  "Ġsequ": 4718,
  "ilit": 5839,
  "ĠSanders": 4429,
  "abil": 8231,
  "Ġneighborhood": 5091,
  "Ġreach": 2956,
  "Today": 7338,
  "ethe": 9513,
  "pped": 1503,
  "Ġround": 2854,
  "28": 3746,
  "aw": 654,
  "itutional": 4901,
  "eter": 2575,
  "ĠRec": 3880,
  "amily": 6613,
  "Even": 5228,
  "oster": 7021,
  "ish": 670,
  "Ġproblem": 1726,
  "Ġcommunication": 6753,
  "Ġassault": 4122,
  "reedom": 3171,
  "FO": 9632,
  "Ġaddressed": 8650,
  "Ġnearby": 6122,
  "4": 20,
  "Ġra": 1610,
  "Ġfired": 5310,
  "dom": 3856,
  "ĠNever": 8317,
  "ĠForce": 5517,
  "ibilities": 7489,
  "Ġkeys": 9341,
  "Ġacc": 652,
  "ĠHist": 6349,
  "Ġdiscovered": 4581,
  "Ġtrail": 5223,
  "Ġreasonable": 7114,
  "Ġob": 925,
  "duct": 2434,
  "Ġmanaged": 4824,
  "erman": 1916,
  "Ġcurrent": 1356,
  "ĠScott": 4021,
  "Ġdestruction": 7934,
  "riend": 1256,
  "Ġrather": 1978,
  "Ġretired": 8060,
  "olution": 2040,
  "Well": 5675,
  "`": 64,
  "Ġconspiracy": 8527,
  "rations": 6720,
  "where": 2356,
  "anna": 8316,
  "Ġprior": 3113,
  "Ġaccurate": 7270,
  "Ġ42": 7221,
  "ĠBa": 8759,
  "SS": 5647,
  "olving": 9986,
  "Ġrecord": 1490,
  "rence": 6712,
  "Ġrequire": 2745,
  "Ġcor": 1120,
  "Ð¾": 4105,
  "Ġtask": 4521,
  "Ġreduce": 4397,
  "Ġrules": 3023,
  "ĠPerhaps": 8026,
  "Ġmoving": 3544,
  "ole": 2433,
  "lish": 2257,
  "Ġmother": 2728,
  "roup": 910,
  "Ġestim": 3587,
  "raig": 9607,
  "Ġespecially": 2363,
  "left": 9789,
  "Ġsucceed": 6236,
  "Ġskills": 4857,
  "ĠNe": 2551,
  "Ġprecisely": 9541,
  "Ġsignificant": 2259,
  "Ġcombined": 5613,
  "Ġdesigned": 3447,
  "anger": 2516,
  "Ġregular": 3882,
  "Ġinterest": 1266,
  "Ġmonitoring": 8982,
  "oking": 5680,
  "Ġwhere": 750,
  "known": 4348,
  "ctors": 4531,
  "Ġnoise": 8382,
  "ĠRoll": 9989,
  "74": 8609,
  "OC": 6357,
  "34": 4518,
  "Ġgave": 2738,
  "Ġheadquarters": 8897,
  "Ġgonna": 7972,
  "like": 2223,
  "Ġincome": 3702,
  "ularly": 2463,
  "Ġang": 3711,
  "ĠWeek": 6143,
  "cent": 977,
  "Ġhumanity": 8492,
  "Ġtopic": 6944,
  "Ġfr": 1047,
  "post": 6760,
  "Ġsy": 798,
  "Ġoutrage": 9392,
  "orial": 4163,
  "nder": 650,
  "TH": 5369,
  "Ġshort": 1681,
  "----": 1535,
  "iety": 1804,
  "ided": 1346,
  "Ġseek": 3125,
  "oca": 9954,
  "raid": 6952,
  "Ġhal": 9493,
  "aled": 5658,
  "Ġhanded": 8619,
  "Ġimprove": 2848,
  "Ġfrequently": 6546,
  "ila": 8730,
  "Ġ2008": 3103,
  "Ġtitled": 9240,
  "Ġrail": 5962,
  "¯": 108,
  "Ġemissions": 7022,
  "Ġpromise": 6380,
  "ĠGovernor": 9261,
  "luding": 6662,
  "ĠRoad": 5687,
  "Ġdisrupt": 8577,
  "Ġquant": 5734,
  "Ġentertain": 5747,
  "urs": 1421,
  "Ġconnection": 4912,
  "PD": 5645,
  "geon": 8603,
  "Ġmine": 6500,
  "Ġ2018": 4817,
  "Ġbringing": 5340,
  "ĠPack": 8103,
  "Ġtime": 589,
  "Ġbreak": 2222,
  "ATE": 7755,
  "Ġweigh": 9346,
  "lim": 2209,
  "ĠFed": 8063,
  "Ġprop": 1649,
  "Ġmoment": 2419,
  "Ġmarketing": 6339,
  "ob": 621,
  "ĠRun": 9427,
  "odies": 4945,
  "arsh": 5046,
  "uts": 5607,
  "Ġfore": 1538,
  "icide": 4969,
  "Ġregularly": 7191,
  "Ġmanufact": 3884,
  "Ġproduct": 1740,
  "Ġeager": 9888,
  "ccording": 2378,
  "ĠKick": 9955,
  "Ġcombination": 6229,
  "ĠAlex": 4066,
  "essee": 9518,
  "ĠYeah": 9949,
  "Ġmodels": 4803,
  "Ġ00": 8025,
  "Ġhelic": 9787,
  "only": 9006,
  "Ġseem": 1199,
  "Ġconscious": 7337,
  "ault": 2089,
  "erves": 9981,
  "Å": 128,
  "Õ": 144,
  "ĠVictor": 7271,
  "elect": 7773,
  "rimin": 9026,
  "Ġdeveloped": 3751,
  "Ġmini": 9380,
  "Ġins": 985,
  "ange": 839,
  "Ġhome": 1212,
  "Ġdivided": 8769,
  "Ġblind": 7648,
  "ĠMo": 4016,
  "Ġpath": 3307,
  "ownt": 5574,
  "ĠMar": 1477,
  "ur": 289,
  "Ġethnic": 8136,
  "ise": 702,
  "ship": 7219,
  "Ġroy": 9876,
  "Ġplayer": 2021,
  "Other": 5949,
  "Ġthorough": 9275,
  "cess": 934,
  "Ġremote": 6707,
  "Ġserious": 3146,
  "ohn": 1369,
  "ĠNational": 2033,
  "Ġporn": 8637,
  "ĠTrade": 9747,
  "Ġdirectly": 3393,
  "Ġmessage": 3165,
  "Ġtroub": 7610,
  "Ġplane": 6230,
  "ĠGaza": 8631,
  "gen": 4107,
  "Ġmistakes": 8811,
  "Ġbes": 7578,
  "â": 157,
  "Ġportray": 8801,
  "Ġfailing": 8328,
  "tt": 1250,
  "ave": 992,
  "ĠWales": 9815,
  "Ġinst": 932,
  "83": 9545,
  "ĠKim": 6200,
  "aza": 6061,
  "Ġwar": 1090,
  "ants": 1168,
  "Ġarbit": 9406,
  "Ġclassified": 9067,
  "Ġflags": 9343,
  "ĠAND": 8272,
  "Ġdecide": 5009,
  "Ġway": 763,
  "Ġthinking": 3328,
  "Ġstatus": 3907,
  "iles": 3382,
  "Ġfeed": 3691,
  "Ġtyp": 2295,
  "Ġcoc": 8561,
  "ana": 2095,
  "American": 6133,
  "ĠWilliams": 5541,
  "Ġassume": 6883,
  "Ġphilosophy": 7957,
  "abb": 5128,
  "ĠThat": 1197,
  "Ġrec": 597,
  "Ġstated": 4525,
  "nic": 6517,
  "Ġbeen": 505,
  "oday": 3876,
  "ĠApril": 2645,
  "aning": 7902,
  "Ġsufficient": 7525,
  "Ġbit": 1579,
  "atory": 2906,
  "idering": 5026,
  "Ġinstructions": 9440,
  "point": 4153,
  "tes": 7641,
  "ĠFort": 7014,
  "Ġdoing": 1609,
  "Ġde": 321,
  "Ġhand": 1024,
  "x": 88,
  "ĠIt": 592,
  "Ġletting": 9055,
  "iv": 416,
  "Ġconsistent": 6223,
  "Ġstepped": 9517,
  "Ġthan": 557,
  "ateral": 9778,
  "Ġconstant": 6989,
  "let": 1679,
  "ĠPay": 7832,
  "ĠIs": 1048,
  "Ġpushing": 6552,
  "ĩ": 186,
  "Ġcauses": 6027,
  "ial": 451,
  "ited": 796,
  "Ġenormous": 8466,
  "Ġtrillion": 9580,
  "igr": 3122,
  "ĠDo": 2571,
  "Ġrepe": 2903,
  "Ġodd": 5286,
  "Ġorganized": 7357,
  "ially": 1692,
  "ays": 523,
  "ĠArab": 3783,
  "ĠList": 9209,
  "usalem": 9225,
  "Ġsynt": 8005,
  "Ġmir": 6120,
  "Ġblock": 2430,
  "Ġestate": 7323,
  "rix": 9790,
  "ĠPakistan": 4836,
  "Ġalso": 556,
  "Ġlim": 1801,
  "Ġbear": 7017,
  "Meanwhile": 7876,
  "Ð¸": 5434,
  "Ġhelped": 3518,
  "Ġinteraction": 9998,
  "van": 9474,
  "Ġrooms": 9390,
  "Ġcontribute": 8135,
  "AT": 1862,
  "ľ": 207,
  "Ġrating": 7454,
  "Ġanxiety": 9324,
  "ĵ": 198,
  "ĠTim": 4831,
  "Ġcomplete": 1914,
  "Ġsurrounding": 6698,
  "ĠDr": 2458,
  "Ġspr": 7682,
  "Ġabsence": 8517,
  "Ġextension": 7637,
  "Ġguns": 5893,
  "Ġcode": 2486,
  "Ġhire": 9931,
  "range": 4952,
  "Ġcan": 435,
  "minist": 1915,
  "MS": 7358,
  "Ġcenturies": 9663,
  "Ġ95": 9317,
  "Ġspeaking": 4989,
  "Ġidentify": 5566,
  "ests": 2680,
  "06": 6765,
  "Ġsuccess": 1683,
  "0": 16,
  "Ġcustomers": 3750,
  "Ġpun": 3897,
  "Ġfind": 1052,
  "Ġtalking": 3048,
  "Ġtele": 5473,
  "Ġfundra": 9803,
  "Ġminutes": 2502,
  "ĠVik": 9744,
  "Ġmeat": 6507,
  "Ġappropriate": 5907,
  "augh": 1519,
  "yer": 8904,
  "Ġsubject": 2674,
  "Ġfunded": 8893,
  "Ġmicro": 4479,
  "stand": 1389,
  "Ġimpro": 1887,
  "ĠTre": 4655,
  "Ġtrend": 4520,
  "ĠOF": 6562,
  "Ġthrown": 8194,
  "vertisements": 9646,
  "44": 4300,
  "Rep": 5760,
  "Ġeconom": 1325,
  "ĠBit": 4203,
  "Ġclinical": 9724,
  "Ġshipping": 9906,
  "Ġexecutives": 9575,
  "Ġusually": 3368,
  "Ġthus": 4341,
  "rive": 6649,
  "osing": 2370,
  "ĠJones": 4624,
  "Ġformat": 6736,
  "Ġassist": 3326,
  "Ò": 141,
  "Ġsurve": 3159,
  "Ġanswer": 3190,
  "ĠÂ£": 3683,
  "Ġcircumst": 5864,
  "ĠCarol": 4515,
  "Ġpractical": 8157,
  "Ġin": 243,
  "nedy": 8244,
  "Ġsensitive": 8152,
  "Ġid": 5639,
  "Ġrestaur": 4543,
  "idespread": 7937,
  "Ġreading": 3356,
  "Ġera": 5377,
  "Ġscored": 6234,
  "Ġplayers": 1613,
  "Although": 6063,
  "ĠAndre": 9869,
  "outhern": 4302,
  "Ġconsideration": 9537,
  "ax": 920,
  "Ġplayoff": 6102,
  "ew": 518,
  "Ġshortly": 7700,
  "Ġ100": 2228,
  "Ġvictims": 4407,
  "meric": 792,
  "ion": 254,
  "Ġ10": 1000,
  "ĠSon": 9851,
  "Ġpropos": 4061,
  "Ġoptim": 5743,
  "Ġkeeping": 4862,
  "sect": 9468,
  "People": 6678,
  "Ġultimately": 5149,
  "Ġvulnerable": 7526,
  "av": 580,
  "ĠUk": 4409,
  "ĠâĢĶ": 708,
  "ĠGree": 4713,
  "Ġsince": 1083,
  "sters": 6951,
  "ever": 948,
  "aki": 9653,
  "Ġsorts": 9374,
  "Ġcow": 9464,
  "orld": 1772,
  "Ġpolicy": 2000,
  "Ġnon": 1742,
  "Ġmight": 1170,
  "ember": 2549,
  "Ġexpensive": 5182,
  "Ġro": 636,
  "ĠArabia": 8171,
  "Ġleading": 3263,
  "Ġproposal": 5364,
  "ĠPy": 6687,
  "Ġfees": 6928,
  "enter": 9279,
  "Be": 3645,
  "Ġreturned": 4415,
  "Ġfinger": 7982,
  "Ġ}": 2945,
  "Ġpublished": 2715,
  "ĠPrime": 5117,
  "ittle": 6445,
  "Ġwa": 2121,
  "::": 7787,
  "Ġemphas": 5908,
  "Ġfreedom": 4007,
  "mans": 9239,
  "Ġotherwise": 4890,
  "Ġmand": 5840,
  "Ġmovie": 3254,
  "Ġjournal": 3182,
  "stein": 5123,
  "Ġflash": 8113,
  "itness": 3964,
  "cept": 1005,
  "Ġfraud": 6351,
  "36": 4336,
  "ipping": 5432,
  "Ġfeel": 1204,
  "Ġbeliefs": 7932,
  "sh": 1640,
  "irth": 3488,
  "Ġprivacy": 5611,
  "ress": 551,
  "ork": 897,
  "Ġtim": 4686,
  "ĠAmazon": 5277,
  "Ã¤": 5791,
  "eff": 3176,
  "br": 1658,
  "Ġhaven": 3963,
  "mates": 5952,
  "ĠSu": 2112,
  "viron": 2041,
  "100": 3888,
  "Ġturns": 5095,
  "iding": 2450,
  "ML": 7148,
  "Ġimp": 793,
  "'s": 382,
  "Ġraised": 3960,
  "pect": 743,
  "oo": 3055,
  "Ġoften": 1553,
  "ild": 651,
  "Ġchoose": 4094,
  "ĠCity": 2064,
  "Ġ$": 721,
  "58": 7218,
  "Ġpolitically": 9181,
  "ghan": 4438,
  "Ġeffort": 3137,
  "Ġstrikes": 7782,
  "ureau": 5397,
  "ĳ": 196,
  "Ġske": 6053,
  "Ġprovince": 7190,
  "atell": 6455,
  "ĠCard": 6560,
  "Ġearned": 6533,
  "Ġdad": 8853,
  "/": 15,
  "Ġmon": 849,
  "Ġconfig": 6208,
  "Ġbureau": 8511,
  "ĠRub": 5362,
  "EM": 4513,
  "Ġwhen": 572,
  "ver": 288,
  "Ġspell": 9652,
  "Ġsimultane": 9559,
  "Ġarea": 1913,
  "Ġprosec": 8341,
  "ĠiOS": 8277,
  "Ġpresidential": 3633,
  "AF": 9923,
  "Ġrefugees": 6819,
  "Ġfield": 2128,
  "Ġprin": 5903,
  "chan": 3569,
  "Ġlooking": 1909,
  "Ġfunction": 2492,
  "used": 1366,
  "Ġremember": 3448,
  "Ġowned": 6567,
  "Ġterr": 9941,
  "Ġsour": 1808,
  "Ġapplications": 5208,
  "istic": 2372,
  "Ġfiles": 4821,
  "ĠWik": 6509,
  "cow": 7031,
  "Ġre": 259,
  "âĢĶ": 877,
  "ĠGold": 3932,
  "Ġoverwhelming": 8192,
  "Ġdial": 5963,
  "band": 3676,
  "´": 113,
  "Ġdifference": 3562,
  "Ġpri": 1208,
  "owl": 4881,
  "ĠSqu": 5815,
  "39": 4762,
  "Ġbroadcast": 5757,
  "self": 936,
  "Ġstuck": 7312,
  "now": 2132,
  "Ġhell": 6056,
  "Ġwonder": 4095,
  "Ġrelax": 9402,
  "amed": 1995,
  "ela": 9103,
  "Ġeyes": 3592,
  "ems": 7808,
  "oc": 383,
  "Ġdoubt": 4452,
  "aren": 5082,
  "Ġtut": 9963,
  "51": 7834,
  "Ġrate": 2535,
  "Ġdifficult": 2271,
  "Ġrule": 3801,
  "Ġpermission": 7746,
  "Ġoffice": 2232,
  "rient": 8158,
  "Ġvol": 2529,
  "Ġsocial": 1632,
  "ĠDown": 6625,
  "C": 35,
  "Ġspecial": 2018,
  "ĠVideo": 9858,
  "Ġteen": 5275,
  "Ġrelations": 2145,
  "Ġhad": 485,
  "Ġcreative": 6242,
  "osit": 8306,
  "ĠWest": 2366,
  "ĠAmendment": 7770,
  "Ġminimum": 5506,
  "ĠCameron": 8339,
  "name": 6528,
  "Ġsmooth": 8059,
  "Ġclothes": 8618,
  "Ġcomes": 1852,
  "Ġtrust": 3622,
  "ĥ": 182,
  "Ġaffected": 5462,
  "Ġpossession": 7595,
  "ronic": 4792,
  "Ġvia": 2849,
  "\\": 60,
  "Ġped": 6958,
  "Ġgrade": 9664,
  "lla": 7561,
  "ĠSat": 8076,
  "Ġcovering": 8724,
  "ĠScot": 5897,
  "ĠAut": 6511,
  "raud": 5676,
  "Ġ46": 8105,
  "ĠSant": 5463,
  "ĠInte": 4181,
  "ï": 170,
  "lahoma": 8937,
  "Ġdefined": 6328,
  "wit": 1372,
  "Ġrece": 1357,
  "ruption": 5596,
  "avy": 2871,
  "Photo": 4956,
  "Ġattorney": 5268,
  "etary": 7615,
  "Ġfindings": 5866,
  "Ġ1997": 8355,
  "sembly": 6156,
  "Ġtons": 9932,
  "Ġmor": 1944,
  "ĠâĢ¦": 3440,
  "imin": 3109,
  "ĠGood": 5007,
  "%)": 6611,
  "aper": 1991,
  "Ġracing": 9824,
  "Ġobvious": 4805,
  "Ġanal": 1902,
  "Ġtri": 1262,
  "ca": 7947,
  "Ġamazing": 4965,
  "ĠThere": 1299,
  "Ġha": 328,
  "Ġordered": 5852,
  "Ġcaptain": 8348,
  "eping": 7133,
  "ulous": 6459,
  "eal": 2202,
  "Ġamid": 8593,
  "ideo": 6226,
  "al": 239,
  "ĠJournal": 5381,
  "Ġrobot": 8087,
  "ret": 1191,
  "Ġassigned": 9620,
  "ID": 3723,
  "oper": 3360,
  "iance": 3825,
  "Ġcars": 4111,
  "Ġpl": 413,
  "Ġcontrolled": 6936,
  "raz": 2994,
  "Ġveh": 2953,
  "ĠGary": 9842,
  "Ġmount": 4115,
  "omin": 6171,
  "Ġbegun": 8089,
  "Ġcovers": 8564,
  "Ġattached": 8398,
  "ĠLink": 9612,
  "pired": 5495,
  "awn": 5016,
  "David": 9256,
  "r": 82,
  "Ġvery": 808,
  "Ġneeds": 2292,
  "ĠFred": 7923,
  "oy": 691,
  "col": 5483,
  "________________": 7906,
  "O": 47,
  "Ġnormal": 3900,
  "outs": 4875,
  "Ġult": 3285,
  "Ġpaid": 3211,
  "Ġreve": 2465,
  "Ġinvent": 8170,
  "ples": 2590,
  "ĠYet": 5830,
  "Ġprogramme": 9062,
  "Ġfeaturing": 8224,
  "iry": 8420,
  "Ġassociation": 8097,
  "Ġperformance": 2826,
  "Ġzero": 6420,
  "BA": 4207,
  "osite": 5637,
  "Ġclean": 3501,
  "ĠDead": 7679,
  "Ġadopted": 7633,
  "cher": 4102,
  "ache": 5751,
  "anch": 3426,
  "Ġexecutive": 3649,
  "ĠWalker": 8364,
  "Ġconstruction": 4683,
  "Ġviolent": 5836,
  "Ġyet": 1746,
  "RC": 8540,
  "ĠFull": 8156,
  "Ġ+": 2581,
  "Ġthick": 7707,
  "Ġcontained": 7999,
  "red": 408,
  "ĠBudd": 8491,
  "Ġcyber": 7838,
  "Ġbr": 819,
  "ĠOrig": 9079,
  "Ġdriven": 7110,
  "Ġ?": 9716,
  "ĠSh": 1065,
  "verty": 6899,
  "Ġsmartphone": 9308,
  "Ġedit": 1461,
  "Ġignore": 8412,
  "off": 2006,
  "Ġfled": 9942,
  "Ġlawyer": 5965,
  "Sec": 7215,
  "Ġ15": 1625,
  "Ġgrew": 5493,
  "Ġbroader": 9339,
  "isa": 9377,
  "uana": 3966,
  "ĠSydney": 9591,
  "oke": 2401,
  "agic": 9024,
  "Ste": 5454,
  "Ġdoctor": 6116,
  "pread": 7889,
  "iew": 769,
  "Ġthreatened": 7134,
  "iel": 7833,
  "TS": 6010,
  "Ġdaughter": 4560,
  "\".[": 8729,
  "Ġclock": 8938,
  "Ġdismissed": 9076,
  "Ġy": 295,
  "Ġtail": 8187,
  "AP": 3615,
  "Ġdom": 2299,
  "Ġanybody": 8262,
  "Ġmobile": 4439,
  "cohol": 5550,
  "Ġpresented": 5254,
  "Ġalternative": 5105,
  "umin": 7944,
  "tery": 4698,
  "Ġremark": 6154,
  "cc": 488,
  "ĠJohnson": 4317,
  "Ġcomfortable": 6558,
  "Ġbeer": 5049,
  "Ġbeautiful": 5186,
  "Ġscientific": 5047,
  "ĠPutin": 6549,
  "Ġcurrency": 6363,
  "sea": 7169,
  "ĠChelsea": 9704,
  "Ġ(@": 3397,
  "ĠRoyal": 7842,
  "Ġartist": 6052,
  "Ġfulf": 8519,
  "nesota": 7010,
  "ributes": 9614,
  "ĠBel": 3709,
  "Ġproject": 1397,
  "otes": 7245,
  "Ġsecret": 2890,
  "Ġtrain": 4245,
  "02": 6871,
  "Ġslight": 3997,
  "Ġsp": 535,
  "Ġprov": 908,
  "cers": 7015,
  "Ġphotos": 4926,
  "Ġcolon": 7106,
  "ĠMad": 4494,
  "icult": 2054,
  "Ġreb": 3067,
  "ionally": 5902,
  "cially": 1935,
  "ici": 4636,
  "uster": 5291,
  "Ġso": 478,
  "Ġdescrib": 2075,
  "Ġ1970": 6784,
  "Ġbanking": 9205,
  "mine": 4171,
  "ĠBuff": 8833,
  "Ġpartnership": 8899,
  "Ġcreation": 5816,
  "Ġweather": 5809,
  "Ġim": 492,
  "ĠD": 339,
  "Ġpro": 333,
  "ad": 281,
  "gent": 6109,
  "Ġour": 618,
  "Ġsuit": 5655,
  "ube": 3692,
  "ĠTw": 7244,
  "Ġ35": 4375,
  "ĠTem": 7224,
  "etro": 3684,
  "enny": 8112,
  "ĠRem": 5522,
  "rec": 8503,
  "onents": 3778,
  "Ġweekend": 4051,
  "Ġabandon": 6115,
  "Ġdays": 1468,
  "Ġboot": 7203,
  "Ġheads": 6253,
  "aign": 1395,
  "Ġthemselves": 2231,
  "org": 3944,
  "ession": 2934,
  "Ġ\"": 445,
  "Ġpatients": 3996,
  "Ġ//": 5750,
  "ils": 4991,
  "this": 7620,
  "ĠShow": 5652,
  "Ġrequest": 3336,
  "Ġsecure": 5412,
  "ĠTHE": 4856,
  "away": 8027,
  "Ġtext": 2851,
  "agger": 9929,
  "Ġagents": 5899,
  "Rec": 7653,
  "Ġcommon": 2296,
  "Ġhitting": 8041,
  "Ġpreced": 8588,
  "endment": 5374,
  "ĠCalif": 2741,
  "Ġexpected": 2548,
  "Ġsuspects": 9785,
  "Ġorganizations": 4995,
  "ru": 560,
  "fund": 9047,
  "gor": 6663,
  "Ġ2012": 2188,
  "ĠChrist": 1802,
  "Ġformation": 9597,
  "ĠCH": 8796,
  "Ġcommand": 3552,
  "Ġofficials": 2185,
  "EA": 7549,
  "ined": 1337,
  "Ġmole": 9185,
  "Ġded": 4558,
  "Pre": 9768,
  "Ġappoint": 5247,
  "oty": 5380,
  "Ġ55": 7397,
  "Ġworld": 882,
  "Ġproposed": 4264,
  "Ġimpl": 4029,
  "ĠAbb": 8970,
  "Ġindustrial": 6418,
  "mer": 538,
  "orn": 1221,
  "Ġpip": 6564,
  "test": 7724,
  "Ġpe": 525,
  "Ġthousand": 7710,
  "Ġfee": 7816,
  "ais": 9149,
  "Ġvictim": 2850,
  "ve": 261,
  "Ġscen": 4009,
  "ief": 1867,
  "<|endoftext|>": 0,
  "ĠTro": 8702,
  "po": 6443,
  "Ġcul": 9229,
  "Ġburning": 9549,
  "enders": 7041,
  "anges": 6843,
  "Ġbitcoin": 7540,
  "Ġbecom": 2671,
  "Ġbenefit": 4103,
  "ĠViet": 7552,
  "14": 2067,
  "Ġyear": 515,
  "Ġformed": 6506,
  "pty": 6251,
  "Ġmechan": 4010,
  "Ġinfect": 5436,
  "Ġfeature": 3652,
  "Ġdriver": 4576,
  "Ġ1990": 5528,
  "ilty": 5881,
  "Ġinstrument": 8823,
  "Ġservice": 2106,
  "43": 5832,
  "foot": 6600,
  "Ġdemonst": 3316,
  "Ġinc": 522,
  "Trump": 4903,
  "Ġunivers": 5109,
  "ĠCommittee": 4172,
  "ĠOffice": 4239,
  "ĠGeorge": 3832,
  "pm": 5042,
  "Ġ32": 5032,
  "tle": 817,
  "boy": 6731,
  "ĠLittle": 8314,
  "Ġdiscl": 5672,
  "imore": 7959,
  "Ġte": 501,
  "Ġaspect": 4612,
  "minute": 9321,
  "ative": 815,
  "ĠAge": 9095,
  "Ġgraph": 4833,
  "Ġwhenever": 9151,
  "tee": 2246,
  "ourse": 8580,
  "ĠPar": 2546,
  "ĠAnthony": 8376,
  "Ġroster": 7352,
  "icer": 7206,
  "Ġcopy": 3570,
  "Ġflex": 7052,
  "ilarly": 7293,
  "ĠBrad": 6813,
  "Ġpasses": 7459,
  "ibility": 2191,
  "ĠCat": 7160,
  "then": 8016,
  "Ġinstalled": 7499,
  "Ġborder": 4162,
  "rist": 1434,
  "fl": 3272,
  "Ġentitled": 9106,
  "Ġring": 6650,
  "Ġtestim": 8325,
  "2015": 8858,
  "thew": 7441,
  "oint": 1580,
  "Ġcomprom": 7060,
  "alties": 9960,
  "ĠDistrict": 5196,
  "ora": 6493,
  "esters": 5753,
  "Ġdeb": 1526,
  "Ġexperiences": 5854,
  "Ġ1994": 8915,
  "ĠRevolution": 8557,
  "achusetts": 8233,
  "ug": 1207,
  "Ġhabit": 7438,
  "itudes": 9844,
  "Ġputting": 4466,
  "ĠMaybe": 6277,
  "Ġtests": 5132,
  "Ġmention": 2976,
  "cut": 9025,
  "Ġho": 7742,
  "Ġgar": 5225,
  "ky": 2670,
  "ications": 4811,
  "Ġpret": 2045,
  "ĠWindows": 4343,
  "New": 3707,
  "aun": 7086,
  "Ġcomment": 2573,
  "ory": 615,
  "Ġwh": 301,
  "ĠPA": 9311,
  "ja": 7946,
  "opy": 6370,
  "emen": 7407,
  "93": 9161,
  "Ġprincip": 8630,
  "Ġser": 986,
  "ORE": 6559,
  "Ġsurround": 4329,
  "cles": 7664,
  "Ġfear": 2954,
  "Ġwild": 4104,
  "Ġwest": 6824,
  "endoftext": 661,
  "ou": 237,
  "ard": 415,
  "ĠNBC": 7479,
  "xt": 495,
  "Ġat": 327,
  "ow": 282,
  "ĠAfrican": 4705,
  "icken": 7064,
  "oret": 9367,
  "mb": 2092,
  "Ġthing": 1394,
  "ĠRepublican": 2472,
  "ĠAnn": 6427,
  "ĠHospital": 8610,
  "Ġacquired": 8880,
  "Ġadds": 6165,
  "Ġgenuine": 7852,
  "Ġhistory": 1845,
  "ansion": 5176,
  "ĠObamacare": 9350,
  "Ġopening": 4219,
  "Ġintention": 6450,
  "ji": 8990,
  "Ġ@": 2766,
  "Ġshot": 2579,
  "ĠCross": 7333,
  "Ġus": 479,
  "Ġreverse": 9349,
  "Ġup": 464,
  "Ġwrites": 5714,
  "a": 65,
  "Ġcamer": 3355,
  "Ġpus": 3674,
  "Ġdry": 6830,
  "Ġpatterns": 7546,
  "ĠInstagram": 9722,
  "40": 2800,
  "63": 8883,
  "Ġsolution": 4211,
  "Ġappeared": 3703,
  "Ġtechniques": 7422,
  "ĠIf": 1127,
  "Ġseriously": 5610,
  "Ġdollars": 4206,
  "Ġbigger": 4976,
  "pted": 5632,
  "MA": 5944,
  "Ġsoph": 8327,
  "ĠMany": 4356,
  "ii": 6323,
  "Ġconst": 1478,
  "ĠConst": 4809,
  "Ġmaximum": 6849,
  "ĠAfric": 2817,
  "icle": 1588,
  "Ġsomehow": 6977,
  "eters": 8930,
  "Ġiniti": 4742,
  "Ġconver": 6865,
  "ĠBroad": 8696,
  "rep": 7448,
  "cest": 9665,
  "ĠBas": 7231,
  "aph": 3080,
  "Ġmarked": 7471,
  "Ġpermit": 8789,
  "Ġagency": 3463,
  "iences": 8684,
  "Ġstorm": 5707,
  "Ġprojects": 3791,
  "rible": 5278,
  "rief": 3560,
  "18": 2327,
  "Ġ197": 2628,
  "eder": 5317,
  "ĠCub": 6284,
  "IC": 3106,
  "Ġachie": 3086,
  "p": 80,
  "Ġo": 224,
  "Ġmetal": 6396,
  "ĠRead": 5982,
  "Ġsubstantial": 8489,
  "Ġsemi": 9582,
  "mad": 8403,
  "Ġviolence": 3152,
  "Ġcamp": 1160,
  "Ġgained": 7815,
  "ĠMuseum": 8461,
  "ĠMe": 2504,
  "ampionship": 4547,
  "Ġseries": 1851,
  "Ġsnow": 6338,
  "Ġtheories": 9696,
  "Ġproperly": 6885,
  "idents": 3007,
  "ures": 941,
  "ĠJordan": 7126,
  "Ġelection": 2385,
  "Z": 58,
  "text": 630,
  "Per": 6577,
  "Ġstat": 2220,
  "ĠSir": 8209,
  "Ġwants": 2918,
  "Ġ:": 2042,
  "Ġafraid": 7573,
  "Ġestablishment": 7814,
  "Ġyesterday": 6119,
  "stood": 6237,
  "verse": 4920,
  "Ġcollected": 7534,
  "pir": 3105,
  "Ġupgr": 5695,
  "ore": 332,
  "ĠComm": 1923,
  "hens": 4932,
  "Ġkit": 6274,
  "ĠSea": 7145,
  "Ġfuture": 1710,
  "Ġtrue": 2251,
  "ĠDaniel": 7061,
  "Ī": 187,
  "enda": 5994,
  "iscal": 7375,
  "Äĥ": 9359,
  "Ġbirth": 4030,
  "right": 2308,
  "iet": 1117,
  "Mar": 7743,
  "ĠVan": 6711,
  "ase": 582,
  "Ã¡": 4885,
  "Out": 9765,
  "enez": 9234,
  "ocation": 6954,
  "Ġ2014": 1903,
  "aria": 9683,
  "Ġcriminal": 3830,
  "ĠMuslims": 5913,
  "mittee": 3968,
  "gar": 4911,
  "ĠFor": 1178,
  "ĠDark": 7180,
  "ĠTra": 5898,
  "aga": 9119,
  "ĠCent": 1838,
  "hand": 5289,
  "Ġjudge": 4129,
  "ĠBerlin": 9611,
  "Ġpet": 5024,
  "Ġlater": 1381,
  "Ġsix": 1910,
  "ifying": 3958,
  "lets": 5307,
  "ĠGar": 6480,
  "other": 809,
  "ĠWal": 5860,
  "otten": 7252,
  "ENT": 5431,
  "uc": 1141,
  "ĠRuss": 1578,
  "Ġworry": 5125,
  "unch": 1905,
  "Ġservers": 9184,
  "ĠMill": 9167,
  "Ġsea": 5171,
  "Ġ~": 9378,
  "Ġsubscrib": 6188,
  "Ġidentified": 4839,
  "Script": 8543,
  "Ġjail": 5354,
  "Ġv": 368,
  "ĠDen": 5167,
  "ff": 453,
  "ĠAli": 7652,
  "Cal": 9838,
  "Your": 8863,
  "Ġdis": 552,
  "ĠMetro": 9810,
  "Ġdrawing": 7872,
  "aa": 9462,
  "Ġdenied": 5736,
  "Ġfeelings": 7668,
  "Ġcareful": 8594,
  "Ġpot": 1629,
  "RE": 2071,
  "Ġpurchased": 8447,
  "ĠCan": 1429,
  "ĠMike": 4267,
  "Ġthrough": 794,
  "Ġarri": 2776,
  "obs": 7791,
  "Ġalter": 9489,
  "Ġcarrying": 6515,
  "dem": 8237,
  "Ġtemper": 4136,
  "Ġcraft": 5831,
  "ĠView": 7027,
  "rett": 7104,
  "Ġeditor": 5906,
  "Ġvast": 5193,
  "Ġspaces": 8368,
  "Ġneck": 8468,
  "Ġrights": 2105,
  "Ġtech": 6018,
  "Ġspir": 3861,
  "Ġopin": 3481,
  "Ġpolicies": 3972,
  "ledge": 3006,
  "Co": 7733,
  "Ġfan": 3572,
  "Ġsalary": 8431,
  "ikes": 8141,
  "Ġentreprene": 9269,
  "Ġseason": 1270,
  "Ġmidfield": 8903,
  "Ġfine": 3912,
  "Ġhel": 7409,
  "Ġna": 9764,
  "Ġpotentially": 5341,
  "Ġmaintain": 3327,
  "ader": 5108,
  "ĠArk": 9610,
  "Ġscreen": 3173,
  "icious": 6258,
  "Ġassistant": 7354,
  "Ġreporting": 5862,
  "Ġgrown": 6486,
  "Ġsubmit": 9224,
  "oci": 1736,
  "ĠEastern": 7570,
  "Ġsort": 3094,
  "ĠPalestinian": 6557,
  "Ġmanaging": 9660,
  "Ġindic": 2762,
  "Ġdiscussions": 8410,
  "Ġinclude": 2324,
  "icians": 4253,
  "onse": 2438,
  "25": 2461,
  "Ġ54": 9641,
  "Ġsome": 539,
  "Ġinvestigation": 3074,
  "Ġcollection": 4937,
  "Ġengage": 7138,
  "EST": 8553,
  "Ġepisode": 4451,
  "val": 2541,
  "Ġculture": 3346,
  "Ġjoined": 4731,
  "Ġupd": 2526,
  "Ġweap": 2705,
  "ama": 1242,
  "Ġtemperature": 6272,
  "Ġmost": 684,
  "Ġprepared": 5329,
  "Ġmeet": 1641,
  "Ġstruggling": 7891,
  "anced": 3180,
  "Ġfeet": 3863,
  "Ġlux": 9786,
  "lan": 7790,
  "Ġgiving": 3286,
  "Ġbecomes": 4303,
  "Ġpsych": 3721,
  "Ġexam": 3061,
  "Ġupgrade": 8887,
  "Ġaddition": 3053,
  "Ġneg": 2244,
  "Ġerror": 5230,
  "icks": 3275,
  "]": 61,
  "erous": 5079,
  "Ġmorning": 2979,
  "',": 6295,
  "Ġthreat": 1974,
  "Ġreward": 6801,
  "mar": 3747,
  "Ġrestaurants": 9164,
  "Or": 6891,
  "Ġmoney": 1377,
  "aj": 1094,
  "Ġmyself": 3555,
  "Ġtruck": 6995,
  "Ġinterviews": 7949,
  "ĠMcCain": 8182,
  "ĠMichael": 3390,
  "ĠInst": 2192,
  ");": 2969,
  "ĠDep": 2014,
  "ores": 5097,
  "ocument": 9050,
  "ĠRuby": 9379,
  "iber": 1784,
  "uthor": 1440,
  "ĠMajor": 7817,
  "ĠLondon": 3188,
  "Ġclearly": 3814,
  "acks": 5080,
  "ĠAttorney": 7143,
  "Ġhous": 3389,
  "Ġexistence": 6278,
  "Ġtalks": 4997,
  "Ġsac": 5782,
  "Ġmillions": 4260,
  "Ġcolumn": 6622,
  "ĠHind": 8945,
  "Her": 8709,
  "ĠHillary": 4041,
  "Ġimpressive": 6825,
  "ong": 455,
  "ĠDie": 6491,
  "we": 678,
  "Ġstrong": 1779,
  "Ġfundament": 5187,
  "ĠGalaxy": 9070,
  "Ġbudget": 3553,
  "For": 1827,
  "attle": 3834,
  "acebook": 2265,
  "omm": 2381,
  "ĠSteve": 5497,
  "ĠDisney": 7223,
  "Ġsongs": 6168,
  "ĠPl": 1551,
  "ĠBlack": 3004,
  "Ġdeep": 2323,
  "Ġcounsel": 7779,
  "mary": 8441,
  "ĠBill": 3381,
  "Ġcurrently": 2754,
  "Ġovert": 8375,
  "Ġinequ": 8932,
  "ĠHer": 3008,
  "Tr": 3047,
  "ĠISIS": 6219,
  "Ġl": 258,
  "print": 6502,
  "irst": 609,
  "Ġforecast": 9295,
  "Ġpieces": 5323,
  "Ġconserv": 3110,
  "04": 6838,
  "Ġtiny": 6483,
  "ront": 4195,
  "Ġpositive": 3603,
  "Q": 49,
  "Ġagreed": 4238,
  "Ġdistingu": 9512,
  "000": 903,
  "ç": 162,
  "gan": 904,
  "10": 1285,
  "'": 7,
  "ĠAdminist": 6955,
  "Ġdes": 704,
  "Ġcool": 3672,
  "ĠSw": 2985,
  "Ġfif": 5263,
  "Ġclaims": 3186,
  "old": 732,
  "ĠFlor": 3855,
  "Ġengaged": 7457,
  "Ġdesc": 1697,
  "Ġis": 277,
  "holders": 9598,
  "aught": 3302,
  "Ġgathered": 8334,
  "mod": 7189,
  "Ġresponses": 8828,
  "ĠUkraine": 6037,
  "Ġmajority": 3178,
  "Ġfeels": 4891,
  "Ġroughly": 6261,
  "Ġhim": 653,
  "isting": 8602,
  "Ġnames": 3974,
  "Ġlargest": 3616,
  "Ġdem": 1187,
  "Ġ'": 1142,
  "able": 530,
  "aded": 5135,
  "Ġk": 441,
  "Ġinternational": 2648,
  "velop": 980,
  "vis": 4984,
  "ĠTal": 6706,
  "Ð": 139,
  "Ġrocket": 9124,
  "Ġfol": 5234,
  "Ġcere": 6340,
  "Ġphilos": 5148,
  "ĠRen": 8748,
  "ĠHill": 2787,
  "ĠPhot": 6035,
  "ĠIT": 7429,
  "Ġuniform": 7869,
  "Ġreaders": 5961,
  "Ġ16": 1880,
  "Ġorigin": 7349,
  "Ġsky": 6752,
  "leg": 1312,
  "ane": 1534,
  "ĠClick": 9337,
  "ĠRE": 6145,
  "yard": 8074,
  "ww": 2118,
  "Ġopinion": 4283,
  "ĠSpain": 7331,
  "bell": 7796,
  "Ġsigning": 6531,
  "iro": 6741,
  "Donald": 6438,
  "Ġpercentage": 5469,
  "Ġjur": 8547,
  "person": 5322,
  "Ġpermanent": 7478,
  "uh": 9020,
  "Ġgold": 4040,
  "acked": 7288,
  "Ġuniversities": 8967,
  "HT": 9053,
  "ĠKat": 8312,
  "Ġenjoyed": 7533,
  "ĠEvery": 3948,
  "Ġdivor": 9936,
  "Ġstreets": 5287,
  "ĠCath": 5327,
  "Ġyouth": 5465,
  "Ġcongress": 6729,
  "earch": 4068,
  "ĠNHL": 6996,
  "Ġexist": 2100,
  "ĠCoast": 7577,
  "ĠPerson": 9487,
  "Ġcontracts": 7660,
  "ĠNic": 8047,
  "ĠRog": 7261,
  "Ġ41": 7994,
  "\":": 4928,
  "ĠDallas": 7286,
  "play": 1955,
  "c": 67,
  "Ġexpression": 6330,
  "Ġtwice": 5145,
  "amer": 2141,
  "Ġnothing": 2058,
  "ĠToday": 5722,
  "ady": 4538,
  "Ġconsist": 3385,
  "osa": 7918,
  "Ġmeans": 1729,
  "Ġposted": 4046,
  "ose": 528,
  "Ġexp": 1002,
  "Ġracial": 7560,
  "Ġvoted": 5385,
  "Ġwebsites": 8093,
  "ature": 1320,
  "Ġdecre": 6095,
  "berg": 3515,
  "Every": 5409,
  "Ġstates": 2160,
  "Also": 7277,
  "aken": 1617,
  "rators": 7860,
  "ĠPen": 8090,
  "uce": 7916,
  "Ġinvestig": 1711,
  "Ġphilosoph": 6080,
  "Ġsoft": 2661,
  "ov": 669,
  "Ġmining": 8625,
  "Ġspot": 3365,
  "ĠMc": 1593,
  "Ġeight": 3270,
  "ĠRon": 5968,
  "Under": 8307,
  "uated": 6574,
  "ĠAlthough": 4955,
  "aven": 5087,
  "icking": 8298,
  "Ġvariety": 5068,
  "pat": 8133,
  "season": 4810,
  "Ġbegan": 2194,
  "Ġheavily": 6273,
  "ub": 487,
  "Ġmultiple": 3310,
  "Ġescape": 6993,
  "ĠStand": 7008,
  "roy": 3505,
  "asp": 5627,
  "Ġconsidered": 3064,
  "Ġdrag": 6978,
  "Ġadminist": 2276,
  "Ġconsole": 8703,
  "Ġ39": 7033,
  "Ġel": 1255,
  "Ġsee": 727,
  "By": 3693,
  "Ġdemocratic": 8279,
  "Ġfollowed": 3651,
  "cy": 926,
  "ĠE": 398,
  "Ġuseful": 4790,
  "Ġfree": 1422,
  "outh": 1423,
  "Who": 8127,
  "Ġ1992": 9449,
  "mit": 1345,
  "H": 40,
  "Ġreput": 6641,
  "Ġimpact": 2588,
  "Ġannounced": 2574,
  "Ġwebs": 2460,
  "erg": 8989,
  "Ġspark": 7890,
  "Ġfl": 802,
  "Ġhighlight": 4684,
  "Ġide": 1238,
  "obby": 5162,
  "AND": 9059,
  "Ġunus": 6505,
  "âĢ¢": 4081,
  "æ": 161,
  "Ġreaction": 5696,
  "athered": 7793,
  "Ġoffic": 947,
  "Ġcream": 9623,
  "Ġrun": 987,
  "Ġinterf": 9572,
  "Ġapps": 5641,
  "UT": 5727,
  "omething": 8205,
  "or": 230,
  "Ġarmed": 5958,
  "ĠProte": 7774,
  "ivered": 5682,
  "ĠWars": 6696,
  "Ġcha": 7986,
  "Ġmotor": 6051,
  "Ġtry": 1956,
  "Ġent": 901,
  "ĠâĢľ": 409,
  "ised": 1282,
  "ĠUSA": 5226,
  "rees": 4967,
  "ina": 1298,
  "Ġexc": 2313,
  "Ġrequ": 1114,
  "more": 3556,
  "Ġabandoned": 8867,
  "ilities": 2505,
  "ĠConstitution": 7267,
  "Ð½": 6571,
  "cle": 2981,
  "Ġdark": 3546,
  ".-": 8537,
  "Ġupdated": 6606,
  "ressive": 5296,
  "Ġvideos": 5547,
  "wh": 1565,
  "Ġpage": 2827,
  "Ġrecording": 7547,
  "Ġrender": 9068,
  "Ġdropped": 5072,
  "Ġenhance": 9807,
  "John": 6963,
  "lessly": 8077,
  "Ġoverwhel": 6680,
  "GB": 4378,
  "Ġgain": 4930,
  "ize": 1171,
  "DA": 4807,
  "Ġpriv": 1728,
  "Ġhurt": 5544,
  "elf": 8144,
  "ologist": 6436,
  "Ġdefence": 7565,
  "ĠBest": 6941,
  "Ġcycle": 6526,
  "Ġexperienced": 5549,
  "Ġwindow": 4998,
  "Ġpo": 657,
  "Ġmanufacture": 6207,
  "ĠEast": 3209,
  "lick": 3891,
  "put": 2496,
  "Ġpropaganda": 9441,
  "ĠConserv": 5561,
  "Ġhist": 1358,
  "Ġyes": 3600,
  "ches": 2061,
  "Ġquickly": 2836,
  "Ġcircle": 9448,
  "hab": 5604,
  "Ġdifferent": 1133,
  "94": 9166,
  "maker": 8673,
  "act": 463,
  "cel": 5478,
  "ierce": 9535,
  "Ġche": 1140,
  "Ġworth": 2659,
  "equ": 4598,
  "Ġlife": 1145,
  "ce": 303,
  "Ġbelieve": 1782,
  "Ġaccused": 4359,
  "Ġworks": 2453,
  "ĠOur": 4275,
  "irty": 6128,
  "Ġhousehold": 6355,
  "Rel": 6887,
  "spe": 4591,
  "ala": 6007,
  "ĠJam": 9074,
  "ĠGeneral": 3920,
  "Ġafford": 4674,
  "ĠCouncil": 3819,
  "alth": 1039,
  "Ġsending": 6744,
  "Ġwell": 822,
  "Ġsold": 2477,
  "×": 146,
  "50": 1491,
  "itation": 3539,
  "ĠLight": 7217,
  "ota": 3875,
  "ĠPR": 6888,
  "Ġhere": 994,
  "ĠPost": 3026,
  "ĠDutch": 9278,
  "Ġwarm": 6176,
  "Ġac": 887,
  "Ġfe": 663,
  "Ġhearing": 4447,
  "Ġopens": 9671,
  "Ġsubstance": 9705,
  "Ġcrash": 6829,
  "ĠRoberts": 9173,
  "cosystem": 9999,
  "usiness": 5843,
  "ounced": 7900,
  "...": 1435,
  "Ġmessages": 5861,
  "Ġavail": 1735,
  "Ġfake": 7531,
  "raft": 1597,
  "ovember": 2737,
  "oles": 3945,
  "Ġfamiliar": 4981,
  "Ġflat": 5666,
  "Ġbuy": 2739,
  "72": 8621,
  "iss": 722,
  "ourney": 5956,
  "ĠBoston": 5295,
  "de": 3058,
  "rent": 1111,
  "ĠPet": 5008,
  "ĠYoung": 6737,
  "ĠLam": 9732,
  "Ġnecess": 2533,
  "Ġrealized": 6631,
  "ĠMorgan": 9877,
  "apolis": 9562,
  "Ġpuzz": 9437,
  "ord": 534,
  "going": 4555,
  "Ġmemo": 9746,
  "Ġbuff": 8676,
  "Ġautonom": 9523,
  "Ġnature": 3571,
  "ogle": 2284,
  "prise": 7638,
  "ĠGreg": 7810,
  "ary": 514,
  "Ġties": 7121,
  "Ġapartment": 7234,
  "icted": 5137,
  "ĠSecret": 4142,
  "oken": 5833,
  "ists": 886,
  "Ġimmigrants": 6487,
  "oved": 2758,
  "Ġspoken": 8751,
  "Ġbat": 1815,
  "Ġhy": 2534,
  "Ö": 145,
  "ĠForm": 9207,
  "ĠÃ": 4187,
  "ĠTake": 7559,
  "Ġimag": 3266,
  "Ġpreviously": 3797,
  "iki": 9307,
  "Ġstret": 5460,
  "Ġdecent": 7044,
  "ĠDonald": 3199,
  "Ġcontent": 2624,
  "Ġattend": 4726,
  "Ġasked": 1770,
  "Ġinitial": 4330,
  "Ġreally": 1010,
  "Ġmovies": 5889,
  "Ġenvironment": 2544,
  "|>": 658,
  "Ġbug": 6395,
  "Ã³": 6329,
  "Ġstudent": 3412,
  "ĠRose": 8137,
  "Ġexercise": 5999,
  "Ġemployed": 9172,
  "und": 827,
  "itive": 1732,
  "Sen": 8478,
  "Ġnin": 9751,
  "ixt": 6872,
  "Ġwhom": 4121,
  "ĠComey": 9952,
  "Ġaccomplish": 9061,
  "Ġwinner": 7058,
  "Ç": 130,
  "oft": 7285,
  "Ġtrial": 4225,
  "During": 5894,
  "Ġseveral": 1635,
  "world": 7635,
  "nown": 3786,
  "Ġ2": 350,
  "Ġwindows": 9405,
  "Ġreprodu": 8401,
  "Ġjoining": 8242,
  "Ġabout": 471,
  "Ġson": 3135,
  "ĠSeattle": 6014,
  "Ġrequired": 3201,
  "Ġsounds": 5144,
  "amsung": 8020,
  "Ġsafe": 3121,
  "ĠPh": 1391,
  "ĠMart": 3640,
  "ĠFacebook": 2593,
  "hel": 2704,
  "Ġvoice": 3908,
  "ieties": 8881,
  "what": 4815,
  "ween": 917,
  "Source": 8879,
  "Ġequip": 5161,
  "Ġten": 3465,
  "Ġarms": 5242,
  "Ġbackground": 4517,
  "ught": 8985,
  "Ġrequirements": 6763,
  "orious": 9409,
  "Ġmaintained": 9352,
  "Ġnewspaper": 5878,
  "Ġtraffic": 4526,
  "chain": 7486,
  "Ġdownload": 4785,
  "Ġreturn": 1573,
  "Ġsubsequ": 6002,
  "Ġvary": 8217,
  "ram": 4003,
  "Ġgen": 2345,
  "ada": 4523,
  "illy": 6025,
  "au": 511,
  "Ġattempted": 6598,
  "92": 9168,
  "ossible": 4661,
  "Ġhoping": 6433,
  "brid": 9977,
  "Ġeduc": 2443,
  "·": 116,
  "Ġacadem": 5064,
  "ĠBron": 8962,
  "Ġstrategic": 8212,
  "ĠGovern": 3717,
  "aret": 8450,
  "ts": 840,
  "Ġwarning": 6322,
  ".âĢĿ": 604,
  "sylvania": 8034,
  "Ġ2006": 4363,
  "based": 2755,
  "umes": 8195,
  "Ġscan": 8909,
  "Ġmayor": 7214,
  "Ġlabel": 5998,
  "Ġtrade": 2882,
  "âĢĿ,": 3949,
  "ourn": 1737,
  "Ġlosing": 5151,
  "pper": 3294,
  "which": 4498,
  "Ġsimply": 2260,
  "Ġidentity": 4889,
  "n": 78,
  "ier": 1164,
  "Ġviolation": 9146,
  "ĠHor": 8055,
  "Ġcru": 4170,
  "ĠMiami": 7030,
  "ready": 1339,
  "ool": 952,
  "ĠLGBT": 7581,
  "Ġplanet": 4962,
  "Ġobst": 7738,
  "Ġactive": 4380,
  "pping": 2139,
  "Ġkeep": 1300,
  "Ġassociated": 4291,
  "Ġrealize": 5950,
  "Ġtw": 608,
  "Ġindependence": 8227,
  "Ġrange": 3148,
  "98": 7361,
  "rative": 7854,
  "bor": 2664,
  "Ġcomparison": 7025,
  "Ġdanger": 3300,
  "Ġbottle": 9797,
  "Ġbehind": 1949,
  "ception": 4700,
  "orters": 2912,
  "Ġcity": 1433,
  "ĠRoss": 8573,
  "Ġlook": 755,
  "ser": 3905,
  "Ġspread": 3824,
  "worth": 8239,
  "Ġinsurance": 4618,
  "Ġaid": 5581,
  "Ġauthority": 5154,
  "Ġmilit": 1642,
  "tering": 6393,
  "ĠEs": 8296,
  "Ġdram": 5406,
  "rench": 3200,
  "ums": 6827,
  "Ġmonth": 1069,
  "ĠMon": 3378,
  "Ġperson": 1076,
  "ilton": 7730,
  "Ġdies": 9996,
  "owa": 7024,
  "dog": 8925,
  "ack": 406,
  "Ġstability": 9372,
  "ab": 364,
  "Ġblank": 9708,
  "itt": 4630,
  "ynam": 5023,
  "Ġself": 2176,
  "omy": 9587,
  "cks": 4822,
  "Ġwitness": 4697,
  "ton": 1034,
  "Ġpoint": 900,
  "Ġplace": 1230,
  "onymous": 6777,
  "erence": 1891,
  "Ġdivision": 6440,
  "Ñ": 140,
  "ĠChair": 8534,
  "ific": 811,
  "ĠAustral": 2604,
  "Ġexposed": 6972,
  "ĠBowl": 7342,
  "Ġcheck": 2426,
  "ĠKansas": 8123,
  "Ġconnected": 5880,
  "Ġrole": 2178,
  "ĠMinnesota": 7353,
  "Ġwarned": 6089,
  "Ġtap": 9816,
  "ĠJay": 8321,
  "ĠBusiness": 7515,
  "cies": 3011,
  "ĠOx": 9994,
  "ther": 450,
  "Ġpregn": 6614,
  "ios": 4435,
  "Ġfocused": 4854,
  "Ġspectrum": 9791,
  "Ġanim": 2350,
  "Ġexpect": 1382,
  "Ġinfo": 9627,
  "ĠRod": 6022,
  "Of": 5198,
  "Ġalarm": 9389,
  "d": 68,
  "tered": 3401,
  "ĠAtlantic": 8907,
  "Ġagric": 7741,
  "Ĭ": 189,
  "Ġur": 2662,
  "evin": 5882,
  "Ġoccup": 4770,
  "Ġexplanation": 7365,
  "ampions": 3492,
  "Ġanalyst": 9566,
  "ĠLo": 8011,
  "ird": 1352,
  "oenix": 9190,
  "ĠESPN": 8232,
  "Ġtables": 9755,
  "Ġposts": 6664,
  "ihad": 8275,
  "ĠMars": 7588,
  "Ġlay": 3258,
  "Ġtheory": 4226,
  "Ġmoves": 6159,
  "Ġbel": 836,
  "ĠUN": 4614,
  "Ġhouse": 2111,
  "Ġprim": 2515,
  "Ġmodule": 9970,
  "ry": 527,
  "ĠMP": 4818,
  "Ġelsewhere": 7181,
  "Ġallows": 3689,
  "Ġprofile": 7246,
  "ources": 3155,
  "Ġpull": 2858,
  "ĠStephen": 6826,
  "Ġbench": 7069,
  "osition": 2727,
  "ĠG": 377,
  "ĠLos": 4582,
  "Ġemploy": 1840,
  "Ġ/": 2016,
  "reed": 1873,
  "ĠHealth": 4174,
  "Ġphotograph": 7723,
  "ĠHong": 9586,
  "ĠBecause": 4247,
  "HL": 5070,
  "Ġsleep": 4333,
  "Ġalthough": 3380,
  "ĠMem": 5713,
  "ĠTennessee": 9987,
  "Ġlegal": 2346,
  "âĢĶâĢĶâĢĶâĢĶ": 8484,
  "Ġexha": 9414,
  "Ġlight": 1790,
  "Ġequality": 9125,
  "Ġthird": 2119,
  "75": 4416,
  "Ġsubst": 3392,
  "Ġfish": 6003,
  "Ġcompany": 1365,
  "ĠPlus": 8848,
  "Ġhistor": 3240,
  "owed": 7140,
  "//": 1619,
  "====": 4335,
  "Ġoffers": 4227,
  "ral": 1249,
  "pt": 475,
  "Ġaround": 993,
  "Ġhonest": 5119,
  "aks": 4261,
  ".âĢĻ": 4015,
  "Ġmouth": 6583,
  "Ġdepending": 7497,
  "uer": 7873,
  "¤": 98,
  "Ġdeadly": 9340,
  "aylor": 6717,
  "Ġnational": 1816,
  "Ġhasn": 4739,
  "Ġsettlement": 8228,
  "ĠSmith": 3787,
  "Ġeff": 890,
  "ision": 1072,
  "ockey": 6563,
  "Ġsurgery": 7589,
  "Ġmatter": 2205,
  "ING": 3935,
  "ĠYour": 4454,
  "Ġhelps": 5281,
  "Ġplayed": 2328,
  "ĠAngel": 3782,
  "Ġneed": 718,
  "Ġrif": 8935,
  "astern": 5810,
  "Ġadvantage": 4306,
  "Ġtalked": 5631,
  "Ġmemory": 4221,
  "aches": 3468,
  "wan": 7055,
  "¶": 115,
  "ĠColl": 7593,
  "Ġstem": 9651,
  "ertain": 1419,
  "ment": 336,
  "Ġdel": 2714,
  "Ġknee": 9584,
  "esc": 6477,
  "Ġfeatures": 3044,
  "ĠGreek": 7716,
  "Ġdefensive": 4923,
  "Ġfeatured": 6504,
  "ae": 4161,
  "ĠIslamic": 4384,
  "olic": 3854,
  "Ġdoesn": 1454,
  "usal": 6282,
  "FF": 8672,
  "ĠAss": 2261,
  "order": 2812,
  "ĠVancouver": 8608,
  "Ġbehavi": 6157,
  "ĠHam": 3894,
  "Ġcalling": 3937,
  "Ġcoinc": 9656,
  "osp": 1962,
  "Ġconservative": 4478,
  "Ġstreaming": 9463,
  "oves": 5884,
  "cember": 2909,
  "Ġtaxp": 7631,
  "Ġnut": 7392,
  "nel": 4722,
  "Ġseed": 9938,
  "Ġ2001": 5789,
  ".,": 1818,
  "Ġreported": 1773,
  "Ġimport": 1235,
  "BO": 7809,
  "Ġfounder": 7242,
  "Ġdelic": 9453,
  "hedul": 4983,
  "gether": 1859,
  "ĠBalt": 7650,
  "well": 4331,
  "ĠOper": 7391,
  "fire": 6895,
  "Ġgraduate": 9456,
  "Ġform": 1324,
  "pre": 3358,
  "Ġtested": 6795,
  "out": 403,
  "Ġsurviv": 9887,
  "Ġbelieved": 4078,
  "ba": 7663,
  "Ġhosted": 9715,
  "U": 53,
  "ĠKorean": 6294,
  "Ġ...": 3162,
  "igned": 4088,
  "ressed": 3681,
  "Ġrecip": 7706,
  "Ġsomet": 978,
  "Ġconstitutional": 8263,
  "Ġstarting": 3276,
  "Ġbiggest": 3206,
  "FA": 8295,
  "rier": 5500,
  "Ġdiscussed": 6217,
  "ocr": 4209,
  "ises": 2726,
  "This": 1167,
  "Ġchildren": 1628,
  "iqu": 1592,
  "Ġstress": 5373,
  "»": 120,
  "Ġw": 222,
  "Ġjury": 8285,
  "Ġeng": 1665,
  "olds": 9301,
  "ng": 768,
  "Ġwebsite": 2888,
  "ĠS": 276,
  "As": 1508,
  "Ġextent": 6453,
  "Is": 3671,
  "Ġwealthy": 9351,
  "arter": 2256,
  "ĠCorpor": 9110,
  "Ġlik": 4017,
  "Ġserve": 4382,
  "har": 9171,
  "Ġslow": 3077,
  "MP": 7315,
  "Ġapproached": 9220,
  "Ġwaiting": 4750,
  "Ġtable": 3226,
  "Ġmove": 1296,
  "ĠValley": 6435,
  "Ġentered": 6221,
  "Ġmoved": 3497,
  "rown": 2772,
  "inder": 7545,
  "type": 8459,
  "Ġprom": 1360,
  "Ġstru": 2470,
  "ting": 734,
  "hen": 818,
  "ER": 1607,
  "Ġstruct": 5000,
  "asant": 9555,
  "opyright": 9933,
  "Ġorganic": 9879,
  "ĠRich": 3536,
  "ĠVict": 6046,
  "Ġnext": 1177,
  "Ġstead": 7345,
  "Ġinclud": 787,
  "ĠKurd": 7605,
  "Ġoptions": 3925,
  "uzz": 5239,
  "izing": 2709,
  "ĠOl": 7877,
  "ĠJes": 5213,
  "ĠImages": 5147,
  "ĠAtlant": 5093,
  "£": 97,
  "ake": 497,
  "Ġextrem": 7474,
  "Ġphenomenon": 9298,
  "ĠIsraeli": 4657,
  "Ġtag": 7760,
  "Ġcall": 780,
  "Ġelectronic": 8044,
  "Ġphys": 2337,
  "ĠGulf": 9376,
  "sl": 9662,
  "Ġfootball": 3406,
  "se": 283,
  "Ġinit": 2221,
  "ĠItalian": 7308,
  "Ġparticipation": 9685,
  "Ġits": 585,
  "Police": 7165,
  "Ġimmigration": 5050,
  "asion": 7762,
  "Ġwhe": 439,
  "ĠBay": 3994,
  "Ġcommunications": 6975,
  "bel": 6688,
  "icing": 6048,
  "Ġ($": 7431,
  "Ġuniverse": 6659,
  "ĠGuard": 5404,
  "asc": 3119,
  "Im": 3364,
  "Ġimmedi": 2682,
  "ÑĢ": 6550,
  "ĠLabour": 5824,
  "page": 8057,
  "Ġliberal": 5669,
  "ĠFe": 5448,
  "200": 2975,
  "Ġperhaps": 3373,
  "Ġdocuments": 4385,
  "ĠDev": 6194,
  "angle": 9871,
  "inations": 7211,
  "Some": 3826,
  "Ġdidn": 1302,
  "rect": 2927,
  "Ġmen": 1474,
  "Ġstupid": 8384,
  "Ġopposite": 6386,
  "ingu": 6840,
  "Ġpron": 9510,
  "Ġrely": 7839,
  "Ġmoral": 6026,
  "Ġparents": 3107,
  "PG": 8150,
  "Ġviewed": 8474,
  "52": 7804,
  "Ġtemporary": 8381,
  "osure": 4679,
  "ĠCanad": 1934,
  "W": 55,
  "Ġcouple": 2816,
  "ple": 1201,
  "Ġdistinct": 7161,
  "Ġempty": 7047,
  "Ġministry": 9644,
  "wise": 3451,
  "Ġyour": 571,
  "Ġapplied": 6124,
  "ments": 728,
  "ĠEv": 4471,
  "inking": 7747,
  "Ġobtain": 4307,
  "Ġplatforms": 8394,
  "zz": 3367,
  "ode": 1294,
  "95": 5487,
  "Ġsevent": 9408,
  "air": 956,
  "Ġquiet": 5749,
  "~": 94,
  "Ġseeking": 5179,
  "ĠTer": 5084,
  "Ġdefinitely": 4496,
  "ĠBrazil": 6198,
  "Ġexem": 8174,
  "Ġexample": 1666,
  "ĠBe": 1407,
  "Ty": 9511,
  "Ġeverything": 2155,
  "Ġcongressional": 9117,
  "ĠOnce": 5352,
  "Ġweak": 4918,
  "Ġhung": 9008,
  "Ġdispl": 8460,
  "Ġbrown": 8755,
  "Ġexpanding": 9818,
  "Ġwish": 5011,
  "ible": 854,
  "Ġlate": 2343,
  "vention": 4519,
  "ying": 1030,
  "Ġwing": 7751,
  "OP": 3158,
  "ĠArch": 6780,
  "Ġ43": 8043,
  "ush": 1493,
  "][": 2960,
  "Ġwalked": 6639,
  "cient": 3611,
  "Ġbom": 7482,
  "Ġopt": 2197,
  "Ġbin": 9714,
  "ĠAl": 1053,
  "Ġcloser": 5175,
  "ashion": 5484,
  "Ġwrong": 2429,
  "Ġtiming": 9900,
  "!)": 8653,
  "wide": 3881,
  "Ġplot": 6285,
  "ĠPresident": 1634,
  "Ġaccommod": 8727,
  "Ġsurf": 8679,
  "Ġsymb": 5245,
  "Ġsusp": 3697,
  "ĠFire": 5035,
  "Ġpill": 9985,
  "Ġdeter": 2384,
  "Ġtook": 1524,
  "Ġmissions": 9750,
  "Ġproof": 6846,
  "player": 9846,
  "ajor": 1308,
  "Ġscore": 3537,
  "ĠPrem": 6257,
  "ĠBruce": 9570,
  "Ġasks": 8101,
  "Ġlaw": 963,
  "ĠMedical": 8347,
  "enture": 6006,
  "Ġlawmakers": 7437,
  "Ġchose": 6878,
  "Ġheard": 2879,
  "ĠâĢ": 319,
  "ultane": 9122,
  "uments": 3040,
  "Ġrepeat": 9548,
  "Ġz": 1961,
  "urb": 4539,
  "otal": 6490,
  "Ġexamples": 6011,
  "Ġbaseball": 7265,
  "Ġch": 399,
  "Ġbud": 2955,
  "Ġrefer": 3612,
  "ass": 533,
  "Ġbrew": 7250,
  "Ġmainly": 7568,
  "ted": 981,
  "Ġtransactions": 8968,
  "At": 2642,
  "onst": 2608,
  "ĠDec": 4970,
  "Ù": 148,
  "Ġles": 8856,
  "ĠPres": 9550,
  "held": 9336,
  "ically": 1086,
  "97": 7771,
  "Ġb": 231,
  "Ġorder": 1575,
  "Ġcour": 1019,
  "Ġdefinition": 7045,
  "A": 33,
  "Ġaccomp": 7484,
  "Ġtrip": 4902,
  "ĠChina": 2290,
  "Ġremove": 5417,
  "With": 2930,
  "Ġund": 3098,
  "ivals": 8721,
  "ire": 536,
  "ĠBry": 8015,
  "Ġconsumer": 6267,
  "Ġentering": 7948,
  "App": 5744,
  "Ġbecome": 1540,
  "after": 9547,
  "Ġonto": 4289,
  "Ġhig": 1826,
  "Ġpresent": 1926,
  "Ġav": 1233,
  "Ġven": 7737,
  "Le": 4190,
  "Ġwaves": 9498,
  "ĠMoscow": 7590,
  "ĠQue": 4584,
  "Ġdec": 680,
  "Ġdrew": 8739,
  "Ġimprovements": 8276,
  "ĠRay": 7604,
  "crib": 9069,
  "Ġperforming": 9037,
  "Ġtal": 2767,
  "µ": 114,
  "Ġhis": 417,
  "Ġongoing": 5883,
  "Ġfighters": 7139,
  "Ġshut": 3941,
  "Ġcitiz": 3030,
  "Ġsear": 9455,
  "Ġcrowd": 3655,
  "cific": 8356,
  "ito": 9717,
  "Ġmurder": 4641,
  "et": 278,
  "Ġmult": 1967,
  "Ġcount": 830,
  "ĠCh": 579,
  "Ġcross": 3222,
  "Ġnewsp": 4791,
  "Ġexplos": 5565,
  "Ġmonths": 1685,
  "Ġstraight": 3818,
  "Ġrad": 2272,
  "Ġdiet": 6781,
  "Ġlog": 2742,
  "âĢ": 247,
  "ouver": 8088,
  "Ġnarrative": 7197,
  "Ġbub": 9011,
  "ĠMore": 3207,
  "Ġluck": 8288,
  "lock": 7287,
  "ighter": 4934,
  "front": 7678,
  "ĠBush": 4147,
  "Ġchildhood": 9276,
  "portion": 7903,
  "ĠMarvel": 8860,
  "ayers": 6508,
  "ĠElect": 6448,
  "Ġfight": 1699,
  "imes": 921,
  "Ġstructures": 7998,
  "eed": 2877,
  "class": 5361,
  "ĠSept": 8360,
  "Ġpresident": 1363,
  "ĠTH": 3308,
  "ĠDel": 4270,
  "Ġimprovement": 8481,
  "ington": 8971,
  "ĠRick": 7677,
  "ustom": 1894,
  "rig": 4294,
  "Ġmissile": 8556,
  "Ġaimed": 7445,
  "Ġconstantly": 7158,
  "96": 7953,
  "ĠVal": 3589,
  "Ġbunch": 6967,
  "Ġsur": 892,
  "Ġnative": 6255,
  "Ġdebut": 6030,
  "Ġdevices": 4108,
  "osis": 6927,
  "Ġcampaigns": 8131,
  "Ġsatell": 7366,
  "Ġsaving": 9235,
  "Ġinvolves": 8495,
  "Ġsoc": 1137,
  "EW": 7175,
  "gg": 967,
  "ĠTwo": 5131,
  "ĠFore": 4774,
  "sych": 3043,
  "Ġthinks": 6054,
  "Ġmachine": 4372,
  "Ġfactors": 5368,
  "Ġsad": 5967,
  "Ġdescribe": 6510,
  "ĠKing": 3089,
  "ensive": 1776,
  "Ġrejected": 7153,
  "ĠBat": 6072,
  "ĠLine": 9052,
  "bec": 8142,
  "Ġpointing": 9520,
  "pecially": 2151,
  "Ġitems": 4489,
  "Ġconcept": 3422,
  "Ġremain": 3217,
  "Ġwife": 3433,
  "riage": 3807,
  "Ġbehavior": 4027,
  "ĠBrook": 6441,
  "TER": 9713,
  "Ġapproved": 5756,
  "Ġbig": 1074,
  "ĠTe": 1752,
  "Ġunknown": 6823,
  "Ġref": 983,
  "Þ": 153,
  "ook": 521,
  "Ġbed": 4412,
  "unte": 5817,
  "Ġholding": 4701,
  "me": 1310,
  "icient": 3485,
  "ĠAgain": 6704,
  "Ġindustry": 2332,
  "Ġ,": 1626,
  "Ġplant": 3995,
  "Ġu": 293,
  "Ġfeedback": 7319,
  "bum": 3701,
  "Ġdam": 2183,
  "uties": 8246,
  "Ġmixed": 7204,
  "ground": 2938,
  "Ġphot": 2640,
  "ĠLaw": 4090,
  "under": 5262,
  "ique": 2382,
  "ands": 1662,
  "uge": 1938,
  "ective": 9179,
  "Ġcredit": 3729,
  "Ġallegedly": 6359,
  "Ġ)": 2153,
  "Ġoperate": 7444,
  "ĠMess": 9899,
  "Ġactions": 3682,
  "ompl": 5679,
  "Ġproducts": 3241,
  "Ġreputation": 7513,
  "ĠSupreme": 4880,
  "Ġflow": 5311,
  "Ġgas": 3242,
  "Ġrat": 4350,
  "phas": 5379,
  "Ġgam": 8544,
  "Ġsomewhat": 6373,
  "Ġsuperior": 9599,
  "Ġincidents": 8738,
  "Ġwhatever": 4120,
  "Ġabroad": 9097,
  "Ġcare": 1225,
  "âĢĻ.": 6851,
  "Ġcompl": 2136,
  "Ġlooks": 2963,
  "ĠBarack": 6212,
  "ĠLas": 8792,
  "Ġcannabis": 7837,
  "umer": 7880,
  "ġ": 178,
  "ic": 249,
  "Ġwatched": 6670,
  "Ġfranchise": 6852,
  "Ġwalls": 7897,
  "ĠInf": 6702,
  "Ġchairman": 6683,
  "Ġicon": 7176,
  "ĠPentagon": 9893,
  "Ġcountry": 1244,
  "Ġ1999": 7410,
  "Ġcontroversy": 8331,
  "Ġwarming": 7518,
  "Ġdecisions": 4664,
  "Ġcuts": 5106,
  "umb": 2253,
  "Ġportion": 7586,
  "ĠAdv": 9260,
  "ĠT": 271,
  "Ġride": 6166,
  "low": 8697,
  "keep": 8687,
  "ware": 1549,
  "arent": 1512,
  "ray": 2568,
  "ination": 1858,
  "Ġfantastic": 8707,
  "asks": 6835,
  "Ġquoted": 9403,
  "Ġbegins": 6147,
  "angers": 5819,
  "ĠSun": 4045,
  "Ġrhetoric": 9969,
  "FP": 6593,
  "ills": 2603,
  "ador": 6032,
  "Ì": 135,
  "HA": 7685,
  "Ġexciting": 6727,
  "ese": 2777,
  "Ġappearance": 5458,
  "ĠDoes": 8946,
  "Ġdisaster": 7564,
  "ĠEx": 1921,
  "Ġhttp": 2875,
  "Ġtoler": 7820,
  "Ġrespect": 2540,
  "Ġimmediately": 3416,
  "Ġcivil": 2618,
  "ired": 1215,
  "Ġsenior": 3716,
  "iverse": 3978,
  "Ġproducers": 9318,
  "Ġcandidates": 4644,
  "Ġtrad": 1882,
  "Ġintegr": 3927,
  "Ġattacked": 6836,
  "arlier": 7870,
  "Ġleadership": 4436,
  "allas": 6750,
  "ĠChristian": 3795,
  "quest": 8616,
  "Ġstatistics": 8225,
  "ĠSamsung": 8806,
  "Ġeuro": 8061,
  "Ġcoming": 2069,
  "Ġorders": 6710,
  "ids": 2011,
  "aser": 6873,
  "cling": 7705,
  "His": 5628,
  "Ġserver": 5112,
  "Ġcommunic": 3262,
  "ĠLeon": 9737,
  "Ġhomes": 4795,
  "ĠRussia": 2725,
  "ĠTurk": 7074,
  "ĠEnglish": 3590,
  "Ġsupply": 4980,
  "as": 248,
  "Ġbooks": 3610,
  "ily": 766,
  "Ġev": 760,
  "Ġgiven": 1777,
  "inger": 3988,
  "Ġsuggested": 4537,
  "urrent": 7719,
  "Ġsm": 873,
  "ric": 1104,
  "ĠEl": 2846,
  "Ġinstance": 4446,
  "Ġfunny": 7594,
  "Ġpossess": 9480,
  "Ġdemand": 3010,
  "Ġdied": 3337,
  "Ġsouth": 4779,
  "Ġabs": 2357,
  "ĠDay": 3596,
  "Ġunemployment": 8271,
  "ĠPortland": 9058,
  "ĠJava": 6713,
  "akers": 3293,
  "Ġfavour": 6375,
  "Ġmay": 767,
  "Ġfashion": 6464,
  "Ġatmosphere": 7243,
  "Ġdiss": 5582,
  "Ġattitude": 8622,
  "Ġiron": 7421,
  "Ġimplement": 3351,
  "Ġunder": 701,
  "Ġpayments": 7107,
  "ompson": 9320,
  "Ġagent": 5540,
  "To": 2634,
  "gr": 848,
  "Ġboys": 6196,
  "Ġham": 8607,
  "levision": 3873,
  "ĠRob": 3918,
  "ĠPC": 4730,
  "Ġlack": 2732,
  "Ġshoot": 2414,
  "Ġmade": 863,
  "Ġproud": 5853,
  "Ġstrict": 7701,
  "Ġmassive": 4099,
  "Ġjoy": 8812,
  "ua": 6601,
  "view": 1165,
  "le": 252,
  "ĠContin": 7393,
  "Ġastron": 8710,
  "mosp": 5705,
  "Ġregarding": 5174,
  "Ġinjured": 5929,
  "itar": 7463,
  "Ġabsolutely": 5163,
  "Ġag": 500,
  "ĠDetroit": 6831,
  "Ġas": 309,
  "osed": 1222,
  "Ġradio": 4474,
  "Ġfrag": 8119,
  "Ġcards": 4554,
  "Ġhair": 4843,
  "Ġpromises": 8797,
  "Ġcenter": 3420,
  "Ġsed": 9912,
  "Ġpatient": 6012,
  "Ġentry": 6190,
  "Ġcharacters": 3573,
  "ĠMoore": 7187,
  "Ġauto": 9063,
  "78": 6939,
  "Ġchoices": 7118,
  "Ġland": 1835,
  "ar": 241,
  "Ġvisual": 5621,
  "Ġstable": 7871,
  "Ġvirus": 8934,
  "ĠIP": 6498,
  "9": 25,
  "Ġpaint": 7363,
  "Ġ44": 7792,
  "Ġmerely": 6859,
  "tain": 888,
  "Before": 7847,
  "er": 220,
  "}}": 9973,
  "Christ": 9654,
  "intend": 7054,
  "iley": 8948,
  "way": 965,
  "ĠSupp": 6675,
  "ories": 1648,
  "Ref": 8163,
  "PM": 8202,
  "Ġagain": 697,
  "ark": 635,
  "Ġapparent": 3785,
  "ĠMos": 5141,
  "Ġdeeper": 8236,
  "Ġsoul": 7113,
  "ĠSyria": 3642,
  "ĠCl": 1080,
  "Ġtasks": 8297,
  "Ġhealthcare": 9411,
  "Ġcriticism": 5435,
  "Ġbreaks": 8836,
  "Ġdetermin": 4056,
  "Ġbarely": 7996,
  "open": 9603,
  "Ġexcited": 5552,
  "ĠPlay": 3503,
  "Ġrelative": 3484,
  "Ġargues": 9291,
  "rat": 1198,
  "Ġaf": 6146,
  "NS": 9108,
  "ĠJersey": 6943,
  "ĠGeorgia": 6959,
  "Ġ.": 1176,
  "Ġpopular": 2525,
  "iously": 1650,
  "Ex": 4149,
  "Image": 4504,
  "aked": 4165,
  "riers": 8009,
  "Ġrelatively": 4882,
  "ĠTimes": 3071,
  "ĠDemocrats": 3538,
  "Ġfacility": 6353,
  "cer": 1014,
  "Ġdeveloping": 5168,
  "rain": 2719,
  "Ġ1993": 9733,
  "Ġcou": 2057,
  "bal": 7527,
  "ellow": 5923,
  "ĠAustralia": 3761,
  "works": 4483,
  "Ġcomments": 3325,
  "Ġteams": 2792,
  "Ġkill": 1444,
  "Ġhop": 1473,
  "Ġsurpr": 2555,
  "reen": 1362,
  "Ġinnocent": 9314,
  "Ġgift": 7862,
  "ns": 2451,
  "Ġ45": 5051,
  "cell": 4192,
  "Ġcame": 1475,
  "Ġmovements": 7908,
  "Ġhum": 1237,
  "ward": 850,
  "Ġexplaining": 9965,
  "inson": 6896,
  "Ġfilms": 5593,
  "Ġteaching": 7462,
  "Ġarrested": 4113,
  "29": 3766,
  "ĠIII": 8269,
  "cknow": 4712,
  "ĠKh": 4802,
  "Ġcrit": 1633,
  "Ġesc": 3670,
  "âĢĻ": 286,
  "Ġaircraft": 5572,
  "ott": 1555,
  "Ġunderstood": 6933,
  "ey": 4758,
  "ille": 3076,
  "Ġresearc": 3434,
  "Ġcommercial": 4527,
  "Ġisland": 6244,
  "Ġshif": 6347,
  "Ġcos": 8289,
  ".'": 4053,
  "ĠMayor": 8130,
  "Ġchall": 2122,
  "one": 459,
  "Ġsorry": 8502,
  "Ġprofessor": 5104,
  "Ġcited": 7695,
  "standing": 5488,
  "Ġswitch": 5535,
  "ĠWisconsin": 7715,
  "iffs": 9645,
  "ĠDemocratic": 3343,
  "erent": 9742,
  "En": 6366,
  "ĠDavid": 2829,
  "Ġgrav": 8685,
  "ĠJac": 7979,
  "apping": 5624,
  "Ġcontribut": 3605,
  "Ġ]": 1725,
  "É": 132,
  "bo": 2352,
  "Ġcircum": 4919,
  "uine": 7529,
  "resp": 4495,
  "Ġcomplaint": 7384,
  "os": 376,
  "rome": 6538,
  "mark": 3946,
  "Ġgovern": 851,
  "icago": 3896,
  "Ġcent": 1093,
  "top": 5261,
  "Ġmess": 2001,
  "Ġprivile": 7455,
  "ĠAM": 4419,
  "Story": 9613,
  "Ġcompens": 7346,
  "Ġadvocates": 8513,
  "Ġwonderful": 7798,
  "aying": 8073,
  "oston": 5017,
  "Ġproced": 5548,
  "m": 77,
  "ĠEnvironment": 8677,
  "itor": 3442,
  "Ġscandal": 8282,
  "ĠMel": 5430,
  "Ġrap": 3777,
  "Ġoverseas": 9312,
  "uture": 1590,
  "ĠJews": 6149,
  "ounce": 8822,
  "Ġphotograp": 8744,
  "Ġrecruit": 9850,
  "iple": 2564,
  "ced": 730,
  "senal": 8711,
  "ounded": 5876,
  "aker": 2983,
  "####": 8578,
  "ĠKennedy": 8634,
  "ĠVice": 9553,
  "Ġdistance": 5674,
  "Ġtransport": 4608,
  "ĠON": 8378,
  "Ġath": 5153,
  "ĠMag": 3989,
  "ĠEqu": 9843,
  "Ġfantasy": 8230,
  "lant": 4391,
  "Ġteac": 4169,
  "Ġusual": 6679,
  "ĠRand": 7884,
  "Ġpassengers": 8849,
  "##": 4673,
  "Ġusage": 8958,
  "aster": 1824,
  "certain": 6516,
  "ĠTown": 8256,
  "Ġmanage": 6334,
  "Ġtips": 9259,
  "xual": 6743,
  "Ġnaturally": 8857,
  "Ass": 8488,
  "dated": 8829,
  "ĠRoy": 8462,
  "Ġsingle": 1976,
  "Ġbehav": 2914,
  "ĠInternet": 3868,
  "Ġthings": 1152,
  "Ġknowing": 6692,
  "ĠGreat": 4347,
  "ober": 1791,
  "Ġactor": 7177,
  "pril": 2531,
  "ĠWar": 1982,
  "ually": 883,
  "Ġcontrols": 7195,
  "Ġcalm": 9499,
  "rom": 352,
  "Ġ200": 829,
  "Ġfollow": 1078,
  "Ġcenters": 9104,
  "Ġmusic": 2312,
  "Ġmistake": 6779,
  "ĠSm": 2557,
  "Ġthrowing": 8649,
  "ap": 419,
  "Ġcompat": 9875,
  "Ġhistorical": 6224,
  "ĠOK": 8024,
  "Ġqual": 4097,
  "iful": 4410,
  "Ġopinions": 8559,
  "Ġcommitted": 4850,
  "Ġonline": 2439,
  "isan": 7225,
  "Ġintim": 9484,
  "ĠDirector": 5765,
  "Ġsystem": 1007,
  "ĠHall": 4433,
  "icip": 4326,
  "itect": 5096,
  "ĠScience": 5922,
  "],": 5807,
  "Ġscores": 8247,
  "ĠNFL": 4293,
  "Ġshall": 5314,
  "ola": 5040,
  "ĠAm": 1855,
  "!!": 4692,
  "Ġautom": 3673,
  "cript": 6970,
  "ifest": 8240,
  "ĠJoe": 5003,
  "ential": 1686,
  "Ġplays": 4595,
  "Ġpolice": 1322,
  "l": 76,
  "Ġfemin": 6610,
  "Ġbusiness": 1383,
  "Ġgrid": 8944,
  "Ġcategory": 7279,
  "water": 5794,
  "Ġrook": 8497,
  "Ġrecipe": 9702,
  "Ġamong": 1703,
  "ame": 448,
  "stem": 907,
  "useum": 5370,
  "ails": 1874,
  "ĠTed": 9272,
  "Ġchampionship": 7496,
  "Ġbutton": 6235,
  "Ġsimpl": 6733,
  "ulating": 7912,
  "Ġfresh": 4464,
  "Ġwant": 703,
  "Ġresist": 4399,
  "Ġexclusive": 8111,
  "Ġadapt": 6913,
  "Ŀ": 208,
  "Ġprominent": 7599,
  "Ġmel": 7761,
  "Ġlooked": 3244,
  "ĠR": 346,
  "Ġhot": 3016,
  "Ġnone": 5004,
  "Ġdire": 4098,
  "ulate": 4866,
  "Ġshadow": 9255,
  "Ġcorporate": 5166,
  "obile": 6820,
  "Ġexperiments": 9211,
  "Ġreveals": 9387,
  "cus": 7721,
  "Ġaltern": 3748,
  "ĠDavis": 6579,
  "ĠÐ": 3459,
  "ĠI": 272,
  "Ġestabl": 4074,
  "Ġdrove": 9078,
  "Ġcaptured": 7105,
  "ruary": 3138,
  "Ġeither": 2087,
  "Ġinput": 6233,
  "Ġprepare": 8115,
  "Ġnatural": 3230,
  "ĠPeter": 5209,
  "Ġgr": 929,
  "Ġchallenge": 3781,
  "ĠGr": 2023,
  "Ġdeli": 2820,
  "Ġtens": 9355,
  "Ġexplicit": 7692,
  "ript": 2411,
  "Ġcontinues": 3773,
  "ĠJeff": 4766,
  "Ġbased": 1829,
  "Ġgeneration": 4685,
  "RA": 4893,
  "inc": 1753,
  "Ġpowers": 5665,
  "Ġdate": 3533,
  "Ġconf": 937,
  "Ġslowly": 6862,
  "Ġab": 401,
  "Ġreceived": 2547,
  "Ġ195": 5599,
  "Ġdr": 1287,
  "Ġunpre": 9358,
  "orse": 6066,
  "elt": 2050,
  "Ab": 5348,
  "ased": 785,
  "Ġtell": 1469,
  "whel": 6183,
  "Ġadvance": 5677,
  "Ġcomput": 2532,
  "in": 216,
  "ĠSup": 4656,
  "iciency": 6724,
  "Ġawareness": 8372,
  "ior": 1430,
  "Ġcaption": 5775,
  "ubl": 1704,
  "rite": 9054,
  "ĠHop": 9345,
  "Ġduring": 1064,
  "Ġmeasures": 4799,
  "ps": 3002,
  "raq": 3066,
  "Ġable": 1412,
  "ĠCur": 5477,
  "Ġcontrol": 1637,
  "chn": 1227,
  "Ġrepresenting": 8988,
  "Ġcourse": 1700,
  "ards": 1406,
  "Ġsales": 3741,
  "Ġ80": 4271,
  "ĠIll": 5989,
  "Ġthink": 786,
  "Ļ": 204,
  "Ġthr": 5542,
  "Ġwat": 4116,
  "opher": 7901,
  "ĠMassachusetts": 8487,
  "ĠCom": 1040,
  "Ġstre": 1471,
  "Ġhockey": 9099,
  "Ġpriority": 7739,
  "Ġsuccessfully": 7415,
  "ĠB": 310,
  "anish": 6406,
  "ĠSaudi": 6071,
  "Ġconsider": 2445,
  "ĠInformation": 8342,
  "Ġstock": 4668,
  "Ġla": 1614,
  "dis": 6300,
  "Ġcoff": 5856,
  "abs": 7797,
  "Ġsa": 400,
  "agement": 2940,
  "Ġfor": 285,
  "ĠU": 440,
  "ling": 1280,
  "Ġsecurity": 1968,
  "Ġdeny": 9293,
  "ĠDirect": 4529,
  "Ġexcellent": 6458,
  "Ġact": 675,
  "issions": 6276,
  "Ġcogn": 8467,
  "was": 9274,
  "400": 7975,
  "ĠPacific": 7442,
  "Ġfailure": 4973,
  "¼": 121,
  "According": 3742,
  "Ġnegative": 4404,
  "Ġsigned": 3706,
  "Ġsure": 1651,
  "Ġaud": 2491,
  "Ġn": 257,
  "Ġarticle": 2499,
  "Ġcontains": 5973,
  "acc": 6726,
  "Mus": 9687,
  "Ġfans": 2646,
  "Ġrisks": 6794,
  "Ġapplic": 2500,
  "ĠHold": 9726,
  "ĠMich": 2488,
  "ĠEmail": 9967,
  "Ġanx": 7092,
  "ĠBi": 9919,
  "Ġm": 242,
  "OD": 5920,
  "ĠWestern": 4250,
  "Ġsquare": 6248,
  "Res": 5875,
  "ĠHowever": 2170,
  "ived": 1509,
  "ences": 2925,
  "Ġ90": 4427,
  "Ġexec": 2154,
  "È": 131,
  "ras": 7097,
  "Ġprof": 1414,
  "oding": 8324,
  "ĠTy": 4687,
  "Sh": 2881,
  "itary": 9458,
  "ĠTwitter": 2391,
  "Ġrelief": 7846,
  "ĠThe": 349,
  "ĠIn": 526,
  "Ġpress": 1644,
  "Ġconducted": 5414,
  "Ġeating": 6768,
  "ĠPoint": 8071,
  "Ġcrus": 9859,
  "İ": 193,
  "ĠAn": 1182,
  "ĠOs": 7451,
  "ĠRev": 5970,
  "Ġunderlying": 9819,
  "ĭ": 190,
  "Ġactivity": 3895,
  "medi": 2394,
  "Ġhun": 5529,
  "ules": 7608,
  "antic": 7718,
  "Ġdeploy": 5195,
  "Ġchapter": 8533,
  "ĠInter": 4906,
  "omb": 2602,
  "arian": 3377,
  "Ġeth": 4034,
  "urance": 3738,
  "ĠSarah": 9454,
  "Ġpetition": 8644,
  "ania": 4979,
  "men": 3472,
  "ĠPress": 4199,
  "Ġease": 9672,
  "Ġbank": 2797,
  "Ġmatches": 6867,
  "ĠSus": 9017,
  "ĠUniversity": 1793,
  "iverpool": 8562,
  "Ġ30": 1794,
  "Ġpoly": 8565,
  "ansas": 5928,
  "Ġwider": 9156,
  "ĠEarth": 3774,
  "->": 9676,
  "while": 3847,
  "date": 5964,
  "Ġsun": 4506,
  "Ġthroughout": 3407,
  "Ġarrival": 9868,
  "game": 6415,
  "Ġoff": 502,
  "ĠForeign": 7464,
  "ĠBon": 9098,
  "Ġeasier": 4346,
  "oral": 5636,
  "ortunately": 4411,
  "Ġmemories": 9694,
  "ĠRobert": 4658,
  "adel": 6624,
  "Ġknow": 725,
  "Ġph": 824,
  "Ġtakes": 2701,
  "SL": 9342,
  "Ġindex": 7491,
  "ĠSign": 6077,
  "ĠFBI": 4524,
  "Ġnegotiations": 7537,
  "Ġdoors": 7887,
  "į": 192,
  "Ġeverybody": 6088,
  "Ġmort": 5649,
  "Ġlearned": 4086,
  "ĠEr": 6501,
  "Ġdrugs": 4511,
  "Ġwork": 607,
  "Ġaccompl": 5917,
  "ĠMu": 7708,
  "Ġresulted": 7626,
  "Ġroad": 2716,
  "Ġabove": 2224,
  "adium": 5063,
  "Ġ198": 2240,
  "eral": 1499,
  "ĠReview": 7935,
  "Ġsalt": 9147,
  "Add": 6288,
  "Ġinform": 1232,
  "Ġinstall": 4093,
  "Æ": 129,
  "aging": 2537,
  "Ġproble": 1239,
  "Ġmagn": 7874,
  "Ġwedd": 9182,
  "DP": 5560,
  "eah": 4909,
  "ordon": 8695,
  "Ġbroken": 5302,
  "Ġsurprise": 5271,
  "Ġartists": 6591,
  "ĠDam": 6935,
  "Ġes": 1533,
  "Ġinsisted": 9023,
  "ĠJose": 4975,
  "Ġdomin": 5308,
  "Ġtired": 9783,
  "ĠBrew": 8413,
  "Ġnobody": 7208,
  "uit": 3112,
  "Ġevolution": 6409,
  "Ġcomputers": 7777,
  "II": 5818,
  "bered": 9619,
  "Ġopen": 1193,
  "ĠFood": 7728,
  "ĠBy": 2757,
  "Ġleader": 3020,
  "hi": 4968,
  "Ġyourself": 3695,
  "Ġvictory": 4422,
  "Ġens": 2946,
  "jo": 7823,
  "Ġballot": 8794,
  "Ġris": 1922,
  "Ġpretty": 2319,
  "Ġreviews": 8056,
  "Ġconcer": 1721,
  "GO": 8437,
  "watch": 9885,
  "Ġdemanding": 9288,
  "they": 9202,
  "IR": 6422,
  "Ġcoal": 4312,
  "ĠFederal": 5405,
  "Ġvig": 9801,
  "engers": 8085,
  "ĠZealand": 7654,
  "agh": 9333,
  "gy": 1245,
  "ĠGuardian": 8430,
  "sm": 7209,
  "side": 1470,
  "âĢĿ.": 2922,
  "ĠAnton": 8283,
  "phy": 6635,
  "Ġextensive": 7089,
  "ĠRepresent": 9904,
  "Ġmin": 915,
  "Ġaccur": 4672,
  "Ġobs": 2691,
  "Ġemployees": 3955,
  "ged": 1895,
  "ĠNet": 3225,
  "Ġbro": 1281,
  "ogan": 6879,
  "Ġcameras": 7687,
  "con": 1012,
  "Ġbenefits": 3752,
  "Ġnear": 1959,
  "PR": 5717,
  "itution": 2511,
  "Ġhydro": 9434,
  "ould": 372,
  "Ġdefense": 3192,
  "Ġindeed": 5498,
  "Ġsell": 3460,
  "Ġconventional": 8999,
  "Ġinfrastructure": 5378,
  "ĠExper": 9813,
  "Ġreveal": 2894,
  "ĠDesign": 9353,
  "Ġemerging": 9635,
  "ĠWall": 4177,
  "ĠEnd": 7059,
  "hem": 4592,
  "ound": 606,
  "Ġdamage": 3298,
  "ners": 2435,
  "Ġmonit": 7465,
  "AY": 9959,
  "Ġthread": 7094,
  "ĠMary": 5012,
  "Ġec": 9073,
  "08": 6457,
  "uous": 5803,
  "ON": 2036,
  "Ġtracking": 9000,
  "lud": 712,
  "Ġbuilding": 2288,
  "ed": 233,
  "hop": 8846,
  "ĠParliament": 7402,
  "Ġpredicted": 9086,
  "Ġthrow": 3638,
  "aping": 8861,
  "ension": 3202,
  "Ġchecks": 8821,
  "idence": 1638,
  "Ġthanks": 5006,
  "akistan": 4579,
  "Ġathletes": 9758,
  "Ġbrings": 6189,
  "Ġbrowser": 7749,
  "ick": 616,
  "ĠStan": 6028,
  "ni": 7374,
  "ĠFrancis": 4242,
  "ict": 664,
  "ĠHistory": 8591,
  "Ġservices": 2483,
  "hed": 665,
  "Ġnew": 554,
  "Ġmo": 8086,
  "iser": 5122,
  "Ġremains": 3290,
  "Ġliterally": 6705,
  "Ġbattery": 6751,
  "ournal": 2311,
  "ĠDem": 1577,
  "Ġment": 3323,
  "Ġ7": 1017,
  "Ġsavings": 9371,
  "PC": 8391,
  "rib": 797,
  "Ġstep": 2143,
  "angel": 8379,
  "Ġsteel": 8651,
  "ooth": 5931,
  "Ġconvicted": 8050,
  "Ġmental": 4960,
  "Ġhus": 4549,
  "Ġhol": 5700,
  "ĠMartin": 4951,
  "ounding": 9148,
  "Ġconvers": 3274,
  "ĠBud": 9560,
  "Sm": 8319,
  "il": 307,
  "Ġnorth": 4535,
  "Ġunable": 5821,
  "ĠCarolina": 5133,
  "rate": 4297,
  "Ġadjust": 5197,
  "Act": 9788,
  "abis": 6769,
  "Ġstatement": 2217,
  "Ġnewslet": 6660,
  "Ġdesper": 7084,
  "itual": 9618,
  "Ġheavy": 4273,
  "Ġyoung": 1646,
  "Ġpharm": 9668,
  "rowd": 3414,
  "op": 347,
  "Ġrain": 6009,
  "ĠAT": 6178,
  "Ġgroups": 2294,
  "e": 69,
  "ender": 2207,
  "ans": 449,
  "itiz": 2612,
  "Ġminister": 4000,
  "ĠCast": 7164,
  "Ġactors": 8501,
  "ĠSaf": 7783,
  "Ġunc": 4468,
  "ipp": 4514,
  "Ġtour": 3529,
  "omed": 9640,
  "ables": 3342,
  "asting": 9506,
  "Ġport": 2566,
  ",\"": 731,
  "ĠThree": 7917,
  "Ġ_": 8752,
  "Mod": 9927,
  "iable": 3757,
  "Ġcomic": 7603,
  "Ġsuddenly": 6860,
  "16": 2053,
  "Ġplanned": 5010,
  "Ġexplo": 5737,
  "Ġcause": 2939,
  "ational": 752,
  "Ġkid": 4737,
  "head": 2180,
  "Ġfoss": 8661,
  "mate": 7913,
  "ĠAmeric": 843,
  "ĠBrit": 1981,
  "Here": 4060,
  "ĠBritish": 2919,
  "us": 342,
  "Ġtrou": 3981,
  "Ġplenty": 5371,
  "assy": 9805,
  "mm": 5554,
  "Ġcelebrate": 9315,
  "ĠScient": 8843,
  "ĠVirginia": 5384,
  "izon": 7759,
  "Ġanyone": 2507,
  "IF": 6429,
  "Ġrevealed": 4059,
  "Ġproduced": 4137,
  "isher": 5411,
  "inally": 3233,
  "Ġprisoners": 9183,
  "ĠBo": 3508,
  "Ġep": 2403,
  "Ġpersons": 9109,
  "ĠProp": 9354,
  "____": 2408,
  "Ġsequence": 9084,
  "ipped": 4441,
  "42": 5735,
  "Ġcontacted": 9633,
  "Ġpilot": 7413,
  "oration": 6881,
  "Ġincent": 8010,
  "rary": 7087,
  "Ġcolor": 3850,
  "ĠIrish": 7120,
  "Ġcampus": 6411,
  "Ġwritten": 3117,
  "Ġbeauty": 9044,
  "Ġchair": 4254,
  "annel": 4600,
  "Ġthere": 550,
  "Ġtimes": 1574,
  "Ġconsequences": 6135,
  "Ġancient": 6545,
  "Ġliked": 7927,
  "ĠTor": 3654,
  "Ġadm": 6432,
  "ancouver": 8180,
  "ned": 1154,
  "ES": 2538,
  "Ġ47": 7822,
  "oun": 859,
  "lection": 1415,
  "ĠAbout": 8058,
  "ale": 1020,
  "ĠGoogle": 2631,
  "ĠHa": 9049,
  "ism": 880,
  "ĠC": 292,
  "Ġdance": 8771,
  "Ġgovernor": 6067,
  "erts": 9271,
  "Ġresearch": 2063,
  "Ġtea": 8712,
  "Ġeverywhere": 7659,
  "Facebook": 8993,
  "Ġtargets": 6287,
  "pri": 4083,
  "Ġclick": 4921,
  "$": 4,
  "cr": 7477,
  "rap": 1344,
  "Ġseven": 3133,
  "Ġsamples": 8346,
  "ami": 7893,
  "atern": 9514,
  "bed": 3070,
  "Ġversions": 6400,
  "Ġcontest": 6286,
  "ĠJonathan": 9585,
  "ĠEm": 2665,
  "Ġfixed": 6756,
  "Ġreplace": 4230,
  "arms": 8498,
  "ĠOak": 7855,
  "Ġpurp": 3333,
  "ĠLewis": 8745,
  "Ġweight": 4055,
  "ĠSwed": 6205,
  "ĠIndeed": 8790,
  "Ġdetail": 3704,
  "ĠSenate": 3054,
  "Ġpages": 5721,
  "Ġgra": 5814,
  "Ġbound": 5588,
  "heast": 8193,
  "Ġemployee": 7013,
  "Ġnewsletter": 9530,
  "BS": 4387,
  "Ġsuffer": 8428,
  "ring": 1884,
  "thon": 8173,
  "ĠYan": 9991,
  ".[": 1035,
  "Ġthese": 746,
  "Ġgay": 4620,
  "Ġaudio": 7406,
  "Ġrot": 5947,
  "onder": 9639,
  "21": 3823,
  "Ġrelated": 3754,
  "ali": 7292,
  "Ġtouch": 3541,
  "ĠOf": 3630,
  "ĠCharl": 5608,
  "Ġraw": 8415,
  "Ġphase": 6986,
  "Ġpredict": 3759,
  "ĠAst": 9003,
  "Ġplate": 7909,
  "Ġbasis": 4266,
  "ĠTuesday": 2676,
  "Ġjoint": 6099,
  "ĠLouis": 4813,
  "Ġpit": 5013,
  "ym": 4996,
  ",âĢĻ": 5953,
  "Ġ--": 1411,
  "mission": 3943,
  "iring": 3705,
  "itute": 3399,
  "ucks": 5657,
  "Ġpush": 4020,
  "ent": 256,
  "Ġcold": 5073,
  "here": 1424,
  "ĠAlabama": 7843,
  "asts": 6953,
  "ĠAfrica": 4696,
  "Ġwinning": 4405,
  "ĠOn": 1722,
  "55": 4652,
  "ĠSix": 9680,
  "Ġcapt": 2633,
  "Ġshout": 8814,
  "uper": 7984,
  "Ġaccident": 5606,
  "Ġmood": 9839,
  "www": 3961,
  "arly": 834,
  "oted": 4829,
  "Ġdisc": 955,
  "Ĺ": 202,
  "ied": 784,
  "Int": 9693,
  "olt": 7703,
  "ĠOne": 1881,
  "core": 8245,
  "Ġdebt": 4166,
  "Ġdemonstrated": 8882,
  "Ġind": 733,
  "Ġupset": 8023,
  "reprene": 8574,
  "Ġcharity": 9759,
  "isk": 9420,
  "Ġsignific": 2077,
  "Ġcentral": 3710,
  "road": 5285,
  "News": 8493,
  "Ġfar": 1155,
  "Ġdonations": 9557,
  "Ġlots": 5626,
  "inn": 3732,
  "Ġneut": 6790,
  "Ġconclusion": 7343,
  "Ġstruck": 6630,
  "ity": 371,
  "Ġstance": 9956,
  "Ġpolic": 1500,
  "ued": 1522,
  "ĠCommon": 9564,
  "ĠOr": 1606,
  "Ġchallenging": 8035,
  "Ġrob": 3418,
  "uits": 8726,
  "Ġhousing": 4837,
  "Ġconven": 7281,
  "ima": 7379,
  "utch": 6495,
  "**": 2012,
  "Ġwaste": 5820,
  "Ġlit": 1060,
  "Ġestimates": 7178,
  "omes": 9057,
  "ĠConference": 7976,
  "ĠBritain": 4572,
  "Ġissue": 1828,
  "Ġemployment": 7275,
  "el": 386,
  "amp": 631,
  "VER": 6938,
  "Ġaer": 9438,
  "71": 9158,
  "ĠEll": 6566,
  "Ġsett": 4542,
  "§": 101,
  "wo": 3102,
  "Ġvehicles": 5276,
  "estern": 2924,
  "riors": 9775,
  "Ġprice": 2703,
  "Ġmany": 774,
  "ĠBall": 8494,
  "ĠIraq": 3154,
  "Ġsimple": 2802,
  "Ġdo": 431,
  "ĠRyan": 4895,
  "Ġdecl": 2420,
  "udes": 8134,
  "Ġschedul": 5157,
  "Ġhypot": 8359,
  "Ġeach": 1172,
  "Ġsize": 3000,
  "ividual": 1908,
  "Ġseemingly": 8506,
  "scale": 8732,
  "ĠWho": 5475,
  "Ġtrees": 7095,
  "ĺ": 203,
  "Ġdominant": 9825,
  "ĠPolicy": 7698,
  "17": 2280,
  "ĠMy": 2444,
  "ports": 3453,
  "organ": 9030,
  "Ġstation": 4023,
  "âĢĶâĢĶ": 4780,
  "Advertisement": 3713,
  "Ġarm": 3869,
  "Ġmostly": 4062,
  "Ġrecognition": 8083,
  "Ġconvince": 9983,
  "Ġresident": 6290,
  "orable": 9832,
  "Ġord": 2840,
  "Ġ29": 3663,
  "Ġroll": 4941,
  "In": 748,
  "ucky": 4936,
  "Ġbeginning": 3564,
  "ĠLatin": 8210,
  "Ġspokesman": 4721,
  "Ġalongside": 6570,
  "Ġneighbor": 4362,
  "illa": 5085,
  "Ġled": 2462,
  "raw": 1930,
  "Ġfiled": 5077,
  "Ġinterface": 7811,
  "Ġhour": 1688,
  "Ġenthusi": 9776,
  "Ġposs": 1158,
  "ĠMit": 9855,
  "Ġvice": 6401,
  "Ġmale": 4296,
  "Ġwrite": 3335,
  "Many": 5988,
  "Ġaccounts": 5075,
  "ĠThomas": 5037,
  "ents": 713,
  "Ġconsum": 2423,
  "ĠLet": 4084,
  "ĠThis": 814,
  "Ġformal": 7794,
  "Ġguy": 3193,
  "ĠSocial": 5337,
  "Ġor": 373,
  "ĠPal": 2695,
  "ĠOakland": 9928,
  "ĠLeader": 9492,
  "Ġcases": 2626,
  "ĠSand": 3268,
  "ĠBer": 4042,
  "oric": 7035,
  "Ġsurely": 9357,
  "ione": 8099,
  "Ġear": 1319,
  "ĠSC": 7398,
  "ĠCamp": 5244,
  "Ġcris": 3540,
  "Ġadventure": 9508,
  "Ġfix": 3340,
  "Ġproducing": 8066,
  "erry": 3762,
  "isons": 9199,
  "Ġcomputer": 3578,
  "ĠAust": 2085,
  "ication": 4894,
  "Ġarguments": 6907,
  "ibrary": 4629,
  "Ġessentially": 6031,
  "ĠStar": 3591,
  "ĠClub": 6342,
  "Ġfestival": 8961,
  "Ġwriting": 3322,
  "arity": 6950,
  "Ġfigures": 4834,
  "omp": 3068,
  "ko": 6640,
  "RI": 8303,
  "Ġforest": 8600,
  "Ġconversations": 8700,
  "ico": 3163,
  "ay": 275,
  "46": 4966,
  "Ġ300": 6232,
  "Ġglass": 5579,
  "oses": 3239,
  "oti": 3796,
  "Ġathlet": 6111,
  "IT": 3057,
  "rim": 4691,
  "Ġnoted": 3764,
  "Ġhusband": 4907,
  "Ġflo": 6013,
  "Ġstruggle": 5623,
  "ĠâĢĺ": 1190,
  "ION": 5319,
  "alf": 1517,
  "Ġroute": 5841,
  "Ġprot": 1901,
  "Ġlow": 1834,
  "Ġpop": 1291,
  "gun": 7669,
  "You": 1774,
  "ĠData": 8022,
  "Ġvot": 1163,
  "ĠTo": 1954,
  "sex": 5863,
  "ning": 682,
  "ĠTime": 5170,
  "Ġclot": 5394,
  "pet": 5635,
  "Ġcategories": 9621,
  "gener": 8033,
  "respond": 5723,
  "Ġder": 4285,
  "ech": 2681,
  "ĠFox": 4486,
  "Ġunp": 7255,
  "30": 1805,
  "03": 6842,
  "Ġbill": 1947,
  "Ġleg": 1095,
  "Ġwanting": 9569,
  "Ġbatt": 6478,
  "abeth": 8760,
  "V": 54,
  "der": 1109,
  "\"": 2,
  "aving": 2601,
  "Ġdrone": 9686,
  "Ġth": 251,
  "ĠSaud": 5508,
  "Ġweapon": 5418,
  "olit": 5043,
  "unes": 8648,
  "nect": 1717,
  "Ġcompanies": 2149,
  "rine": 8615,
  "Ġkitchen": 9880,
  "aking": 788,
  "ĠWilson": 6848,
  "Ġblog": 3493,
  "ĠHay": 8039,
  "ĠESP": 7831,
  "Ġmob": 3299,
  "yl": 3321,
  "ĠHarris": 8706,
  "Ġshares": 7418,
  "soft": 4043,
  "ĠCr": 3859,
  "ĠBeck": 9294,
  "ĠIsrael": 2074,
  "+": 11,
  "ĠO": 423,
  "Ġbond": 6050,
  "Ġlic": 3789,
  "Ġsuc": 6076,
  "ĠEuro": 1556,
  "Ġautomatically": 7461,
  "Ġrecover": 8206,
  "odes": 4328,
  "Ġdon": 759,
  "ĠMan": 2015,
  "etime": 7826,
  "Ġrape": 6785,
  "to": 1316,
  "Ġbranch": 8146,
  "ĠLike": 4546,
  "Ġbreath": 9152,
  "Ġattempting": 8409,
  "Ġpulling": 9979,
  "Ġsanctions": 7675,
  "Ġconsent": 9521,
  "ĠSweden": 9085,
  "Ġillness": 8045,
  "ĠService": 5101,
  "Ġinv": 723,
  "lear": 2471,
  "Ġpartners": 4280,
  "Ġpoison": 9701,
  "Ġceleb": 8560,
  "olute": 3513,
  "uss": 953,
  "Ġtruly": 4681,
  "illion": 912,
  "ĠRadio": 8021,
  "Ġoffered": 4035,
  "ttp": 1985,
  "Ġcontributions": 8698,
  "ashes": 7613,
  "ĠStone": 8315,
  "Ġcasual": 8310,
  "Ġrich": 5134,
  "Ġshop": 6021,
  "ĠNATO": 8774,
  "Ġturned": 2782,
  "ere": 614,
  "Ġdetailed": 6497,
  "Ġfat": 4127,
  "Ġaccording": 1558,
  "Ġrelationship": 2627,
  "Ġfell": 2990,
  "Ġlicens": 8440,
  "Ġclient": 6045,
  "her": 323,
  "Ġprotocol": 8628,
  "intendo": 8464,
  "rous": 7885,
  "Ġhospitals": 9940,
  "ĠÂ": 1980,
  "olar": 9865,
  "Ġeffects": 3369,
  "Ġbase": 2553,
  "ĠFurther": 8184,
  "Ġmiss": 1917,
  "Ġreads": 8629,
  "Ġwel": 4632,
  "line": 1278,
  "Ġlistening": 8080,
  "ud": 428,
  "ĠMont": 5018,
  "elly": 5798,
  "Ġpenalty": 7355,
  "ĠQ": 1387,
  "Ġansw": 2527,
  "Ġoutcome": 7226,
  "ĠEnergy": 6629,
  "Ġwhat": 573,
  "Ġimmediate": 6479,
  "iac": 9795,
  "vert": 1656,
  "Ġfav": 1918,
  "Ġinvolved": 2600,
  "Ġsubs": 5532,
  "Ġcreated": 2554,
  "Ġpool": 5934,
  "ĠAnderson": 8647,
  "'t": 655,
  "ĠMinister": 3441,
  "Ġrevenue": 5521,
  "No": 3315,
  "Ġattempt": 2032,
  "iti": 8117,
  "ĠStory": 9556,
  "oming": 6462,
  "agon": 3456,
  "Ġreturns": 6447,
  "PA": 4507,
  "Ġbehaviour": 8223,
  "la": 4175,
  "burgh": 7974,
  "win": 4284,
  "Ġtact": 5526,
  "Ġoblig": 6894,
  "Ġfellow": 5111,
  "Ġaren": 3213,
  "Ġpartic": 1260,
  "Ġsus": 2093,
  "alty": 6249,
  "Ġdeeply": 6745,
  "Ġvacc": 6984,
  "Ġmortg": 9327,
  "Ġprograms": 3831,
  "box": 3768,
  "ĠCode": 9082,
  "Ġentit": 7612,
  "inch": 8669,
  "adi": 9745,
  "Ġeligible": 9753,
  "Ġsupporters": 4473,
  "car": 7750,
  "ĠMonday": 2673,
  "Ġprofit": 6988,
  "Ġairport": 7828,
  "Ġcable": 7557,
  "ear": 422,
  "Ġinterested": 4215,
  "ĠColor": 5512,
  "Ġvari": 6094,
  "Ġdevelopment": 2215,
  "plom": 5688,
  "inct": 4534,
  "ga": 4574,
  "ĠKore": 2970,
  "Ġaim": 3581,
  "Ġsection": 4176,
  "Ġcart": 6588,
  "88": 5855,
  "Ġmaterial": 2768,
  "ĠChildren": 9739,
  "Ġgrab": 6316,
  "âĢĻ,": 7671,
  "ĠCrime": 9711,
  "yond": 2992,
  "ĠSet": 8992,
  "All": 3446,
  "Ġgoing": 879,
  "Ġdecade": 4544,
  "Ġvisiting": 9048,
  "Ġdown": 831,
  "ĠVietnam": 9417,
  "Ġmusical": 8813,
  "Ġtrib": 6211,
  "T": 52,
  "Ġstra": 3608,
  "Ġnotice": 4449,
  "usive": 8051,
  "Al": 2578,
  "ie": 405,
  "Ġbills": 7332,
  "ĠProgram": 7371,
  "Ġfit": 3301,
  "orge": 9004,
  "Ġcarefully": 8164,
  "Ġreceiver": 9014,
  "Ġgrowth": 2987,
  "Ġet": 2594,
  "Ġblue": 4647,
  "ĠWhy": 4191,
  "Ġ->": 7894,
  "ĠCarter": 9370,
  "antly": 3845,
  "Ġclaiming": 7099,
  "orne": 7582,
  "Ġcomple": 1229,
  "Ġlaunched": 4485,
  "Ġsides": 4985,
  "Ġwatching": 4459,
  "Ġfrust": 5711,
  "hing": 634,
  "ĠCourt": 2895,
  "ĠGe": 2166,
  "Ġproduction": 2876,
  "Ġdevelopers": 5113,
  "ĠKent": 7619,
  "Ø": 147,
  "iday": 2190,
  "Ġ[": 775,
  "ouse": 999,
  "Ġquite": 2329,
  "Ġhonor": 6979,
  "through": 9162,
  "Ġprivate": 2569,
  "Ġprofessional": 4400,
  "ĠPalestinians": 9602,
  "ĠReal": 7172,
  "Ġ0": 1068,
  "Ġsurv": 3243,
  "Ġdetect": 4246,
  "athy": 7566,
  "Ġincreasingly": 5107,
  "ci": 1009,
  "Ġtradition": 5795,
  "ĠHollywood": 6934,
  "Ġfin": 860,
  "Ġselection": 6803,
  "Ġimages": 4146,
  "Ġterrorist": 5993,
  "aders": 9889,
  "tion": 5441,
  "plus": 9077,
  "ĠThus": 7813,
  "Ġ\\": 5891,
  "Ġengineers": 9947,
  "Ġdecided": 2724,
  "Ġcho": 1716,
  "Ġsomebody": 7111,
  "ration": 1269,
  "Ġsomewhere": 7012,
  "Ðµ": 4640,
  "Ġpointed": 5419,
  "Ġexit": 8931,
  "Ġguarante": 8336,
  "rid": 5813,
  "ading": 4316,
  "Ġbias": 9588,
  "Ġrounds": 9432,
  "ocial": 9884,
  "Ġju": 7830,
  "rimination": 6997,
  "ime": 481,
  "Ġfant": 4783,
  "ply": 2029,
  "ving": 1011,
  "Ġovercome": 9995,
  "action": 2565,
  "Ġcrazy": 6525,
  "ote": 1927,
  "ĠPhil": 4114,
  "Ġparticip": 2791,
  "down": 2880,
  "Ġves": 9121,
  "ĠBrian": 7239,
  "ained": 1459,
  "Ġprote": 1564,
  "night": 4615,
  "ĠYork": 1663,
  "Ġproposals": 9021,
  "Ġconnect": 2062,
  "Ġflight": 5190,
  "Ġprovided": 3292,
  "Ġburden": 9822,
  "obb": 6534,
  "Ġocc": 1654,
  "ĠNOT": 8898,
  "Ġacademic": 7452,
  "Ġtax": 1501,
  "ty": 806,
  "Ġannounce": 4311,
  "Ġmeas": 2133,
  "for": 1589,
  "ĠVis": 7866,
  "Ġfriends": 2344,
  "Ġlicense": 6880,
  "Ġgenetic": 8400,
  "Ġfailed": 3561,
  "Ar": 3872,
  "aith": 3921,
  "ĠRa": 8654,
  "ATO": 8001,
  "Ġachieved": 7899,
  "Ġalbum": 3953,
  "¢": 96,
  "Ġtreated": 5605,
  "itional": 1876,
  "ĠFound": 4301,
  "Ġscholars": 8258,
  "gypt": 5001,
  "Ġgets": 2933,
  "5": 21,
  "Ġhundreds": 4314,
  "VE": 8978,
  "Ġminds": 8218,
  "Ġlower": 2902,
  "Ġelect": 1498,
  "itals": 7490,
  "aud": 3632,
  "76": 8222,
  "Ġdata": 1327,
  "ĠFamily": 8645,
  "Ġenable": 7469,
  "NN": 4637,
  "inary": 3330,
  "born": 6346,
  "ivil": 2182,
  "Ġam": 690,
  "Ġones": 3260,
  "Ġphone": 2720,
  "Ġofficers": 3220,
  "rol": 4002,
  "Ġexplan": 6093,
  "aps": 1542,
  "ª": 104,
  "Ġbars": 8576,
  "Ġcr": 950,
  "Ġwas": 315,
  "Ġseconds": 5038,
  "ĠReuters": 8064,
  "ĠFollow": 5879,
  "Ġacts": 6399,
  "o": 79,
  "Ġsolar": 5183,
  "Ġrough": 4727,
  "Ġcop": 2278,
  "atch": 972,
  "cos": 5933,
  "ĠAv": 5951,
  "Ġsepar": 2923,
  "Ġhear": 3131,
  "P": 48,
  "That": 2097,
  "Ġaddress": 2249,
  "agn": 4892,
  "Ġeasily": 3668,
  "«": 105,
  "Ġput": 1125,
  "Ġcloud": 5778,
  "Ġwin": 1329,
  "Ĥ": 181,
  "ternal": 5725,
  "Ġvers": 1673,
  "ĠAir": 3657,
  "ĠAr": 1004,
  "Ġprinc": 5100,
  "Ġlocal": 1747,
  "Ġlisten": 5609,
  "Ġfair": 2986,
  "ĠAcademy": 7896,
  "Ġoffer": 2765,
  "ĠVill": 9273,
  "ges": 3049,
  "vertisement": 3204,
  "mont": 7382,
  "Ġfaith": 4450,
  "Ġanimals": 4556,
  "Ġborders": 9515,
  "olves": 9238,
  "Ġamb": 4432,
  "ĠLord": 6582,
  "Ġseeing": 4012,
  "Ġdet": 1058,
  "Ġsubmitted": 9410,
  "Ġexisting": 4445,
  "Ġhandful": 8383,
  "Ġalien": 8267,
  "Ġtip": 8345,
  "57": 7146,
  "pp": 335,
  "Ġdescribed": 3265,
  "_": 63,
  "ops": 2690,
  "Ġchicken": 9319,
  "ī": 188,
  "ĠTh": 513,
  "ĠWalk": 6266,
  "ĠHom": 7666,
  "Ġfirst": 644,
  "'re": 1348,
  "ailed": 9452,
  "ription": 4158,
  "ĠAz": 9574,
  "Ġuse": 838,
  ")": 9,
  "Ġindividual": 1977,
  "ef": 928,
  "Ġcheap": 6492,
  "oman": 4550,
  "Ġbody": 2046,
  "ang": 626,
  "Ġ2013": 2102,
  "Related": 8601,
  "igrant": 8226,
  "Ġsurprised": 6138,
  "Ġpan": 3281,
  "iting": 1719,
  "ĠRussian": 2978,
  "ĠThese": 2467,
  "Ġpromised": 6791,
  "Ġearth": 4860,
  "Ġprem": 3883,
  "Ġtitle": 3580,
  "Ġstand": 1253,
  "ings": 613,
  "Ġne": 358,
  "ĠTurn": 7090,
  "Ġ9": 1108,
  "Ġprosecutors": 9397,
  "Ġrestrict": 4232,
  "west": 6381,
  "ĠHT": 7886,
  "Over": 5869,
  "Ġtoday": 1622,
  "ĠKey": 7840,
  "ĠSean": 9809,
  "Ġlawy": 4109,
  "lf": 1695,
  "rick": 4665,
  "Ġassert": 8910,
  "Ġrear": 8900,
  "apse": 6832,
  "celer": 6960,
  "ĠCry": 9325,
  "asing": 2107,
  "pret": 6354,
  "90": 4124,
  "resent": 1836,
  "ĠâĢ¢": 8876,
  "vey": 5365,
  "99": 2989,
  "Ġmean": 1545,
  "Ġlived": 5126,
  "ization": 1572,
  "Ġadded": 1886,
  "Ġscenario": 7727,
  "Ġpersonal": 2503,
  "ĠUs": 5067,
  "Ġdeliber": 7911,
  "Ġdead": 2520,
  "Get": 4290,
  "Ġspin": 7077,
  "hot": 8584,
  "Re": 3005,
  "achus": 8109,
  "hib": 3283,
  "Ġacid": 9170,
  "ald": 1750,
  "Ġargument": 4477,
  "rough": 693,
  "May": 6783,
  "Ġfallen": 8505,
  "Ġbelieves": 4677,
  "ĠAustralian": 5416,
  "Ġrational": 8499,
  "Ġuses": 3731,
  "ĠAff": 6155,
  "Ġdeg": 3557,
  "ocking": 5439,
  "Ġreference": 5726,
  "Ġprogramming": 7344,
  "rs": 3749,
  "Ġdifferently": 9401,
  "ĠMat": 4118,
  "Ġtravel": 2899,
  "Ġlist": 1342,
  "Ġlangu": 2595,
  "Ġretire": 6863,
  "Ġfranch": 6068,
  "Ġhadn": 7640,
  "rou": 434,
  "Then": 6220,
  "Ġanti": 2556,
  "Ã©": 2208,
  "rolled": 8215,
  "ĠPit": 8268,
  "Ġincreasing": 3129,
  "Ġ14": 1966,
  "Ġhighlights": 9571,
  "rets": 8572,
  "Ġpreferred": 9990,
  "Ġhandling": 8692,
  "ues": 857,
  "acking": 6788,
  "ĠDou": 5945,
  "Ġcapacity": 5231,
  "ĠHas": 7766,
  "Ġcomplicated": 7395,
  "ĠKar": 9254,
  "Ġnum": 961,
  "ĠCount": 2654,
  "est": 341,
  "rator": 8196,
  "ĠYear": 6414,
  "Ġblame": 6818,
  "Ġpaying": 5158,
  "ĠSing": 5489,
  "Ġhimself": 2218,
  "Ġmarg": 5504,
  "Ġapply": 5116,
  "gment": 5543,
  "clus": 2751,
  "ĠConservative": 8463,
  "ology": 1343,
  "Ġanswered": 9943,
  "They": 2484,
  "pl": 456,
  "Ġobsc": 9939,
  "lt": 2388,
  "!âĢĿ": 4590,
  "Ġabortion": 6908,
  "ern": 1486,
  "Ġvoices": 9573,
  "Ġenorm": 7693,
  "Ġolder": 4621,
  "Ġrelig": 2449,
  "th": 356,
  "31": 5200,
  "Ġdiversity": 8555,
  "ĠOS": 7210,
  "Ġ2020": 9038,
  "ĠML": 5895,
  "pe": 394,
  "Ġcompe": 8927,
  "Ġest": 1448,
  "Ġquestions": 2582,
  "ph": 1029,
  "ss": 820,
  "600": 9192,
  "Ġsatellite": 9193,
  "é": 164,
  "Ġvirtually": 8656,
  "vant": 4826,
  "ĠDiego": 7980,
  "author": 9690,
  "Ġcolleagues": 6292,
  "hard": 9698,
  "arrass": 8183,
  "Ġclothing": 9675,
  "Ġpick": 2127,
  "Ġofficer": 3467,
  "Ġhow": 646,
  "ãģ": 2630,
  "Ġcontaining": 7888,
  "Ġvac": 4050,
  "ocal": 4897,
  "Ġlearning": 4222,
  "gender": 6912,
  "gress": 1744,
  "alian": 6463,
  "ĠSom": 9287,
  "AC": 2997,
  "Ġstretch": 7067,
  "Ġdamaged": 9707,
  "Ġlets": 8845,
  "Ġhe": 297,
  "Ġvital": 8221,
  "ß": 154,
  "Ġextra": 3196,
  "ĠOld": 6599,
  "ĠNC": 8084,
  "ta": 6725,
  "igation": 7070,
  "igg": 6915,
  "Ġcast": 3576,
  "ĠDepartment": 2437,
  "I": 41,
  "Ġcons": 707,
  "Ġand": 250,
  "Ġadd": 729,
  "rik": 8042,
  "Ġlocations": 6845,
  "Ġsteal": 8248,
  "Ġownership": 8266,
  "Ġintellectual": 8014,
  "Ġvariable": 9982,
  "Ġresolution": 6100,
  "ison": 1568,
  "Ġret": 1022,
  "Ġdomestic": 5056,
  "Ġresign": 8516,
  "roll": 3890,
  "Ġenemies": 7207,
  "vertise": 2759,
  "agg": 8335,
  "Ġplan": 1146,
  "ank": 922,
  "ateg": 2513,
  "ĠAffairs": 9673,
  "enty": 3623,
  "Ġtypically": 5724,
  "Ġallies": 6898,
  "X": 56,
  "Ġsurprising": 5558,
  "Ġnomine": 6929,
  "Ġkilomet": 9519,
  "Ġfilm": 1893,
  "iques": 6343,
  "Ġphones": 7519,
  "Ġhack": 4587,
  "Ġmass": 2090,
  "Ġdynam": 5980,
  "Ġmeeting": 2798,
  "Ġproceed": 5678,
  "razy": 5766,
  "ĠTurkish": 7991,
  "½": 122,
  "j": 74,
  "Ġaccessible": 9649,
  "Ġoriginally": 5459,
  "ĠAct": 2699,
  "inal": 1311,
  "Ġthrew": 8805,
  "Ġengineering": 7614,
  "Ġpolit": 1097,
  "Ġiss": 1081,
  "ran": 2167,
  "ĠCle": 6644,
  "Ġtotally": 6218,
  "Ġcities": 3930,
  "Ġperman": 5941,
  "Ġcorrect": 3793,
  "ĠNetflix": 9505,
  "ason": 777,
  "Ġefficient": 6554,
  "ban": 3372,
  "ĠCanada": 2929,
  "Ġleads": 5531,
  "st": 260,
  "str": 6772,
  "Ġtechnique": 8078,
  "Ġhorror": 8708,
  "Ġtherapy": 9808,
  "ĠAvenue": 7556,
  "itting": 8756,
  "ĠSome": 2731,
  "acter": 6049,
  "Ġbet": 679,
  "semb": 4603,
  "Ġsearch": 3027,
  "rip": 6173,
  "Ġsche": 3607,
  "Ġearly": 1623,
  "OR": 2721,
  "12": 1762,
  "Ġlanguages": 7954,
  "Ġspring": 5595,
  "ĠOhio": 5767,
  "Ġfriendly": 8160,
  "Ġcandidate": 3613,
  "ĠJustin": 9208,
  "Ġstr": 933,
  "ĠDef": 3885,
  "ĠCEO": 4793,
  "Ġmus": 1780,
  "Ġeffectively": 5996,
  "ĠTheir": 5054,
  "Ġbre": 1375,
  "®": 107,
  "Ġlast": 804,
  "Ġguaran": 5303,
  "part": 3776,
  "Ġmarket": 1601,
  "Ġ28": 3324,
  "rac": 6206,
  "Ġhealth": 1416,
  "Ġfeeling": 4131,
  "ensity": 6775,
  "Ġlinks": 6336,
  "oyal": 4606,
  "Ġ40": 2736,
  "ĠOctober": 2911,
  "ĠHard": 8139,
  "ĠVol": 6181,
  "ĠMir": 8028,
  "Ġjournalists": 6971,
  "ĠRo": 5494,
  "Ġunclear": 8149,
  "Ó": 142,
  "Ġinjuries": 6040,
  "ĠExpl": 9450,
  "Just": 5267,
  "Ġpie": 2421,
  "ĠAri": 5270,
  "Ġcamera": 4354,
  "Ġgender": 4953,
  "Ġmissed": 6019,
  "ber": 474,
  "ĠJr": 6742,
  "Ġclasses": 6241,
  "use": 1843,
  "ĠShare": 8636,
  "Ġ2005": 4771,
  "ĠManchester": 7983,
  "ulated": 4602,
  "Ġconfident": 5797,
  "Ġacceler": 7769,
  "Ġyou": 317,
  "Ġ2004": 5227,
  "ought": 2770,
  "Ġtreatment": 3653,
  "Ġfilled": 5972,
  "Ġknown": 1739,
  "Ġurban": 6654,
  "OS": 3022,
  "Ġval": 1321,
  "Ġden": 2517,
  "oss": 758,
  "Ġ>": 3509,
  "Comp": 9178,
  "cont": 4139,
  "Ġshared": 4364,
  "Ġweren": 5450,
  "fol": 9144,
  "Ġstrike": 4927,
  "Ġadvert": 5759,
  "orship": 9460,
  "Ġrevel": 8777,
  "Ġlikely": 1657,
  "get": 1098,
  "Ġun": 504,
  "Ġhidden": 7483,
  "hus": 6620,
  "ĠPol": 1969,
  "Ġmice": 9873,
  "Ġconclud": 4849,
  "ensions": 5643,
  "iner": 7028,
  "ĠHouse": 1787,
  "Ġmilitary": 1960,
  "Ġpol": 638,
  "Ġlear": 1616,
  "face": 2892,
  "ĠJesus": 6520,
  "Ġendorse": 9770,
  "When": 2035,
  "Ġseasons": 5408,
  "Ġdegrees": 7432,
  "Ġhotel": 6656,
  "Ġbanned": 7875,
  "aved": 9365,
  "Ġcand": 2152,
  "Ġhit": 1896,
  "Ĥ¬": 6082,
  "Ġsymbol": 6245,
  "Ġclub": 2686,
  "Ġwounded": 9648,
  "Ġpassage": 9689,
  "ck": 688,
  "acity": 4482,
  "Ġoperating": 5102,
  "Ġhistoric": 7764,
  "ĠDevelopment": 7788,
  "inton": 1907,
  "html": 9413,
  "ribution": 3986,
  "Ġstarts": 4987,
  "Ġcrack": 5978,
  "ilar": 1871,
  "Ġforg": 5919,
  "party": 9558,
  "power": 6376,
  "2016": 8546,
  "ĠJudge": 8106,
  "ĠDid": 8029,
  "Ġtrigger": 9105,
  "Ġefforts": 3353,
  "ĠSe": 1452,
  "__": 1305,
  "ĠMoh": 7859,
  "Ġbattle": 3474,
  "E": 37,
  "Ġrecognized": 7892,
  "Ġoriginal": 2625,
  "Ġdust": 9083,
  "aring": 1566,
  "Ġcover": 2891,
  "ĠDav": 2193,
  "Ġanswers": 7149,
  "Ġhoped": 8969,
  "ren": 866,
  "Ġfoot": 2039,
  "Ġfavor": 2519,
  "Ġdoc": 2116,
  "Ġ38": 6378,
  "ani": 3130,
  "wards": 1957,
  "ĠLiverpool": 9226,
  "ij": 2428,
  "ket": 5580,
  "Ġgun": 2245,
  "angu": 2293,
  "vision": 9630,
  "Ġprotecting": 8834,
  "ĠMod": 4198,
  "Ġstriking": 9471,
  "ream": 2279,
  "Ġclimb": 8067,
  "Ġp": 236,
  "Ġterrorism": 6903,
  "Ġbike": 6309,
  "oring": 2371,
  "BC": 2277,
  "Most": 6129,
  "Ġhide": 8072,
  "Ġdozens": 7763,
  "Ġvis": 1420,
  "orted": 7023,
  "ees": 2842,
  "Ġedition": 7907,
  "ĠMiller": 6839,
  "istan": 2841,
  "Ġtraditional": 3985,
  "Ġmeant": 3644,
  "Ġindividuals": 3770,
  "ering": 1303,
  "Ġce": 2490,
  "ker": 7272,
  "Ġsample": 6809,
  "ree": 568,
  "jud": 9219,
  "Ġincludes": 3419,
  "77": 5896,
  "Ġhole": 7848,
  "Ġabsor": 9066,
  "ĠCam": 7040,
  "ĠTV": 2813,
  "Ġinteract": 5090,
  "gin": 1581,
  "Ġacqu": 3990,
  "Ġaggressive": 7330,
  "Ġcontinuing": 7274,
  "zen": 4500,
  "Ġblocks": 7473,
  "ĠTech": 9567,
  "ĠCamer": 6884,
  "ctic": 9001,
  "Ġline": 1529,
  "Ġpoverty": 6922,
  "Ġnor": 4577,
  "Ġunions": 8929,
  "everal": 7492,
  "ĠObama": 1714,
  "Ġwave": 6522,
  "ĠLu": 6886,
  "por": 1765,
  "Ġimplementation": 7704,
  "Ġ": 177,
  "fall": 7606,
  "Ġpod": 7131,
  "ĠLife": 6118,
  "ĠAfghanistan": 5806,
  "ĠCharles": 6653,
  "Ġalleg": 2342,
  "ution": 954,
  "Ġcustody": 9757,
  "Ġreportedly": 5805,
  "6": 22,
  "ĠBull": 7493,
  "ade": 632,
  "ses": 9741,
  "ĠBrexit": 9700,
  "Ġregulations": 6360,
  "ĠCost": 8912,
  "iff": 694,
  "sell": 7216,
  "Ġending": 7127,
  "Ġroom": 2159,
  "Ġtactics": 9150,
  "Ġ37": 6350,
  "Ġ18": 1438,
  "³": 112,
  "Ġshould": 799,
  "Ġterrit": 5076,
  "ĠLeg": 4865,
  "ĠII": 3514,
  "Se": 6612,
  "Ġant": 1674,
  "Ġrepresent": 2235,
  "Ġ26": 3319,
  "Ġfalling": 7007,
  "ĠPart": 2239,
  "ĠID": 6057,
  "ÑĤ": 5507,
  "atively": 9915,
  "âĢľ": 672,
  "Ġjust": 584,
  "oes": 3491,
  "ĠMost": 4047,
  "word": 6043,
  "zed": 8699,
  "era": 7411,
  "ĠVer": 4729,
  "Ġfaster": 5356,
  "Ġlegit": 5942,
  "Ġdatabase": 7075,
  "Ġbox": 3118,
  "Ñģ": 6318,
  "32": 4345,
  "ilies": 3494,
  "ollow": 946,
  "Ġchang": 1409,
  "ĠPenn": 5774,
  "Ġoffices": 8569,
  "vernment": 9384,
  "ell": 916,
  "andal": 6348,
  "Ġpil": 5236,
  "mail": 4820,
  "Ġclubs": 7818,
  "ĠBal": 9798,
  "Ġlat": 2305,
  "Ġrac": 3017,
  "ĠRiver": 5395,
  "Ġdesire": 6064,
  "Ġ2011": 2543,
  "ifications": 7336,
  "rast": 3153,
  "Ġspeech": 3403,
  "ì": 167,
  "ornia": 2863,
  "ondon": 3042,
  "Ġputs": 6808,
  "Ġschedule": 6607,
  "ĠPublic": 5269,
  "Ġspeak": 2613,
  "Ġcomplaints": 8243,
  "Ġdiffere": 949,
  "ĠLast": 5194,
  "ĠFranc": 3836,
  "avor": 6690,
  "Ġsettled": 9306,
  "ibly": 2968,
  "Ġspend": 3931,
  "Ġpaper": 3099,
  "ĠRichard": 4924,
  "ĠRam": 6372,
  "ases": 1398,
  "G": 39,
  "rooms": 9153,
  "Ġlegally": 9766,
  "Ġlength": 4704,
  "pite": 2168,
  "ĠSteven": 7235,
  "ĠâĢĻ": 7616,
  "Ġtransportation": 8614,
  "unk": 3092,
  "uction": 8582,
  "Ġ65": 7460,
  "azing": 4295,
  "Ġyears": 715,
  "Ġrespectively": 8179,
  "inent": 5391,
  "Ġdepend": 4933,
  "Ġconc": 3157,
  "Ġwhether": 1636,
  "BI": 3415,
  "Ġmonthly": 9201,
  "Ġsituations": 7256,
  "Ġ50": 2336,
  "ĠThank": 7128,
  "itely": 3788,
  "Ġliquid": 8500,
  "usion": 3929,
  "Ġgif": 9565,
  "ig": 284,
  "ĠInternational": 3739,
  "yn": 2080,
  "Ġelectricity": 7063,
  "ometimes": 6408,
  "ĠSoviet": 6473,
  "lor": 4666,
  "reams": 7524,
  "itarian": 6932,
  "Ġsho": 6858,
  "Ġappear": 1611,
  "Ġheat": 5224,
  "ĠSp": 1484,
  "ĠNY": 6616,
  "ĠMedic": 5423,
  "Ġillust": 6341,
  "ĠNov": 5515,
  "ĠFall": 9461,
  "ĠWhen": 1754,
  "Ġweb": 3844,
  "Ï": 138,
  "ĠHamilton": 9719,
  "arl": 5939,
  "--": 841,
  "Ġinvestors": 6243,
  "Ġcontributed": 7236,
  "ze": 2935,
  "Ġpipeline": 9286,
  "ultural": 8472,
  "break": 9299,
  "Ġparent": 2452,
  "Ġsentence": 6618,
  "Ġschol": 6356,
  "Ġdeleg": 7080,
  "erson": 871,
  "01": 5592,
  "IM": 5142,
  "Ġexists": 7241,
  "den": 5215,
  "uesday": 2610,
  "Ġoperation": 4789,
  "ĠSony": 8617,
  "Mean": 7658,
  "Ġswim": 9064,
  "Ġbrought": 2964,
  "Ġpartner": 4870,
  "Ġachieve": 4318,
  "ain": 348,
  "wered": 8581,
  "Ġ70": 4613,
  "weet": 7836,
  "Ġauthent": 8597,
  "ĠLiber": 4313,
  "Ġdefeat": 6796,
  "Rem": 9918,
  "ĠDC": 6390,
  "ĠFlorida": 4038,
  "ens": 595,
  "ĠAtlanta": 7966,
  "Ġpolls": 7032,
  "aily": 2837,
  "Ġdestroy": 4310,
  "Ġblood": 3252,
  "Ġreason": 1757,
  "oon": 2110,
  "Ġper": 532,
  "ported": 8762,
  "Ġleft": 1290,
  "¹": 118,
  "rapped": 9217,
  "Ġdomain": 9100,
  "Che": 8304,
  "ĠRos": 9036,
  "izes": 4669,
  "Ġbusy": 7587,
  "Ġnoting": 8643,
  "Ġsoil": 8894,
  "Ġexperiment": 4605,
  "Ġcard": 3091,
  "onym": 4938,
  "ĠSan": 2747,
  "Ġfacilit": 9720,
  "Ġgovernment": 966,
  "Ġindicate": 7864,
  "Ġfolks": 6701,
  "Ġperfect": 2931,
  "ĠPo": 8611,
  "ming": 2066,
  "Ġple": 2373,
  "Ġcase": 1286,
  "Ġbasket": 6699,
  "ĠMa": 5811,
  "utions": 3227,
  "Ġoffensive": 4777,
  "Ġother": 537,
  "Ġchances": 7404,
  "Ġwelfare": 8188,
  "uz": 9828,
  "ĠEven": 3332,
  "af": 1897,
  "ino": 2746,
  "level": 4388,
  "ĠShe": 1404,
  "Ġsymptoms": 8406,
  "ĠSal": 4851,
  "ke": 318,
  "Ġvisible": 7736,
  "irms": 7159,
  "ified": 1506,
  "Look": 8138,
  "ourt": 2619,
  "Ġi": 1769,
  "Ġregardless": 7541,
  "Ġbasically": 5576,
  "Ġtalent": 5969,
  "Ġinstru": 6573,
  "Ġbid": 7005,
  "Ġinstitution": 9874,
  "Ġvotes": 5115,
  "Ġnumerous": 5800,
  "Ġsim": 935,
  "Ġdiverse": 8878,
  "Ġstayed": 8558,
  "Ġfill": 6184,
  "EO": 3924,
  "ller": 5556,
  "met": 4420,
  "Ġcont": 512,
  "Ġretirement": 9195,
  "First": 5437,
  "Ġinstitutions": 5763,
  "Ġcompre": 7498,
  "3": 19,
  "ĠInstitute": 4418,
  "Ġgenerate": 7278,
  "ĠNews": 2374,
  "inter": 4716,
  "who": 7757,
  "Ġgrow": 1458,
  "Ġwind": 2489,
  "Ġassumed": 9497,
  "Ġvs": 4257,
  "Ġsmall": 1338,
  "amous": 9948,
  "Ġholds": 6377,
  "ivid": 1741,
  "Ġmedical": 3081,
  "Ġheart": 2649,
  "ĠWed": 2729,
  "One": 2790,
  "urn": 739,
  "ach": 587,
  "cious": 5136,
  "Ġliving": 2658,
  "Ġreview": 2476,
  "Ġobject": 2392,
  "wart": 6773,
  "Ġlimit": 4340,
  "Ġchallenges": 5420,
  "Ġreforms": 9428,
  "Ġdat": 4964,
  "Ġdefe": 4287,
  "viously": 7694,
  "Ġleaves": 5925,
  "ĠAnt": 3909,
  "coin": 3345,
  "upid": 7688,
  "ense": 1032,
  "Ġokay": 9422,
  "Ġnearly": 2620,
  "olved": 5452,
  "Ġmaking": 1487,
  "enced": 5258,
  "Ġresidents": 4160,
  "Ġ#": 1839,
  "care": 5738,
  "ĠEng": 1948,
  "iscons": 7364,
  "Ġinnovation": 8784,
  "tember": 2688,
  "hered": 5622,
  "nell": 5715,
  "Ġsal": 3620,
  "Ġcomplex": 3428,
  "Ġfunds": 4855,
  "awa": 6590,
  "uing": 3289,
  "aint": 3602,
  "Ġrapid": 5331,
  "Ġuser": 3251,
  "Ġticket": 7289,
  "Ġopportunity": 3172,
  "Ġprogram": 1314,
  "ored": 1792,
  "Ġanywhere": 6306,
  "ule": 2524,
  "Ġbail": 8120,
  "Ġstories": 3238,
  "Ġinternal": 5202,
  "ah": 957,
  "Ġthous": 2870,
  "urg": 3443,
  "fully": 2796,
  "iod": 2247,
  "Ġruled": 7136,
  "Ġworkers": 2712,
  "Ġphr": 7440,
  "US": 3033,
  "ĠDivision": 8145,
  "ann": 1554,
  "ppers": 8694,
  "Ġtight": 5251,
  "Ġmix": 3659,
  "Ġ2003": 5690,
  "ĠReg": 4048,
  "en": 225,
  "Ġoption": 3500,
  "Ġshift": 5590,
  "Ġjudges": 8740,
  "Ġcatch": 4717,
  "Ġargue": 5966,
  "Ġsave": 3852,
  "Ġlose": 4133,
  "Ġfounded": 7824,
  "Ġships": 7879,
  "Ġbas": 1570,
  "Ð¾Ð": 6987,
  "orts": 1846,
  "icial": 4185,
  "Ġstudies": 3848,
  "Ġquestion": 1653,
  "ĠInd": 1288,
  "reg": 2255,
  "Ġmaps": 8767,
  "300": 7258,
  "Ġdeserve": 9490,
  "Ġdou": 2211,
  "oul": 3417,
  "ĠInvest": 7642,
  "Ġsites": 4532,
  "Ġevents": 2786,
  "45": 3635,
  "just": 3522,
  "Ġpackage": 5729,
  "23": 3350,
  "ivity": 3585,
  "ĠFl": 1872,
  "Ġrequests": 6868,
  "ĠSur": 4961,
  "Ġany": 583,
  "Ġreporter": 7328,
  "Ġbomb": 4440,
  "Ġtowards": 3384,
  "Two": 6665,
  "ner": 971,
  "ĠChar": 3175,
  "Ġrising": 6213,
  "Ĵ": 197,
  "Ġintroduction": 9035,
  "Ġoccas": 4240,
  "Ġinstit": 5280,
  "ona": 4018,
  "ocol": 5057,
  "Ġmer": 4087,
  "urning": 2971,
  "Ġge": 4570,
  "apter": 5583,
  "ĠHead": 8563,
  "Ġ;": 4126,
  "ĠMLS": 9902,
  "Ġign": 3548,
  "Ġdoor": 3737,
  "Ġseen": 1624,
  "Ġsmoking": 9289,
  "ĠOnt": 8186,
  "Ġlying": 8809,
  "Ġgathering": 9856,
  "Ġdisorder": 9373,
  "oom": 4299,
  "Ġheaded": 7858,
  "),": 868,
  "Ġalmost": 1856,
  "From": 5139,
  "Ġclose": 1819,
  "EC": 3733,
  "ĠTrump": 1043,
  "iest": 6081,
  "oly": 4282,
  "ĠGroup": 4797,
  "****": 4710,
  "Ġ1998": 7940,
  ":": 26,
  "ĠDis": 3675,
  "Ġen": 508,
  "Ġinter": 931,
  "Ġtransl": 4877,
  "Ġindicated": 8054,
  "Our": 4806,
  "ouch": 8167,
  "Ġrally": 6305,
  "Ġpresentation": 9806,
  "lines": 5716,
  "oud": 2809,
  "Google": 9710,
  "eng": 1563,
  "ĠWhat": 1885,
  "ful": 881,
  "ĠPark": 3045,
  "berry": 9264,
  "Ġlaid": 7776,
  "Ġheav": 5359,
  "Ġavailable": 1823,
  "Ġaspects": 7142,
  "Ġindust": 1832,
  "Ġparking": 7156,
  "Ġdin": 5427,
  "sc": 1437,
  "Star": 8048,
  "Ġforces": 2944,
  "Ġharass": 7019,
  "ijuana": 4024,
  "Ġmembers": 1659,
  "ously": 3261,
  "Ġoffering": 5390,
  "NC": 6454,
  "Ġfirms": 7683,
  "Ġsources": 3898,
  "Ġmissing": 4752,
  "Ġrow": 6203,
  "uries": 4258,
  "okes": 2623,
  "Ġad": 469,
  "Ġremaining": 5499,
  "idelines": 7672,
  "oma": 6410,
  "Ġshape": 5490,
  "ensus": 6539,
  "Ġsin": 8365,
  "ĠLeft": 9429,
  "igrants": 4682,
  "itch": 3156,
  "ĠSeries": 7597,
  "ĠPower": 5597,
  "ĠGener": 3371,
  "Ġty": 1373,
  "Ġapproach": 2814,
  "ĠPeople": 4112,
  "Ġgo": 414,
  "aff": 1403,
  "lev": 2361,
  "ance": 562,
  "Ġbeyond": 3395,
  "Ġdisagree": 8309,
  "ĠPD": 9247,
  "Ġdescription": 8107,
  "Ġdisp": 3614,
  "ocratic": 6192,
  "Ġsimilar": 2078,
  "Ġquality": 3279,
  "?\"": 3551,
  "Ġplayoffs": 9561,
  "Ġgross": 9691,
  "Ġafternoon": 5584,
  "Ġconnections": 8207,
  "Ġreporters": 5710,
  "Ġshit": 7598,
  "Ġviewers": 8159,
  "Ġtheir": 454,
  "Ġwere": 477,
  "Ġtwo": 668,
  "Ġcomprehensive": 9472,
  "ĠCong": 2412,
  "Ġfinds": 7102,
  "Ġren": 8082,
  "Ġitself": 2230,
  "Ġ196": 3680,
  "Ġseemed": 3817,
  "Í": 136,
  "Ġads": 7436,
  "back": 1764,
  "Ġensure": 4036,
  "isp": 7971,
  "Ġspokeswoman": 9118,
  "Ġsecretary": 6017,
  "ĠFer": 6079,
  "Ġ11": 1691,
  "Ġsoccer": 9200,
  "Ġstreet": 4119,
  "Ġplain": 8902,
  "Ġmaster": 5429,
  "Ġintervention": 8446,
  "Ġdirection": 4501,
  "Ġbuildings": 5983,
  "Ġrele": 1149,
  "Ġve": 1520,
  "Ġpay": 1318,
  "Ġed": 959,
  "Ġshield": 9375,
  "Ġwelcome": 6811,
  "Ġfour": 1257,
  "ahu": 9477,
  "Ġhits": 7049,
  "Ġmem": 991,
  "Ġelections": 5272,
  "rel": 2656,
  "Ġbeat": 4014,
  "Ġpower": 1139,
  "Ġoutside": 2210,
  "Ġtaste": 7273,
  "Ġpassion": 6771,
  "rew": 1713,
  "Ġstaff": 2616,
  "Ġ&": 1760,
  "Ġfields": 7182,
  "ĠGal": 5316,
  "ĠHuman": 5846,
  "Ġestablished": 4763,
  "Ġevening": 5617,
  "Ġtown": 2920,
  "Ġscientists": 4395,
  "ĠOff": 2753,
  "Ġe": 262,
  "ĠCounty": 3073,
  "ĠSam": 4212,
  "********": 8819,
  "Ġclaimed": 3916,
  "Ġx": 3532,
  "Follow": 6039,
  "ĠFrance": 4123,
  "Ġblow": 6321,
  "Ġcivilian": 9388,
  "ened": 2864,
  "....": 3352,
  "}": 93,
  "Ġhyper": 9087,
  "Ġfocusing": 9242,
  "Ġpersonally": 6990,
  "Ġsam": 5992,
  "Ġâ": 3144,
  "Ob": 6345,
  "ĠMed": 2317,
  "Ġcomprehens": 8299,
  "Ġreduced": 5519,
  "Ind": 5612,
  "Ġgotten": 7062,
  "urity": 1443,
  "Ġvision": 5212,
  "Ġagenda": 6671,
  "ĠWilliam": 5783,
  "mers": 9300,
  "Ġimpossible": 5088,
  "wing": 4883,
  "Ġdescribes": 7623,
  "ĠMac": 3915,
  "ons": 656,
  "Ch": 2175,
  "Ġfocus": 2441,
  "Ġpursue": 9165,
  "Ġ1": 340,
  "reland": 5959,
  "Ġimplemented": 8338,
  "no": 4167,
  "ĠBig": 4334,
  "==": 2482,
  "ĠCleveland": 8734,
  "Ġconcerns": 3987,
  "Ġuncertain": 7520,
  "key": 2446,
  "field": 3012,
  "rich": 6134,
  "Ġappropri": 4853,
  "Ġcollect": 2718,
  "âĢ¦": 1497,
  "gers": 4861,
  "ĠChinese": 3398,
  "ĠCow": 9334,
  "eding": 8758,
  "ten": 979,
  "Ġsing": 1598,
  "Ġheight": 6814,
  "ĠBeach": 8175,
  "Ġdocumentary": 9127,
  "Ġ60": 3506,
  "Ġeffect": 1309,
  "Ġissues": 2137,
  "Ġpressure": 3490,
  "state": 5214,
  "Ġapprox": 5849,
  "ai": 1925,
  "trans": 9194,
  "Ġpeace": 3792,
  "ĠEmpire": 8975,
  "Ġsale": 5442,
  "Ġrus": 7350,
  "ĠAre": 4651,
  "Ġwith": 308,
  "Ġreven": 8371,
  "Ġamounts": 7085,
  "Ġtwe": 3526,
  "ero": 3664,
  "ĠJames": 3405,
  "Ġstatist": 9951,
  "ĠBridge": 9231,
  "Ġreflect": 3940,
  "weight": 6592,
  "Ġclassic": 6331,
  "ĠFreedom": 8632,
  "Ġmentioned": 4734,
  "backs": 8831,
  "Ġsupported": 4601,
  "Ġplaced": 4711,
  "Ġclim": 8779,
  "iation": 4256,
  "ĠMoon": 8826,
  "ĠDeath": 8980,
  "ide": 446,
  "Ġprobably": 2051,
  "Ġconflict": 4749,
  "Ġchoice": 3423,
  "Ġencry": 9268,
  "Ġ2007": 3923,
  "Ġcustom": 2164,
  "argo": 8884,
  "Ġstudents": 2199,
  "scrib": 4481,
  "ĠBad": 8716,
  "Ġbought": 5480,
  "q": 81,
  "Ġhopes": 5634,
  "Ġvalid": 5776,
  "Ġprincipal": 9976,
  "Back": 8300,
  "Ġencour": 3577,
  "ĠKingdom": 7785,
  "Ġdating": 9799,
  "uate": 4992,
  "Ġcompleted": 5620,
  "ĠChristians": 8040,
  "Ġcritic": 3093,
  "On": 2013,
  "Ġconflic": 3755,
  "Ġvote": 2389,
  "ĠSeason": 8524,
  "Ġse": 330,
  "ĠWell": 4064,
  "Ġrandom": 5342,
  "Ġhosp": 9249,
  "ĠDevelop": 6180,
  "Ġstill": 909,
  "Ġorgan": 1402,
  "Ġstream": 6667,
  "bing": 9911,
  "oll": 749,
  "ok": 444,
  "Ġterror": 2629,
  "Ġ13": 2025,
  "ower": 807,
  "Ġresponse": 2635,
  "porary": 5318,
  "Ġtie": 9018,
  "nce": 1203,
  "Ġenh": 6153,
  "Ġsh": 388,
  "az": 1003,
  "Ġleast": 1457,
  "M": 45,
  "ĠStreet": 3031,
  "Ġcolle": 5156,
  "Ġbrief": 4080,
  "Ġold": 1450,
  "Ġrunning": 2273,
  "ĠGo": 1467,
  "ĠRef": 8177,
  "Ġremem": 8293,
  "Ġsn": 3095,
  "Ġfaced": 6105,
  "ĠWil": 4575,
  "Ġkeeps": 7276,
  "Art": 8873,
  "Ġregulatory": 9957,
  "Ġsend": 3887,
  "2014": 8486,
  "Ġshows": 2298,
  "ĠApple": 3527,
  "Ġstronger": 7073,
  "EX": 9609,
  "hest": 3438,
  "Ġtypes": 4251,
  "Ġ53": 9323,
  "ĠHar": 2084,
  "ĠPennsylvania": 8255,
  "Part": 8585,
  "Ġencounter": 9348,
  "Ġconsumption": 7324,
  "ony": 1543,
  "itz": 4796,
  "Ġthreatening": 9404,
  "Ġretain": 7108,
  "ĠGov": 8273,
  "Ġpre": 623,
  "istent": 7714,
  "Please": 8749,
  "ploy": 1347,
  "Ġcompletely": 3160,
  "ĠToronto": 5216,
  "ant": 380,
  "ĠHur": 9257,
  "Ġboth": 1050,
  "aniel": 5779,
  "uck": 1336,
  "you": 6645,
  "Ġsust": 4986,
  "Ġreport": 853,
  "Ġtrouble": 5702,
  "Ġnoticed": 6739,
  "Ġfighting": 3906,
  "Ġracism": 9022,
  "ĠKelly": 7551,
  "Ã±": 9847,
  "ĠSouth": 2196,
  "Ġinjury": 4772,
  "Ġexpansion": 6083,
  "Ġflood": 6170,
  "Ġpin": 7521,
  "Ġadmit": 7170,
  "ĠWin": 7420,
  "Ġcommittee": 4492,
  "Ġ2000": 4884,
  "redit": 6966,
  "ĠâĢĵ": 689,
  "62": 8947,
  "Ġwal": 6746,
  "Ġtransgender": 8274,
  "iliar": 4484,
  "greg": 6319,
  "ĠDiv": 6296,
  "ĠKir": 7951,
  "Ġearlier": 2518,
  "ch": 311,
  "Ġfront": 2056,
  "ĠIntelligence": 8757,
  "Ġvoters": 3357,
  "Ġexecution": 9482,
  "scribe": 9581,
  "sts": 5740,
  "Ġmakes": 1761,
  "b": 66,
  "Th": 756,
  "Ġbook": 1388,
  "ĠMass": 5332,
  "ĠLake": 5940,
  "orrow": 4406,
  "Ġprison": 3269,
  "Ġprob": 1778,
  "pective": 4736,
  "Ġgirls": 4812,
  "Ġsession": 5924,
  "ĠFestival": 9826,
  "uted": 8720,
  "kin": 4848,
  "y": 89,
  "ĠEth": 9800,
  "Ġemot": 3858,
  "ĠWhile": 2717,
  "Ġawesome": 7188,
  "Ġconsensus": 9729,
  "Ġinfl": 6708,
  "ep": 470,
  "icit": 3892,
  "time": 2367,
  "Ġwait": 3983,
  "Ġcook": 4786,
  "Ġrenew": 5772,
  "Ġcre": 1079,
  "Ġnotes": 4465,
  "ption": 1447,
  "Ġsight": 7130,
  "64": 5482,
  "ĠMain": 9542,
  "¨": 102,
  "Ġsuicide": 6674,
  "Ġstruggled": 9478,
  "ĠNBA": 6179,
  "CL": 5578,
  "ess": 369,
  "Ġpatch": 9135,
  "ra": 473,
  "Ġinner": 8761,
  "ĠPop": 8957,
  "regon": 7192,
  "Ġserved": 4373,
  "Ġparticipate": 7756,
  "Ġpurch": 3339,
  "izer": 9579,
  "Ġencourage": 7039,
  "Ġtermin": 6521,
  "ac": 269,
  "Ġgames": 1567,
  "Ġalleged": 3521,
  "Ġeconomic": 2415,
  "Ġbalance": 5083,
  "Ġgive": 1559,
  "Ġpump": 7945,
  "inity": 7282,
  "there": 7296,
  "Ġappre": 5098,
  "Ġbare": 6108,
  "Ġtherefore": 4868,
  "Ġserving": 6647,
  "ening": 2952,
  "IG": 5445,
  "Ġpicked": 5886,
  "ĠDecember": 3009,
  "Ġshe": 637,
  "Ġstaying": 9577,
  "Ġ(": 354,
  "Ġmodern": 3216,
  "ression": 3477,
  "Ġarrived": 4858,
  "ĠGeor": 2760,
  "ĠMcC": 3287,
  "Ġassass": 9485,
  "pool": 6994,
  "amac": 8731,
  "Ġgives": 3694,
  "Ġbelief": 4393,
  "Ġenc": 2103,
  ".\"": 681,
  "atur": 2348,
  "ancial": 2448,
  "pes": 7056,
  "rison": 6595,
  "Ġobserved": 6703,
  "Ġsomething": 1132,
  "Ġtake": 939,
  "Ġanother": 1128,
  "dy": 9917,
  "Ġtick": 4204,
  "otic": 6117,
  "ĠAng": 2853,
  "Ġswe": 3740,
  "ĠAnd": 757,
  "It": 893,
  "ĠStart": 8808,
  "Ġ199": 1595,
  "ï¿½": 6876,
  "iev": 9592,
  "Ġcolors": 8635,
  "âĸ": 6890,
  "Ġstud": 884,
  "Ú": 149,
  "iver": 1689,
  "app": 1284,
  "Ġmom": 1847,
  "Ġsummer": 3250,
  "Ġrelationships": 6512,
  "ĠCO": 8161,
  "umble": 9695,
  "Ġteachers": 6718,
  "ĠRight": 6709,
  "Ġband": 3604,
  "ĠMichigan": 5975,
  "Ġ27": 3234,
  "Ġasking": 4134,
  "ĠStud": 4151,
  "nergy": 5937,
  "Ġregard": 2808,
  "ecause": 3021,
  "Ġut": 3502,
  "ib": 541,
  "Ġsuffered": 5837,
  "Ġkind": 1483,
  "?": 31,
  "'.": 8451,
  "Ġdig": 2865,
  "Ġdest": 2302,
  "Ġcome": 1188,
  "ital": 1195,
  "ĠColorado": 6364,
  "Ġdiff": 776,
  "Ġcompete": 7647,
  "Ġlegacy": 8842,
  "ĠJust": 2274,
  "ĠWhere": 7259,
  "reat": 598,
  "ĠGun": 8942,
  "arth": 3038,
  "making": 7691,
  "Ġexperien": 3215,
  "Ġloud": 7712,
  "coming": 4324,
  "Ġreports": 2666,
  "Ġgraphics": 9962,
  "Ġlapt": 9692,
  "Ġlanding": 9504,
  "ament": 1817,
  "Ġdemocracy": 6197,
  "lee": 9601,
  "ves": 1099,
  "Ġtherap": 7447,
  "fe": 5069,
  "alls": 5298,
  "Ġ31": 4366,
  "ĠAmerican": 1331,
  "ĠYOU": 9230,
  "²": 111,
  "iams": 5165,
  "Ġfloor": 4503,
  "atically": 4455,
  "AN": 2129,
  "upp": 4321,
  "Ġdump": 8816,
  "oz": 9473,
  "Ġingred": 8479,
  "Ġupper": 7321,
  "ĠDespite": 7068,
  "ĠRus": 8070,
  "Ġg": 266,
  "¬": 106,
  "ask": 2250,
  "Ġsent": 1800,
  "Ġnine": 4401,
  "Ġtechnology": 2536,
  "Ġroutine": 7290,
  "Ġ<": 2637,
  "Ġrese": 1418,
  "Ġprove": 5343,
  "ape": 2131,
  "ien": 1950,
  "rest": 875,
  "ĠOntario": 9093,
  "ĠBro": 1900,
  "ĠJan": 2171,
  "Ġunw": 7778,
  "Ġprec": 3507,
  "Ġmach": 3082,
  "Ġlarg": 2258,
  "Ġmountain": 8627,
  "ropri": 8688,
  "ĠIowa": 7630,
  "vent": 3083,
  "Ġout": 452,
  "ħ": 184,
  "Ġerrors": 9445,
  "miss": 3933,
  "Me": 7542,
  "ĠGermany": 3805,
  "ĠHarvard": 9292,
  "ĠGame": 4552,
  "pie": 8994,
  "Ġstim": 6976,
  "Ġstake": 8529,
  "uth": 1063,
  "onent": 3903,
  "ĠZ": 1293,
  "lin": 2822,
  "Ġprocess": 1351,
  "ĠJustice": 4263,
  "bour": 4765,
  "Ġ2016": 1767,
  "Ġint": 506,
  "Ġfaces": 5801,
  "onna": 6368,
  "Ġmag": 2331,
  "ĠMagic": 9600,
  "aturally": 7522,
  "Ġcourt": 1953,
  "Ġgap": 6834,
  "so": 507,
  "Ġcannot": 2576,
  "lined": 9475,
  "Â°": 9120,
  "OL": 4487,
  "res": 363,
  "Ġbur": 4279,
  "pton": 8682,
  "Ġstadium": 7973,
  "61": 8972,
  "Ġstudy": 1975,
  "Ġstatements": 5936,
  "Ġoutput": 6185,
  "ĠFrench": 3618,
  "Ġneighb": 7895,
  "ĠNASA": 6991,
  "Ġrel": 779,
  "ĠAD": 7657,
  "ĠAccording": 4072,
  "zing": 8964,
  "mann": 7600,
  "ĠYou": 1008,
  "Ġclos": 3435,
  "Ġlargely": 4639,
  "Ġmid": 2722,
  "ends": 2552,
  "Ġaccount": 1837,
  "24": 3183,
  "acts": 9459,
  "Ġevent": 1631,
  "ĠCre": 8670,
  "iol": 1537,
  "Ġcomedy": 8818,
  "round": 696,
  "vin": 6596,
  "Ġapp": 564,
  "Ġdish": 9749,
  "Ġnecessary": 3606,
  "though": 1883,
  "axy": 6949,
  "ĠCommunity": 8351,
  "Ġagencies": 5146,
  "igh": 351,
  "Ġnorm": 2801,
  "ĠAssad": 9914,
  "ĠRober": 3621,
  "Ġguard": 4940,
  "llig": 2644,
  "ĠGall": 7151,
  "ĠTom": 3838,
  "ĠSpecial": 7501,
  "Ġarguing": 9330,
  "iness": 1173,
  "Ġsecond": 1180,
  "ĠMurray": 9922,
  "bre": 4725,
  "Ü": 151,
  "Ġworking": 1521,
  "ologies": 5207,
  "Ġchat": 7481,
  "UR": 7088,
  "Ġsuff": 2390,
  "Ġreform": 3811,
  "Ġcountries": 2242,
  "Ġtom": 6444,
  "Ġhom": 2368,
  "Ġtackle": 7978,
  "ecut": 8235,
  "âĢĿ": 365,
  "Ġdepart": 5598,
  "Ġbrand": 4194,
  "Ġcounterpart": 9793,
  "Ġcash": 4589,
  "Ġrecently": 2383,
  "reme": 2081,
  "Ġscope": 8933,
  "rated": 3688,
  "Ġuniversity": 5253,
  "Ġfoc": 1868,
  "Ġconce": 8640,
  "Ġ12": 1465,
  "My": 3650,
  "Ġlegislative": 9326,
  "Ġblocked": 9071,
  "Ġcertainly": 3235,
  "Ġgaming": 7295,
  "Ġprovision": 9331,
  "Ġkinds": 6496,
  "plete": 8542,
  "Ġdiscuss": 1973,
  "Ġveteran": 7424,
  "aped": 5754,
  "ĠBatman": 9870,
  "Ġtab": 9396,
  "ĠMexican": 8776,
  "chers": 6565,
  "73": 9169,
  "ĠSnow": 7914,
  "ĠThey": 1045,
  "Ġagreement": 4037,
  "ez": 7767,
  "ĠMin": 1831,
  "ollywood": 6352,
  "ĠNetwork": 7011,
  "Ġcampaign": 1472,
  "ï¿": 6605,
  "Ġwouldn": 3347,
  "sub": 9897,
  "ister": 1528,
  "Ġsick": 6425,
  "Ġlisted": 6125,
  "Ġscient": 2567,
  "ĠYemen": 9699,
  "Ġrecognize": 6914,
  "Ġwages": 8361,
  "Ġget": 600,
  "Ġoccurred": 5282,
  "ao": 6909,
  "Ġ=": 1359,
  "ĠOrgan": 7291,
  "Ġappointed": 9041,
  "Ġresults": 2479,
  "ecutive": 9034,
  "ashington": 2059,
  "Ġprepar": 9265,
  "abor": 3169,
  "Ġpict": 2780,
  "Ġfactor": 5683,
  "Ġprompt": 8458,
  "ĠLyn": 8892,
  "à": 155,
  "Ġtrans": 984,
  "Ġsouthern": 7029,
  "Ġemergency": 5650,
  "lls": 6969,
  "hesis": 8888,
  "Ġlie": 6260,
  "ĠHarry": 8013,
  "Ġexception": 7931,
  "Ġexperience": 1889,
  "Ġwond": 3056,
  "Ġsister": 6676,
  "Ġadop": 4071,
  "ĠGer": 7607,
  "ĠSuper": 3586,
  "Ġ1960": 7898,
  "Ġproven": 8037,
  "FC": 4351,
  "ĠYes": 4768,
  "ptions": 8662,
  "illed": 3205,
  "Ġer": 1964,
  "ava": 4724,
  "ĠMean": 8659,
  "Ġserv": 1067,
  ".\"[": 7280,
  "Ġjudgment": 9617,
  "Ġtrig": 5426,
  "Ġchannel": 6655,
  "ĠHome": 6527,
  "Ġcup": 7554,
  "bury": 9536,
  "Ġterrorists": 8211,
  "icy": 4646,
  "ĠChurch": 4512,
  "sw": 2104,
  "yle": 2351,
  "Ġinvolvement": 8201,
  "ĠJuly": 2558,
  "Ġexpert": 5300,
  "ĠFeb": 2784,
  "Û": 150,
  "athan": 6123,
  "87": 7960,
  "witter": 1898,
  "ĠAt": 1594,
  "ven": 520,
  "ogen": 7709,
  "uke": 4999,
  "ror": 1510,
  "ĠAC": 8837,
  "Ġseats": 7123,
  "ody": 1148,
  "ias": 5238,
  "Ġcarried": 5015,
  "ency": 1297,
  "Ġinspect": 9767,
  "Ġlatest": 3032,
  "Ġif": 601,
  "Ġassoci": 2687,
  "Ġwrote": 2114,
  "Ġprefer": 4852,
  "Ġburd": 8118,
  "pass": 5792,
  "Ġfive": 1647,
  "Ġplanning": 4708,
  "zy": 7294,
  "Te": 5957,
  "ĠQueen": 8414,
  "Ġcomp": 503,
  "Ġpoll": 2907,
  "Ġ500": 5479,
  "ished": 1258,
  "Ġtrading": 7141,
  "Ġsaw": 2322,
  "Pl": 4842,
  "Ġaffordable": 9451,
  "Ġvolume": 6786,
  "ĠWork": 6042,
  "Ġcombat": 5398,
  "ĠTur": 3306,
  "ĠAction": 8390,
  "ional": 1513,
  "Ġinvolve": 5476,
  "ĠCNN": 6137,
  "ĸ": 201,
  "sel": 706,
  "ĠDuring": 5461,
  "Ġimagine": 5205,
  "Ġplans": 2774,
  "Ġauthor": 1734,
  "ĠAugust": 2883,
  "Ġwid": 6889,
  "Ġauthors": 6485,
  "ĠFin": 4461,
  "ĠAsh": 7758,
  "Ġpositions": 5433,
  "rete": 7401,
  "Ġramp": 8979,
  "Ġapplication": 4063,
  "Ġfuel": 4667,
  "Ġreferred": 6586,
  "Ġsettle": 5160,
  "ih": 4398,
  "Ġcrimin": 9647,
  "lder": 7179,
  "ifer": 7302,
  "ro": 264,
  "Ġpolitical": 1515,
  "Ġspl": 4361,
  "lect": 771,
  "Ġstored": 9430,
  "Y": 57,
  "ams": 1811,
  "Ġdiagn": 6930,
  "ĠPut": 5259,
  "mind": 9391,
  "Ġcommunities": 4408,
  "Dr": 7368,
  "Ġtomorrow": 8515,
  "ĠCy": 6535,
  "Because": 7390,
  "mat": 8583,
  "Ge": 9975,
  "Ġtypical": 6874,
  "Ġintent": 6677,
  "Ġdinner": 7970,
  "come": 3037,
  "ĠGlobal": 7754,
  "Ġkilled": 2668,
  "Ġwinter": 6728,
  "Ġlive": 1912,
  "Ġlinked": 6070,
  "erences": 4915,
  "pected": 7042,
  "Ġpoints": 2070,
  "Ġlet": 1268,
  "phone": 4623,
  "D": 36,
  "Ġracist": 8168,
  "ario": 4480,
  "Ġpractice": 3231,
  "Ġconsidering": 5567,
  "pan": 6467,
  "Ġnotion": 8091,
  "Ġofficial": 1385,
  "Ġrookie": 9524,
  "Ġstrategy": 4092,
  "hold": 3003,
  "Ġrisk": 2475,
  "Ġtrials": 9638,
  "Ġfre": 2857,
  "ĠUS": 1206,
  "Ġgood": 885,
  "ĠPalest": 4233,
  "aus": 7867,
  "Ġouts": 8507,
  "ocrat": 1539,
  "Ġfactory": 8454,
  "Ġrestaurant": 6215,
  "Ġlands": 8714,
  "ĠFour": 6962,
  "ĠClass": 6869,
  "Ġlobby": 8290,
  "Ġsustain": 6906,
  "ĠLat": 5206,
  "och": 5164,
  "Ġwalking": 5901,
  "ining": 3145,
  "isl": 2572,
  "Ġdist": 1213,
  "Ġtelling": 4578,
  "Ġrecomm": 3436,
  "Ġmainstream": 6684,
  "atural": 2677,
  "ĠBru": 7193,
  "Ġdoub": 3181,
  "Ġ2009": 3164,
  "Ġdevelop": 1073,
  "Ġbelow": 2307,
  "aves": 3255,
  "Ġbab": 9248,
  "Ġalive": 6770,
  "Ġh": 245,
  "Ġmanagement": 4342,
  "ĠNorthern": 7681,
  "oot": 1006,
  "Ġcompet": 1946,
  "isters": 5768,
  "Ġdouble": 4360,
  "35": 3617,
  "ashing": 1813,
  "ĠAward": 9236,
  "ĠDeb": 9525,
  "Ġcooperation": 9465,
  "comes": 9002,
  "Ġsudden": 5014,
  "ms": 918,
  "ĠJune": 2510,
  "Ġparliament": 6304,
  "f": 70,
  "rawn": 5704,
  "assador": 8949,
  "ĠFriend": 9944,
  "Ġgate": 9763,
  "land": 951,
  "acket": 8995,
  "ĠAngeles": 4761,
  "ause": 628,
  "look": 5218,
  "TP": 9608,
  "ocks": 3913,
  "ria": 7372,
  "Ġmatters": 5733,
  "Ġjud": 2386,
  "ect": 480,
  "sole": 6682,
  "ĠGT": 9769,
  "HS": 7516,
  "vere": 4006,
  "De": 5761,
  "ĠCreat": 9903,
  "light": 2310,
  "Both": 8664,
  "umber": 6604,
  "ville": 3902,
  "Ġnom": 3558,
  "ague": 1701,
  "Ġdelay": 5874,
  "Ġavoid": 3408,
  "Ġthreats": 6144,
  "Ġvoting": 5514,
  "ĠProfessor": 8482,
  "Ġar": 558,
  "Ġ%": 7399,
  "Ġbowl": 9908,
  "Ġorganiz": 3934,
  "Ġtransition": 5808,
  "Ġnuclear": 3567,
  "ĠCentral": 5180,
  "Ġvoter": 8787,
  "Ġelimin": 5771,
  "Ġconvin": 8002,
  "ail": 567,
  "Ġmeaning": 3528,
  "ĠSil": 4695,
  "Ġdaily": 4228,
  "da": 7576,
  "Ġextract": 7396,
  "Ġwe": 306,
  "Ġreal": 997,
  "roud": 5173,
  "Ġshown": 3594,
  "Ġconfir": 3662,
  "ugh": 6638,
  "Ġlawsuit": 6204,
  "Ġparticipants": 6456,
  "Ġfam": 1038,
  "Ġreceiving": 6210,
  "anged": 5654,
  "ather": 995,
  "Ġweird": 7284,
  "ĠSP": 7799,
  "Ġfile": 3366,
  "ung": 2108,
  "Ġmagazine": 6126,
  "ĠHon": 9399,
  "Ġconcrete": 9010,
  "Ġtechn": 1380,
  "rian": 4022,
  "Ġtweet": 4910,
  "hern": 2586,
  "Ġtape": 8908,
  "ĠMid": 7878,
  "Ġfacilities": 6916,
  "Ġowner": 4904,
  "Ġprimarily": 7144,
  "ny": 3271,
  "Ġmembership": 9246,
  "Ġprocedure": 9576,
  "ĠNavy": 7726,
  "pire": 5250,
  "ĠAb": 2320,
  "Ġrepeated": 4551,
  "LC": 7735,
  "Ġres": 529,
  "ĠSen": 1878,
  "Ġsignal": 7262,
  "ill": 312,
  "ries": 1518,
  "Ġright": 773,
  "ĠUK": 2965,
  "Ġleave": 2636,
  "employ": 5825,
  "Ġabuse": 4740,
  "Ġframe": 4383,
  "Ġintellect": 7072,
  "0000": 5703,
  "Ġimpression": 9862,
  "Ġhost": 2369,
  "Ġpictures": 5842,
  "ual": 699,
  "Ġcoaches": 8522,
  "LE": 5321,
  "ĠLe": 1028,
  "Ġle": 396,
  "ĠKn": 7037,
  "ma": 2957,
  "lex": 2606,
  "Ġcooper": 5838,
  "Ġneigh": 2915,
  "Ġclosely": 6419,
  "Ġremind": 4988,
  "enger": 6096,
  "After": 2947,
  "Let": 5306,
  "ĠCook": 8435,
  "ires": 2621,
  "Ġdeck": 7016,
  "arry": 6847,
  "ography": 4502,
  "ĠPhilipp": 8344,
  "Ġtro": 3432,
  "Ġmap": 4276,
  "Ġregister": 8313,
  "Ġperceived": 9817,
  "Ġactual": 4033,
  "ĠWomen": 6866,
  "LA": 7376,
  "ĠCol": 1669,
  "Ġembarrass": 8568,
  "market": 9802,
  "Ġcapital": 2750,
  "Though": 9243,
  "Ġlong": 842,
  "Ġalt": 6186,
  "Ġgod": 6833,
  "Ġcal": 2657,
  "ether": 6799,
  "Ġrescue": 9132,
  "<|": 659,
  "ome": 418,
  "Ġsat": 3543,
  "Ħ": 183,
  "azi": 6723,
  "Ġcompeting": 9688,
  "ĠMicrosoft": 4754,
  "ĠHigh": 3870,
  "±": 110,
  "Ġvolunte": 6451,
  "Ġdue": 2150,
  "ham": 2530,
  "Ġquote": 9215,
  "Ġrequirement": 9910,
  "Ġkilling": 4935,
  "Ġgoal": 2469,
  "Ġpublicly": 5935,
  "Ġdistrict": 4148,
  "Ġaver": 7968,
  "Ġfinal": 2201,
  "profit": 7806,
  "Ġnote": 3629,
  "Ġher": 593,
  "Ġchief": 3305,
  "med": 1085,
  "iler": 7622,
  "Ġlonger": 2400,
  "Ġintroduced": 4746,
  "Ġrush": 9250,
  "apped": 4830,
  "inois": 8219,
  "Ġopenly": 9706,
  "Ġsituation": 2763,
  "Ġcontribution": 9551,
  "ĠBeijing": 9203,
  "Ġsaying": 1929,
  "Ġban": 2120,
  "Ġembr": 6543,
  "Ġgrand": 4013,
  "igration": 3639,
  "Ġtiss": 9658,
  "Ġchanging": 5124,
  "Ġans": 9593,
  "nces": 3245,
  "int": 570,
  "Ġoverse": 7530,
  "Ġcance": 9088,
  "Ġinformed": 7268,
  "Ġpossible": 1715,
  "orter": 3846,
  "read": 962,
  "ampion": 5835,
  "Ġcreating": 4005,
  "Ġharm": 4374,
  "ĠResearch": 5044,
  "Ġaggress": 4946,
  "Ad": 2512,
  "stract": 8203,
  "Ġrare": 3864,
  "Ġretail": 5400,
  "Ġfasc": 6762,
  "afe": 9138,
  "igan": 4835,
  "oured": 7929,
  "ot": 270,
  "ida": 3303,
  "Ġnerv": 8683,
  "ĠTop": 6589,
  "ident": 620,
  "Ġflaw": 7955,
  "Ġfull": 1301,
  "iller": 4491,
  "Hz": 9781,
  "Ġfighter": 9210,
  "ĠJon": 5204,
  "%,": 7987,
  "Ġformer": 1550,
  "ute": 1136,
  "arks": 5120,
  "Ġlevel": 1332,
  "Ġlegend": 7936,
  "Ġdiseases": 9896,
  "irl": 2101,
  "Ġartific": 9102,
  "Ġwelf": 8162,
  "Ġencouraged": 8735,
  "Ġmuch": 810,
  "Ġdone": 1672,
  "Ġhospital": 3991,
  "ipe": 4272,
  "bert": 4323,
  "Ġresearchers": 3938,
  "SA": 4089,
  "Ġtree": 6005,
  "Ê": 133,
  "Ġtied": 7283,
  "86": 7609,
  "elson": 9416,
  "Ġscenes": 7427,
  "ox": 1156,
  "ĠKeep": 9968,
  "Ġneither": 6113,
  "Ġgl": 1254,
  "ĠTour": 9060,
  "ĠTechnology": 9045,
  "Ġtun": 5694,
  "Ġrid": 5284,
  "Ġilleg": 3679,
  "Ġapart": 5188,
  "ogue": 5589,
  "Ġhapp": 1041,
  "Ġupdates": 5915,
  "sa": 9916,
  "rum": 6029,
  "Ġhighest": 4217,
  "ĠUkrain": 4676,
  "acher": 9852,
  "Ġr": 322,
  "ĠHell": 9027,
  "Ġtaking": 2034,
  "Ġtalk": 1405,
  "ÃĤ": 6263,
  "ĠâĪĴ": 9677,
  "resident": 1479,
  "ĠStore": 9678,
  "Ġrival": 7154,
  "dule": 5887,
  "ĠLa": 3942,
  "N": 46,
  "enn": 1671,
  "Ġcontinue": 2238,
  "Ġsweet": 6793,
  "etic": 5449,
  "Ġbeh": 1274,
  "Ġdoll": 3115,
  "scape": 7686,
  "Ġpocket": 9878,
  "Ġbright": 6231,
  "?âĢĿ": 2942,
  "Ġegg": 6581,
  "Ġcrew": 5019,
  "Ġdemonstrate": 9494,
  "Ġepis": 3437,
  "ĠSunday": 2943,
  "Ġenjoy": 2886,
  "ĠLy": 8176,
  "ipl": 6747,
  "UN": 8199,
  "iments": 6715,
  "Getty": 7548,
  "Ġnamed": 3284,
  "Ġsharp": 7910,
  "ĠOver": 4508,
  "ivers": 1089,
  "Ġwom": 1046,
  "Ġ|": 2026,
  "izabeth": 9159,
  "Ġreduction": 7964,
  "gh": 421,
  "Ġforeign": 2752,
  "Ġactively": 9285,
  "ĠHouston": 6383,
  "ĠTrib": 8943,
  "itionally": 8427,
  "Ġfrom": 379,
  "ĠSc": 1546,
  "Ġdog": 3530,
  "ĠLt": 9527,
  "pa": 9216,
  "Ġevidence": 2275,
  "Ġf": 234,
  "unction": 5709,
  "Ġexchange": 4898,
  "Ġinteresting": 3170,
  "ĠAmerica": 1863,
  "ĠStep": 5638,
  "inction": 8939,
  "eline": 4327,
  "Ġresources": 3839,
  "Ġhook": 8208,
  "math": 9830,
  "Ġ33": 6199,
  "ĠWhich": 8799,
  "Ġsports": 4773,
  "Ġburn": 5668,
  "Ġalcohol": 6167,
  "70": 3952,
  "Up": 5325,
  "Why": 4982,
  "Ġfought": 7634,
  "aware": 8920,
  "ĠPort": 4154,
  "ĠAh": 7574,
  "Ġtem": 2148,
  "Ġmarks": 8690,
  "cean": 5410,
  "Ġall": 443,
  "ĠW": 329,
  "Ë": 134,
  "Ġsto": 3784,
  "Ġcalcul": 5648,
  "ctor": 2599,
  "she": 7868,
  "Ġdismiss": 5685,
  "ĠField": 8019,
  "bi": 8641,
  "Ġrelevant": 6417,
  "tern": 716,
  "Ġgoes": 2756,
  "ĠGu": 2158,
  "Ġfunctions": 6250,
  "Ġmanifest": 9735,
  "Ġinfluence": 4132,
  "ĠAd": 1425,
  "Ġstands": 5762,
  "ĠHot": 7408,
  "iano": 9090,
  "Ġnar": 5324,
  "Off": 7394,
  "Ġstri": 2186,
  "Ġtrack": 2387,
  "Ġlittle": 1273,
  "of": 590,
  "IV": 5210,
  "Ġplease": 4622,
  "Ġhappening": 4994,
  "ystem": 7845,
  "quarters": 7575,
  "Ġlimits": 6982,
  "65": 5191,
  "am": 280,
  "ference": 4588,
  "anks": 2928,
  "Ġlives": 2769,
  "Ġcontrad": 9198,
  "ĠDan": 5237,
  "ĠBoy": 6387,
  "Ġdrop": 3744,
  "ĠPot": 8551,
  "Ġ19": 648,
  "ĠBoth": 5510,
  "ears": 4413,
  "Ġdealing": 6734,
  "Ġrespond": 2684,
  "Ġextended": 6815,
  "Ġstrongly": 6983,
  "Ġvisitors": 8374,
  "Ġax": 8955,
  "Ġmulti": 5025,
  "Ġequival": 6924,
  "ades": 2212,
  "Ġscene": 3425,
  "isc": 2349,
  "chie": 2855,
  "Yes": 6103,
  "Tube": 5977,
  "Ġlies": 6482,
  "ĠMinistry": 8294,
  "ile": 540,
  "85": 6201,
  "Ġreleased": 2189,
  "Def": 9829,
  "Ġmuseum": 9111,
  "Ġrace": 2823,
  "Ġpain": 2404,
  "ĠEngland": 3962,
  "erted": 8855,
  "ò": 173,
  "Ġaccess": 1866,
  "Ġends": 5587,
  "ĠWater": 7222,
  "iveness": 6643,
  "load": 2821,
  "Ġarmy": 5005,
  "gl": 5273,
  "Ġkey": 2020,
  "Ġterm": 3267,
  "âĢĺ": 4719,
  "ĠChief": 5328,
  "Į": 191,
  "Ġimm": 2096,
  "Ġleaving": 4026,
  "Ġcommun": 1144,
  "Ġviol": 1730,
  "Ġsit": 1333,
  "ele": 9383,
  "ener": 867,
  "Ġconference": 3625,
  "Ġsaid": 438,
  "etroit": 6405,
  "vard": 8599,
  "Ġeye": 4049,
  "not": 1766,
  "Ġdetermine": 5297,
  "ĠWashington": 2169,
  "amber": 7784,
  "Ġetc": 4183,
  "\">": 9188,
  "Ġruns": 4157,
  "ĠNation": 7601,
  "Ġton": 5309,
  "Ġmode": 5513,
  "ĠHo": 8612,
  "asons": 2509,
  "called": 5904,
  "Ġsport": 5292,
  "Ġexclus": 4871,
  ",'": 5392,
  "Ġdowntown": 7507,
  "idel": 5708,
  "Ġconduct": 3079,
  "iversity": 1392,
  "Ġmail": 7645,
  "Ġinn": 3149,
  "ude": 2550,
  "Ġmonitor": 8541,
  "bridge": 8996,
  "ĠLibya": 9848,
  "Ġreducing": 8153,
  "Ġeveryone": 2300,
  "ordan": 6503,
  "Ġnumbers": 2833,
  "ĠOpen": 5415,
  "Ġworldwide": 7185,
  "ĠAR": 7348,
  "ery": 2214,
  "bits": 9728,
  "Ġused": 998,
  "Ġattack": 1295,
  "Ġshouldn": 5877,
  "ashed": 5143,
  "gram": 1209,
  "Ġshow": 816,
  "woman": 6776,
  "Ġinitiative": 8140,
  "Ġlegitimate": 8483,
  "s": 83,
  "hip": 970,
  "ĠAssociation": 4714,
  "Ġacting": 6553,
  "Ġseparate": 4443,
  "Ġupon": 3036,
  "Ġprofession": 7939,
  "Ġinspired": 6658,
  "Ġmarkets": 5071,
  "Ġbutt": 9303,
  "Ġ17": 2028,
  "Ġrose": 8062,
  "ĠUnited": 1371,
  "ley": 1496,
  "Ġbattles": 9780,
  "Ġreasons": 3549,
  "Ġfirm": 3658,
  "Ġmere": 4929,
  "ya": 3959,
  "fect": 2498,
  "Ġsitting": 5220,
  "Ġmathem": 8854,
  "Ġdev": 1587,
  "Ġwearing": 5527,
  "Ġrequested": 9112,
  "ĠSaturday": 3236,
  "Ġmet": 1157,
  "Ġgiant": 5787,
  "ĠProject": 5681,
  "ĠSuch": 8550,
  "Ġload": 4298,
  "Post": 7930,
  "Ġborn": 4337,
  "Ġparticularly": 3179,
  "ĠAssoci": 3534,
  "Ġpled": 6623,
  "Ġsoftware": 3455,
  "ĠGerman": 2306,
  "Ġchart": 6320,
  "essions": 5585,
  "rought": 2702,
  "Ġsilver": 8835,
  "Ġspecifically": 5345,
  "irc": 2002,
  "Ġaction": 2233,
  "Ġequivalent": 7511,
  "Ġtor": 7768,
  "Ġhappen": 1439,
  "ater": 695,
  "ĠKen": 4649,
  "Ġdiscovery": 8301,
  "Ġrecorded": 5523,
  "Ġsolid": 4403,
  "ica": 3979,
  "ĠSpr": 5372,
  "Ġ56": 9905,
  "However": 4168,
  "ively": 2130,
  "earing": 7266,
  "ĠWhite": 2397,
  "ating": 762,
  "ended": 1680,
  "apan": 2539,
  "ĠBar": 2031,
  "itude": 4057,
  "Ġabilities": 9237,
  "nd": 313,
  "Ġsqu": 2730,
  "Ġsharing": 6561,
  "isconsin": 7370,
  "Ġworst": 4563,
  "ĠTest": 7419,
  "Ġroof": 8434,
  "Ġwriter": 5192,
  "^": 62,
  "Ġcomm": 671,
  "Ġcollective": 8329,
  "Ĳ": 195,
  "ilt": 2179,
  "Ġfund": 1548,
  "uring": 803,
  "ĠAS": 7922,
  "Ġproblems": 2560,
  "Ġgener": 1106,
  "Ġloan": 7257,
  "ste": 4141,
  "Ġincreases": 6092,
  "ĠCal": 2038,
  "ĠPhiladelphia": 7697,
  "Ġchance": 2698,
  "Ġemer": 2748,
  "ec": 719,
  "Ġloans": 8526,
  "Ke": 8825,
  "ending": 1455,
  "anny": 7381,
  "Ġ24": 2440,
  "ĠPre": 4741,
  "ĠFoundation": 5138,
  "inem": 6452,
  "overy": 4663,
  "ĠCA": 8722,
  "Ġtrick": 6518,
  "Spe": 6073,
  "ĠGod": 2596,
  "Ġcancer": 4753,
  "essor": 5960,
  "ĠUnfortunately": 8778,
  "work": 1544,
  "Ġdeliver": 4744,
  "Ġvirtual": 6603,
  "def": 6047,
  "ally": 411,
  "ican": 6280,
  "Ġproperties": 6764,
  "hatt": 9636,
  "Where": 8528,
  "Despite": 6634,
  "Ġapproval": 6722,
  "Ġcoaching": 9966,
  "Ġcle": 1123,
  "ĠCanadian": 4458,
  "Ġeventually": 3648,
  "ĠFirst": 3387,
  "ĠWednesday": 2845,
  "Ġpowerful": 3595,
  "lease": 3597,
  "Ġwasn": 2262,
  "Ġroot": 7503,
  "ĠLiberal": 9446,
  "ĠLive": 7725,
  "Ġkn": 591,
  "Ġothers": 1781,
  "Ġbath": 7961,
  "Ġwr": 1596,
  "Ġthose": 805,
  "ities": 812,
  "Ġsettings": 8438,
  "rie": 5336,
  "ett": 3311,
  "ĠBlue": 6158,
  "Ġhands": 2897,
  "Ġdeals": 6921,
  "ĠSim": 3568,
  "Ġstrange": 6541,
  "icate": 7656,
  "Ġsatisf": 5748,
  "Ġtox": 7967,
  "cho": 6392,
  "Ġevery": 738,
  "Ġvideo": 1783,
  "Ġcontem": 7227,
  "Ġcounts": 8885,
  "ĠCompany": 6964,
  "ĠTok": 9804,
  "bs": 1525,
  "ĠBoard": 6222,
  "ĠBre": 3976,
  "Ġfalls": 8918,
  "Ġtries": 8693,
  "ictions": 8476,
  "fer": 2523,
  "ĠNight": 7002,
  "ath": 795,
  "Ġbring": 2024,
  "Ġdream": 5501,
  "Ġloved": 5790,
  "mony": 9129,
  "ĠIr": 4954,
  "endof": 660,
  "CH": 4627,
  "ĠAndroid": 4873,
  "Ġarrange": 7952,
  "Ġuniversal": 9280,
  "ĠGOP": 4745,
  "Ġfamily": 1495,
  "eb": 1870,
  "Ġocean": 8068,
  "ĠMcG": 7924,
  "Ġvarious": 2961,
  "Ġwithout": 1231,
  "ĠBible": 9174,
  "Ġsafety": 3450,
  "ili": 2267,
  "liament": 4130,
  "Ġplay": 625,
  "ĠOlymp": 5660,
  "°": 109,
  "ate": 325,
  "Ġke": 855,
  "ĠMS": 7232,
  "Ġfinally": 3249,
  "des": 8638,
  "alk": 923,
  "zona": 6308,
  "uy": 6140,
  "Ġpotential": 2431,
  "ET": 3753,
  "va": 6430,
  "Ġtells": 4720,
  "Ġmargin": 9670,
  "ĠDi": 6626,
  "Ġbrother": 3802,
  "Ġadvice": 5850,
  "Ġarchitecture": 9529,
  "________": 4278,
  "ÃŃ": 6059,
  "Ġannoun": 1789,
  "ĠBrother": 8330,
  "imb": 4896,
  "ĠEn": 2583,
  "Ġlawyers": 7495,
  "Ġscoring": 7786,
  "ĠIts": 6281,
  "Ġseat": 5600,
  "Ġbeings": 9834,
  "Ġswing": 8782,
  "Ġbar": 2281,
  "Ġguidelines": 9655,
  "Ġremoved": 4769,
  "Ġoil": 2697,
  "Ġlif": 3745,
  "¸": 117,
  "oded": 8869,
  "ĠParty": 3078,
  "Ġisol": 6475,
  "Ġallegations": 5979,
  "Pro": 3951,
  "rael": 1920,
  "Ġsees": 6413,
  "Ġcollabor": 5692,
  "Ġplants": 5670,
  "Ġvirt": 3954,
  "ommod": 8477,
  "Ġdi": 2234,
  "Ġfool": 9347,
  "¡": 95,
  "aturday": 3087,
  "claim": 8579,
  "26": 3624,
  "ĠCons": 3427,
  "Ġeven": 720,
  "Ġcult": 2017,
  "Ġmaterials": 6065,
  "ĠGra": 6446,
  "Ġdefend": 4184,
  "Ġstick": 4819,
  "Ġcontro": 1217,
  "Ġhappy": 3559,
  "Ġtransit": 9123,
  "Ġinsult": 9909,
  "Ġcig": 9223,
  "Ġscience": 3248,
  "Ġground": 2268,
  "kay": 6151,
  "Ġreplacement": 8820,
  "nam": 6514,
  "Ġbrilliant": 9197,
  "aining": 1531,
  "ĠSpring": 8392,
  "ĠLook": 7472,
  "Click": 9950,
  "PP": 8803,
  "Ġattention": 2950,
  "Ġcovered": 5243,
  "Pol": 6379,
  "Ġ48": 6484,
  "Ġbehalf": 7800,
  "Ġexperts": 5189,
  "Ġboost": 5363,
  "Ġmod": 1013,
  "Ġshr": 9407,
  "Ġraising": 7304,
  "ounds": 3820,
  "rection": 9418,
  "Ġforced": 3609,
  "ordin": 5525,
  "Ġobviously": 5516,
  "theless": 9056,
  "Ġmiddle": 3228,
  "rav": 4164,
  "Ġno": 611,
  "ge": 436,
  "Ġboat": 8539,
  "ĠMah": 8333,
  "utes": 1857,
  "Ġdespite": 3185,
  "Ġbanks": 4808,
  "ash": 1100,
  "ND": 5252,
  "Ġrepresented": 7347,
  "mes": 6247,
  "Ġspots": 9433,
  "ither": 1591,
  "step": 9412,
  "Ġbetter": 1261,
  "Ġrelease": 2314,
  "Ġhealthy": 5150,
  "Ġemerged": 7625,
  "ĠStadium": 8665,
  "irect": 1036,
  "Ġdraw": 3134,
  "Ġrom": 8874,
  "ĠJerusalem": 9496,
  "andon": 4634,
  "Ġdifficulty": 9509,
  "man": 714,
  "Ġpunish": 6965,
  "++": 7807,
  "Ġsuspect": 3535,
  "ection": 8596,
  "ED": 2977,
  "uses": 2913,
  "ĠRel": 5662,
  "Ġchain": 6326,
  "More": 4738,
  "Ġstudio": 6633,
  "ĠLou": 4135,
  "arge": 1162,
  "ated": 472,
  "roph": 9890,
  "Ġdisease": 4567,
  "Ġgro": 7351,
  "View": 9730,
  "Ġcouldn": 3411,
  "gas": 6469,
  "Ġexcell": 5870,
  "ks": 546,
  "Ġhang": 7965,
  "ĠGraham": 9443,
  "ĠCo": 1803,
  "OK": 9228,
  "ĠMaryland": 9253,
  "Ġtesting": 4653,
  "how": 4625,
  "ĠNintendo": 9114,
  "any": 975,
  "ia": 484,
  "Ġtwenty": 8921,
  "Ġnegoti": 4143,
  "ĠCD": 7043,
  "stream": 5048,
  "ions": 462,
  "ines": 1056,
  "isation": 4767,
  "Ġmind": 1989,
  "ĠRomney": 6195,
  "Ġsense": 2339,
  "isions": 3197,
  "].": 5074,
  "Ãĥ": 6609,
  "Ġcontract": 2481,
  "ĠDer": 9756,
  "49": 4847,
  "Ġrebels": 9988,
  "Ġplus": 5534,
  "Ġtre": 1958,
  "St": 1552,
  "Ġadult": 4073,
  "iam": 2996,
  "Ġinterests": 4733,
  "Ġhat": 6385,
  "How": 2354,
  "L": 44,
  "ign": 510,
  "Ġliber": 3024,
  "Ġter": 976,
  "gency": 4571,
  "edd": 5742,
  "Ġlink": 2967,
  "Ġalready": 1370,
  "Ġestimate": 8349,
  "Ġstood": 6187,
  "Ġmanner": 6547,
  "ĠPass": 9031,
  "ages": 1088,
  "Ġcollege": 3588,
  "ics": 837,
  "style": 6556,
  "EE": 9065,
  "Ġaddresses": 9774,
  "Ġprovide": 2227,
  "ĠFoot": 7729,
  "Con": 4259,
  "ĠEdward": 9362,
  "Ġmodel": 2614,
  "uel": 2562,
  "Ġshel": 6855,
  "ĠMarket": 8132,
  "Ã¢": 9881,
  "Ġdesign": 1408,
  "Ph": 2545,
  "Ġaverage": 2651,
  "Ġprotest": 4286,
  "Ġbrothers": 8496,
  "Ġjourney": 6619,
  "using": 3396,
  "ken": 3699,
  "hour": 8425,
  "book": 1768,
  "ĠJul": 6001,
  "Ġfelt": 2835,
  "conf": 8827,
  "Ġbeating": 9964,
  "Ġanalysis": 3627,
  "annels": 8746,
  "fortunately": 6268,
  "OT": 3512,
  "UST": 8950,
  "Ġparties": 4100,
  "Ġdecades": 3726,
  "ĠThose": 5320,
  "ĠIndian": 3445,
  "Ġmagic": 7387,
  "Sim": 9368,
  "alia": 8868,
  "ag": 326,
  "Ġtitles": 7467,
  "Ġresponsibility": 5229,
  "Ġdiscipl": 7680,
  "Ġwithin": 1696,
  "odd": 5564,
  "Ġattract": 3851,
  "z": 90,
  "iability": 8620,
  "urt": 3431,
  "iate": 8959,
  "tel": 9277,
  "Ġpr": 666,
  "ĠAdd": 4288,
  "Ġinches": 9583,
  "um": 360,
  "ĠM": 302,
  "ĠMicro": 4248,
  "lando": 9835,
  "54": 7780,
  "Ġdeveloper": 7100,
  "Ġprint": 3998,
  "Ġrou": 5092,
  "ift": 2316,
  "inese": 3218,
  "Ġoffense": 6131,
  "ĠMiss": 4680,
  "Ġinvestments": 9740,
  "Ġcontin": 1115,
  "Ġdeath": 1821,
  "Ġnot": 366,
  "ĠSenator": 7488,
  "Ġcoun": 2049,
  "Ġvul": 5103,
  "cience": 4237,
  "ĠJim": 4728,
  "Ġnetworks": 6240,
  "oms": 4827,
  "Ġspons": 6141,
  "Ġaffect": 2771,
  "Americ": 4583,
  "ians": 1364,
  "Ġunless": 5222,
  "olve": 6437,
  "Ġentirely": 4564,
  "Ġmuscle": 9811,
  "Ġmit": 9263,
  "Ġinvolving": 6798,
  "Ġreplaced": 6365,
  "sequ": 2991,
  "Ġste": 2904,
  "Ġbacked": 7926,
  "Ġstring": 6283,
  "ãĢ": 7476,
  "Ġmarried": 5900,
  "Ġfig": 2124,
  "and": 345,
  "ĠPalestin": 4832,
  "fr": 9503,
  "Ġcol": 938,
  "Ġexpress": 2522,
  "Ġreferendum": 8936,
  "Ġclosed": 4562,
  "Ġmyth": 7426,
  "Man": 6302,
  "sy": 1970,
  "ado": 3928,
  "ĠPlan": 5199,
  "od": 357,
  "ht": 5413,
  "Ġrepresents": 6152,
  "ĠWorld": 2065,
  "Ġtaught": 7480,
  "Ġterritory": 6816,
  "ĠArmy": 4908,
  "Ġcoordin": 7644,
  "ancy": 4703,
  "Ġcond": 1809,
  "Ġmotiv": 5602,
  "ull": 705,
  "Ġdying": 9501,
  "ĠAnother": 6271,
  "Can": 6164,
  "ĠTony": 7571,
  "VD": 9595,
  "iced": 3833,
  "ĠWarren": 9439,
  "Ġnormally": 8154,
  "ha": 3114,
  "Ġfoundation": 7827,
  "Ġparalle": 8786,
  "ĠJew": 3050,
  "Ġmenu": 8280,
  "Ġspace": 2047,
  "ĠGen": 6016,
  "over": 2048,
  "rors": 6774,
  "??": 8681,
  "ĠDig": 8229,
  "ace": 517,
  "Ġfollowers": 9616,
  "Ġ2019": 8455,
  "ĠDNA": 7093,
  "Ý": 152,
  "Ġintended": 5288,
  "iture": 9883,
  "Ã¼": 6489,
  "ates": 633,
  "olph": 9019,
  "ĠJackson": 5689,
  "asted": 8872,
  "Ġsolve": 7512,
  "akh": 9554,
  "ev": 1971,
  "Ġtechnical": 5793,
  "Ġnav": 6374,
  "Ġ25": 2243,
  "Ġsame": 943,
  "ĠInt": 7673,
  "ly": 263,
  "ĠMaster": 8923,
  "Ġdraft": 3698,
  "ĠWH": 9221,
  "Ġreader": 8675,
  "66": 6036,
  "Ġfears": 8340,
  "Ġstyle": 4011,
  "Mr": 4377,
  "Ġfemale": 3957,
  "Ġhardware": 6358,
  "Ġarray": 8253,
  "Ġlogic": 8469,
  "Ġsupports": 6905,
  "Ġcommunity": 1756,
  "Ġdepartment": 4424,
  "ĠAL": 6621,
  "ĠBureau": 9033,
  "Ġpack": 2592,
  "Ġwalk": 2459,
  "Ġill": 2804,
  "Ġdiscount": 9773,
  "Ġaward": 5030,
  "orthern": 4325,
  "ĠBr": 1727,
  "ĠOlympic": 9143,
  "ERS": 6087,
  "joy": 2685,
  "tr": 3166,
  "Ġtough": 4878,
  "05": 5603,
  "asury": 9516,
  "Ġfet": 9622,
  "Ġexerc": 4645,
  "amacare": 8840,
  "Ġgu": 899,
  "Ġinqu": 7036,
  "ĠH": 331,
  "ĠIce": 8358,
  "Ġleague": 3579,
  "ĠMark": 3151,
  "hy": 5619,
  "09": 6587,
  "Ġacross": 1745,
  "Ġmust": 1431,
  "Ġwear": 5984,
  "Ġthank": 5481,
  "Ġspoke": 4528,
  "Ġdiscrimination": 8003,
  "Ġspecific": 2254,
  "Ġbrain": 3466,
  "Ġdeficit": 9051,
  "Ġpublication": 8449,
  "Ġtracks": 7580,
  "Ġreferend": 8660,
  "Ġassets": 6661,
  "TA": 5938,
  "inks": 3039,
  "Ġratings": 9258,
  "ĠJanuary": 2793,
  "ĠUFC": 8094,
  "cul": 3690,
  "ĠThrough": 9821,
  "omas": 4472,
  "Russ": 8566,
  "ĠWe": 726,
  "Ġdep": 1174,
  "Ġsuffering": 6481,
  "Ġtank": 7249,
  "ĠFord": 6946,
  "Ġdelivered": 5892,
  "Ġcomb": 2019,
  "Ġrevolution": 5045,
  "ĠMuslim": 3136,
  "Ġice": 4367,
  "ennis": 9187,
  "fter": 577,
  "Ġque": 5034,
  "Ġdatab": 6127,
  "Ġextremely": 4376,
  "appy": 8166,
  "Ġauth": 5911,
  "irgin": 4423,
  "Ġchanged": 3259,
  "ĠEach": 6335,
  "Ġabsolute": 3992,
  "Ġincluded": 2908,
  "Ġfire": 2115,
  "imal": 5060,
  "ĠWatch": 6472,
  "ĠVegas": 8417,
  "ive": 378,
  "mal": 7502,
  "Ġactiv": 1706,
  "Ġwars": 8259,
  "ĠHoward": 8741,
  "ĠSep": 2309,
  "ł": 211,
  "Ġinject": 8287,
  "Ġproduce": 4178,
  "Ġdevice": 3563,
  "ĠTai": 9898,
  "ouston": 5995,
  "erv": 676,
  "ĠGet": 4234,
  "Ġobtained": 6926,
  "ĠWith": 2135,
  "Ġprevious": 2973,
  "ence": 542,
  "child": 9669,
  ".<|": 919,
  "Ġcorporations": 8069,
  "Ġprinciples": 7523,
  "Ġupcoming": 6617,
  "Ġtweeted": 8444,
  "Ġbillion": 2362,
  "Ġwood": 5518,
  "Ġcentury": 3593,
  "ederation": 9270,
  "Ġbra": 8096,
  "Ġresistance": 6980,
  "Ġequally": 8124,
  "Ġdeclined": 5868,
  "¾": 123,
  "Mc": 8197,
  "tem": 1202,
  "{": 91,
  "Ġinnoc": 7325,
  "iction": 2917,
  "Ġweapons": 3720,
  "ĠAllen": 8387,
  "ĠVirgin": 4864,
  "Ġstandard": 3383,
  "Ġseems": 2147,
  "Pr": 7665,
  "ÃĥÃĤÃĥÃĤ": 7020,
  "Ġclaim": 1399,
  "Ġrural": 8404,
  "Ġing": 6091,
  "Ġannouncement": 6104,
  "Ġcommitment": 6572,
  "Ġfil": 1119,
  "Ġfinding": 4609,
  "Ġdesigns": 9233,
  "Ġtonight": 9382,
  "ation": 299,
  "ĠJ": 412,
  "Ġunit": 4688,
  "Ġmanager": 3800,
  "itage": 8851,
  "ĠSecond": 6112,
  "Ġd": 246,
  "Ģ": 179,
  "ip": 516,
  "sp": 3429,
  "http": 4082,
  "Ġadvanced": 6086,
  "82": 9762,
  "Ġsoldiers": 5152,
  "Ġinnov": 5172,
  "========": 7509,
  "ames": 973,
  "ĠArizona": 6657,
  "Ġpercent": 1210,
  "Ġbridge": 7745,
  "&": 6,
  "Ġquarterback": 5921,
  "ĠIran": 3140,
  "ĠIS": 2974,
  "ite": 531,
  "Not": 3980,
  "Ġraces": 8416,
  "Ġindependent": 4188,
  "84": 9360,
  "ĠScotland": 7168,
  "Ġthis": 389,
  "Ġeconomy": 2885,
  "Ġmachines": 7313,
  "Ġsmart": 3700,
  "Ġholiday": 8453,
  "lier": 2079,
  "Ġheading": 8389,
  "Ġfossil": 9782,
  "lic": 596,
  "log": 7684,
  "Ġhead": 1150,
  "Ġequal": 5357,
  "ogether": 7772,
  "Ġobv": 3167,
  "***": 9924,
  "ĠCor": 2761,
  "Ġcritics": 6940,
  "Ġthousands": 3476,
  "Ġgreater": 3841,
  "Ġdoctors": 6361,
  "Ġcas": 5464,
  "ĠRet": 7942,
  "ager": 2375,
  "lig": 4782,
  "Ġdri": 1361,
  "arp": 5546,
  "ģ": 180,
  "acy": 1441,
  "Ġsav": 6259,
  "):": 3696,
  "Ġtrying": 1854,
  "Ġgetting": 1786,
  "rage": 7320,
  "Ġcontain": 4568,
  "ĠPac": 5551,
  "Ġvict": 1933,
  "Ġsem": 5739,
  "Ġenthus": 7322,
  "Ġsite": 2406,
  "Ġdisturb": 9322,
  "illance": 6110,
  "Ġarrive": 8922,
  "ĠMiddle": 5235,
  "Ġwould": 489,
  "ĠTr": 782,
  "hood": 2607,
  "otype": 8575,
  "aughter": 3542,
  "Ġcitizens": 3634,
  "olog": 865,
  "ĠHenry": 7805,
  "ist": 343,
  "Ġgenerally": 4265,
  "Ġgot": 1189,
  "ĠIreland": 6202,
  "Ġstrateg": 4660,
  "Ġworked": 2679,
  "ĠFrank": 4775,
  "Ġgranted": 7388,
  "Ġbl": 677,
  "Ġcharacter": 2203,
  "Ġsubsid": 6700,
  "Ġrates": 3804,
  "Ġdetermined": 5474,
  "Ġfem": 2749,
  "Ġage": 2497,
  "Ġissued": 4509,
  "lyn": 5485,
  "Ġprosecut": 5388,
  "ĠSometimes": 9013,
  "Ġshame": 9297,
  "iving": 1335,
  "Ġsuper": 2140,
  "Ġlegs": 8370,
  "ĠSchool": 3758,
  "Ġnic": 9723,
  "2": 18,
  "Ġcomponents": 7173,
  "ĠUse": 8862,
  "oving": 5255,
  "Ġsmoke": 8190,
  "ission": 1456,
  "ĠCarl": 6998,
  "Ġcentre": 6033,
  "Ġpublic": 1025,
  "Ġactivists": 5971,
  "Ġflu": 6800,
  "ĠAle": 8586,
  "Reuters": 9483,
  "Ġregions": 6974,
  "ĠCredit": 9697,
  "Ġmake": 742,
  "Ġunex": 8053,
  "ĠBern": 5058,
  "Ġcontroversial": 6584,
  "Ġanger": 8254,
  "ĠOct": 2399,
  "Ġcarbon": 5386,
  "Ġgirl": 2734,
  "ights": 2921,
  "Ġhard": 1224,
  "ury": 1453,
  "Ġshopping": 8960,
  "xy": 6602,
  "Ġmanufacturing": 7829,
  "Ġattacks": 3198,
  "Ġinvestigate": 8264,
  "Ġacknowledged": 8824,
  "ye": 7544,
  "Ġtop": 1241,
  "Ġlosses": 7775,
  "Ġ4": 698,
  "Ġgear": 8424,
  "ãĥ": 4957,
  "Ġcalled": 1283,
  "Ġtack": 5110,
  "Ġtool": 2831,
  "Ġrequires": 4626,
  "illing": 4244,
  "ĠNote": 7985,
  "ĠAlexander": 9128,
  "Ġele": 3965,
  "Ġmillion": 1228,
  "Ġwarn": 9096,
  "ÂĴ": 8877,
  "67": 6494,
  "Ġreferring": 8353,
  "ĠAustin": 8470,
  "Ġfewer": 6423,
  "igious": 9624,
  "Ġphenomen": 6812,
  "Ġalone": 3375,
  "Ġappeal": 4488,
  "NA": 4536,
  "Ġbag": 6403,
  "ĠBur": 5240,
  "icated": 3402,
  "Ġanymore": 7174,
  "including": 8421,
  "Ġskin": 5178,
  "Ġshots": 6182,
  "BM": 8941,
  "Ġeval": 5871,
  "ufact": 3628,
  "Ġlikes": 6957,
  "Ġdirected": 7048,
  "cast": 2655,
  "Ġinternet": 4430,
  "ĠiPhone": 6055,
  "ĠArm": 8017,
  "ust": 395,
  "Ġlabor": 4541,
  "Ġsmile": 9625,
  "Ġselected": 6841,
  "ĠColumb": 6132,
  "lies": 6920,
  "Ġconsistently": 8624,
  "Ġcomfort": 4460,
  "Ġto": 240,
  "Ġodds": 9424,
  "Ġfalse": 4599,
  "Ġforce": 2584,
  "selves": 1848,
  "Ġlike": 519,
  "oe": 2418,
  "OU": 4054,
  "ĠStr": 6301,
  "ips": 2663,
  "Ġdiscussing": 9820,
  "dit": 8623,
  "Ġscale": 4715,
  "Ġfacts": 6058,
  "Ġbusinesses": 4616,
  "ĠOh": 4117,
  "81": 9863,
  "ĠPrince": 8891,
  "Ġapolog": 7591,
  "Ġ=>": 5257,
  "oph": 2427,
  "ĠSeptember": 2806,
  "Ġwomen": 1354,
  "esome": 6075,
  "ocket": 6391,
  "Ġveter": 4859,
  "'ll": 2264,
  "Ġentertainment": 8475,
  "Ġtarget": 2514,
  "ĠSer": 3452,
  "Ġpollution": 9891,
  "Ġbeg": 4025,
  "Ġuntil": 1511,
  "Ġpur": 2597,
  "Ġmethods": 5422,
  "asy": 4470,
  "Ġpromote": 6854,
  "Ġperform": 1599,
  "Ġquick": 1984,
  "Ġprospect": 5591,
  "Ġcosts": 3291,
  "B": 34,
  "ĠOther": 4229,
  "Ġgreat": 1031,
  "ĠSpanish": 7034,
  "orm": 574,
  "Ġrecovery": 7428,
  "Ġmeaningful": 9661,
  "ex": 1096,
  "ars": 905,
  "razil": 5857,
  "ĠN": 367,
  "agers": 6062,
  "Ġcondem": 6992,
  "ĠAI": 8928,
  "Ġspe": 673,
  "ĠYouTube": 6416,
  "Ġgrant": 7646,
  "Ġsch": 5066,
  "Ġask": 1169,
  "Ġmatch": 2889,
  "Ġshowing": 4150,
  "undred": 2988,
  "Ġdepression": 8725,
  "high": 8914,
  "Ġdebate": 3475,
  "Ġharassment": 9421,
  "Ġt": 213,
  "Ġcelebr": 4173,
  "Ġmember": 2778,
  "ĠLew": 7264,
  "uro": 1252,
  "ĠWhe": 6265,
  "ĠSystem": 5828,
  "iz": 498,
  "ĠTeam": 4974,
  "Ġwire": 6580,
  "uters": 5059,
  "Ġinvestment": 4252,
  "Ġread": 1055,
  "ĠNSA": 8326,
  "Ġmac": 9364,
  "Ġcounter": 3473,
  "ĠSab": 9447,
  "Ġmedicine": 8523,
  "Ġacknowledge": 9974,
  "friend": 6530,
  "ka": 4916,
  "Ġappro": 1277,
  "ĠSecretary": 5062,
  "ĠJosh": 7558,
  "pload": 8198,
  "form": 674,
  "lligence": 3075,
  "set": 3025,
  "Ġdocument": 3126,
  "48": 4635,
  "ĠNew": 858,
  "Ġspokes": 3120,
  "Ġgenerations": 9310,
  "Ġ36": 5804,
  "(": 8,
  "Ġdogs": 7119,
  "ford": 3409,
  "ĠLove": 7038,
  "Ġdriving": 4559,
  "ĠMeanwhile": 9538,
  "fast": 7166,
  "Ġhope": 2416,
  "Ġappears": 3498,
  "ĠNAS": 5746,
  "Ġletter": 3486,
  "Ġsolutions": 7186,
  "Ġmarijuana": 4402,
  "Ġconvention": 5260,
  "abilities": 5693,
  "es": 232,
  "ĠABC": 8122,
  "rates": 7269,
  "Ġcompare": 9175,
  "Ġdispute": 9703,
  "aces": 2088,
  "Ġpeople": 576,
  "ĠIsland": 5425,
  "Ġ*": 3318,
  "ĠRe": 969,
  "Ġlanguage": 3088,
  "Ġsuspended": 8554,
  "Ġchannels": 9189,
  "Ġexposure": 7550,
  "Ġsand": 6716,
  "icity": 8718,
  "Ġvide": 1514,
  "ĠBl": 1248,
  "Ġhelpful": 8926,
  "Ġplaces": 3879,
  "ron": 1386,
  "ĠGrand": 5916,
  "ĠAg": 2805,
  "Ġ64": 7514,
  "an": 229,
  "ĠIslam": 2803,
  "Ġelse": 2044,
  "aced": 2248,
  "Ġrecru": 7655,
  "27": 3519,
  "writ": 5812,
  "ĠBank": 4463,
  "Ġstops": 9827,
  "Ġopportunities": 5616,
  "Ġfeat": 2098,
  "ķ": 200,
  "Ġproducer": 7933,
  "ept": 7327,
  "ĠAnth": 7532,
  "About": 8452,
  "ĠMet": 4886,
  "Ġeasy": 2577,
  "acing": 4058,
  "ently": 2146,
  "Ġdiscussion": 4784,
  "Ġcell": 2660,
  "ĠPict": 9784,
  "inals": 9400,
  "ĠBoe": 9864,
  "Ġtools": 4607,
  "Pe": 5629,
  "Ġ1950": 9727,
  "Ġsearching": 9992,
  "itions": 1795,
  "Ġprecise": 6749,
  "Ġschool": 1341,
  "He": 1340,
  "mon": 2713,
  "Ġpat": 1451,
  "ago": 3341,
  "Ġbuild": 1240,
  "aul": 2161,
  "Any": 7101,
  "alo": 6923,
  "ĠCapt": 9042,
  "imp": 7220,
  "Ġday": 1051,
  "ĠCon": 1585,
  "Ġyounger": 6289,
  "iana": 7199,
  "Ġlaunch": 3495,
  "Ġwrit": 1323,
  "long": 5985,
  "ĠFrom": 3950,
  "ĠAlbert": 8471,
  "Ġroles": 7938,
  "anda": 4816,
  "ait": 4596,
  ",": 12,
  "ä": 159,
  "Ġair": 1532,
  "ĠFC": 7881,
  "Ġmeetings": 7057,
  "led": 968,
  "nesday": 2773,
  "Ġelements": 4922,
  "ĠGreen": 3520,
  "iter": 4825,
  "Ġreligion": 5181,
  "azz": 7734,
  "Ġphoto": 4352,
  "ĠServices": 7109,
  "ĠIm": 2060,
  "Watch": 9476,
  "ties": 4128,
  "Ġsexual": 3108,
  "ĠItaly": 6931,
  "ĠUnion": 3780,
  "go": 2072,
  "ĠAf": 1979,
  "Ġturn": 1272,
  "Ġkil": 7298,
  "Ġ2017": 2219,
  "https": 8052,
  "Ġone": 476,
  "ĠMor": 3297,
  "GE": 8532,
  "Ġtra": 2163,
  "ical": 549,
  "'ve": 1814,
  "Ġjournalist": 7849,
  "Ã¶": 6325,
  "itter": 9425,
  "alling": 8426,
  "ld": 291,
  "Ġcust": 8788,
  "ĠZeal": 7430,
  "Ġheld": 2455,
  "Ġphysically": 9650,
  "Ġupdate": 4756,
  "force": 2948,
  "apt": 2825,
  "Ġhuge": 2807,
  "Ġbreat": 5387,
  "Ġchem": 4262,
  "Ġregion": 3288,
  "but": 4557,
  "Ġbasic": 3982,
  "oen": 7919,
  "Ġassistance": 7377,
  "69": 7200,
  "Ġroads": 8318,
  "Sc": 3999,
  "Ġdrawn": 7129,
  "Ġitem": 3344,
  "aval": 8728,
  "see": 4019,
  "ĠMarch": 2432,
  "Ġplug": 7722,
  "ients": 2506,
  "Ġpract": 1888,
  "Ġduty": 7504,
  "ind": 494,
  "Ġsubsequent": 8733,
  "Ġconditions": 3545,
  "ĠUber": 9860,
  "rant": 5851,
  "che": 2528,
  "ĠBra": 9283,
  "@": 32,
  "Ġjump": 3969,
  "Ġbi": 2905,
  "pled": 8791,
  "Ġknew": 2916,
  "ĠSar": 6548,
  "K": 43,
  "Ġgrounds": 8510,
  "burg": 6721,
  "ependent": 7863,
  "ĠFil": 6828,
  "life": 5601,
  "arr": 3296,
  "rit": 667,
  "Ġimproving": 8802,
  "anche": 5344,
  "Ġprotection": 4900,
  "Ġwheel": 7856,
  "resents": 5890,
  "Ġteach": 4456,
  "rupt": 3480,
  "are": 486,
  "na": 2591,
  "Ġfly": 5802,
  "Ġguarantee": 8663,
  "Ġhalf": 1890,
  "Ġentire": 1941,
  "Ġvaluable": 7500,
  "33": 3973,
  "Ġstar": 3052,
  "Ġunfair": 9895,
  "Ġstars": 5375,
  "Ġcreatures": 9861,
  "osexual": 7853,
  "Ġstations": 7636,
  "Ġterms": 2711,
  "Ġterrible": 7318,
  "Ġble": 7117,
  "ost": 420,
  "ette": 5752,
  "ĠEU": 3772,
  "El": 9395,
  "Ġpulled": 5575,
  "Ġunf": 3413,
  "Ġfrequ": 3715,
  "Ġsound": 2181,
  "Ġsigns": 5471,
  "Ġfarm": 4617,
  "Ġdirect": 1214,
  "ĠHol": 5656,
  "ĠMax": 6806,
  "Ġface": 1963,
  "Ġnice": 3724,
  "ĠCome": 7621,
  "Ġphrase": 9177,
  "ĠSS": 8291,
  "ure": 458,
  "AL": 2901,
  "Ġadvoc": 4200,
  "Ġart": 1159,
  "GBT": 7006,
  "\")": 8473,
  "Ġcharge": 3771,
  "........": 7400,
  "Ġeas": 1350,
  "chen": 6424,
  "Ġpopularity": 9232,
  "Ġboard": 2896,
  "olen": 8038,
  "ĠMedia": 5826,
  "Ġlocated": 5333,
  "Ġsever": 1583,
  "Ġking": 6666,
  "Ġstores": 6314,
  "00": 407,
  "Ġschools": 3637,
  "oth": 823,
  "ĠHit": 7825,
  "Ed": 7403,
  "Ġtruth": 3763,
  "agues": 5020,
  "aries": 3065,
  "ocked": 3584,
  "Ġaside": 6757,
  "Ġpost": 1200,
  "rif": 9637,
  "iron": 1798,
  "Ġconfirm": 5943,
  "Ġfro": 8940,
  "13": 2174,
  "urd": 2501,
  "Ġfundamental": 6519,
  "ising": 1502,
  "Ġdistribution": 6136,
  "Ġtone": 8369,
  "Ġpounds": 7572,
  "ĠLA": 8906,
  "Ġcapitalism": 9886,
  "ian": 603,
  "Ġbrow": 5444,
  "Ġ{": 2413,
  "Ġwestern": 7435,
  "ones": 1723,
  "Ġgrass": 8121,
  "Are": 9157,
  "))": 7567,
  "Ġprodu": 927,
  "Ġless": 1271,
  "que": 3860,
  "Ġlegisl": 2910,
  "Ġappreci": 5545,
  "aze": 6719,
  "Ġmax": 4505,
  "Ġstart": 852,
  "Ne": 5358,
  "Ġclimate": 3177,
  "Ġsignature": 9972,
  "ĠLand": 7001,
  "Ġcommit": 1875,
  "ĠDave": 8986,
  "Ġacknowled": 6461,
  "Ġanyway": 6817,
  "li": 906,
  "Qu": 6142,
  "Ġtourn": 5472,
  "Ð»": 9029,
  "icket": 8362,
  "run": 5052,
  "the": 1070,
  "Ġwill": 437,
  "gorith": 7383,
  "ĠMichel": 9978,
  "venue": 3641,
  "ĠSub": 4971,
  "t": 84,
  "Ġunlike": 4357,
  "mo": 6942,
  "Ġreject": 4304,
  "lv": 6857,
  "Ġamount": 2225,
  "Ġcells": 4735,
  "59": 6837,
  "ups": 4874,
  "Ġwilling": 4069,
  "ĠPS": 6642,
  "PU": 6311,
  "ĠK": 483,
  "Ġmedia": 1630,
  "Ġcarry": 3195,
  "ĠHere": 3626,
  "Ġtreat": 2200,
  "ishop": 9491,
  "Ġclin": 5360,
  "Ġanticip": 7470,
  "lege": 2424,
  "Ġcould": 645,
  "ribute": 4565,
  "ers": 316,
  "star": 7378,
  "Ġdro": 3237,
  "----------------": 5335,
  "Ġspecies": 4368,
  "ĠSn": 7850,
  "ĠRep": 1218,
  "Ġexcess": 7340,
  "Ġpiece": 3469,
  "day": 700,
  "abama": 7468,
  "Ġpassing": 5633,
  "Ġloss": 2867,
  "rastructure": 5130,
  "related": 5169,
  "Ġdistract": 8963,
  "ĠTit": 6850,
  "Ġsan": 4707,
  "Ġcommonly": 8839,
  "Ġyellow": 8844,
  "Ġappreciate": 8674,
  "mond": 5718,
  "Ġquest": 1185,
  "wn": 629,
  "ishes": 5858,
  "Ġarticles": 6238,
  "isf": 4899,
  "Ġopp": 1112,
  "ĠRad": 5594,
  "Ġsex": 1694,
  "500": 4076,
  "ĠConnect": 8830,
  "Ġthin": 7602,
  "Ġcultural": 5446,
  "ugg": 4197,
  "urther": 1806,
  "Ġdrink": 4186,
  "Ġlines": 3810,
  "ords": 4218,
  "Ġprofess": 2291,
  "Ġbeing": 764,
  "ĠCoun": 3338,
  "Ġexpl": 1101,
  "Ġdiscover": 6877,
  ",[": 5614,
  "Ġsymp": 8952,
  "Ġgroup": 1015,
  "Ġriver": 7883,
  "qu": 391,
  "Ġfollowing": 1833,
  "Ġprofits": 8691,
  "Ġgoods": 7096,
  "ĠPan": 6758,
  "Ġnominee": 7990,
  "Ġtargeted": 6648,
  "Ġhopefully": 9849,
  "Ġthough": 944,
  "ope": 3097,
  "Once": 7198,
  "Ġgeneral": 2237,
  "Ġstuff": 3247,
  "ĠCivil": 7317,
  "pr": 1027,
  "Ġrock": 3531,
  "=\"": 5301,
  "Ġcompan": 2027,
  "Ġthey": 432,
  "Ġlarge": 1489,
  "ĠUp": 3926,
  "ccess": 1482,
  "ĠFund": 7921,
  "ĠEduc": 7414,
  "á": 156,
  "Ġspiritual": 8723,
  "ĠChris": 4604,
  "unior": 8308,
  "ĠPrice": 9486,
  "Ġare": 338,
  "Ġlatter": 6693,
  "1": 17,
  "Ġclear": 1879,
  "Ġconsequ": 4638,
  "Ĩ": 185,
  "unicip": 8781,
  "lying": 3214,
  "Ġfun": 1307,
  "most": 1562,
  "Ġobserv": 3779,
  "Ġwake": 6767,
  "re": 217,
  "Ġmajor": 1413,
  "Ġsuch": 870,
  "Ġcharac": 1604,
  "ĠAdministration": 7962,
  "house": 4457,
  "Ġrecogn": 2781,
  "ean": 3862,
  "ingly": 3904,
  "arn": 5927,
  "ander": 4292,
  "53": 7995,
  "Ġsole": 6947,
  "Ġfinish": 5467,
  "do": 4631,
  "!\"": 5078,
  "io": 940,
  "Ġintrodu": 2799,
  "Ġfort": 6139,
  "Ġbott": 3660,
  "Ġindicates": 9666,
  "Ġcriticized": 9015,
  "Ġhall": 6691,
  "ĠSee": 6004,
  "--------": 2852,
  "Ġimage": 3019,
  "An": 1990,
  "ĠAug": 2473,
  "ĠAP": 4008,
  "ĠTele": 9543,
  "ĠCS": 9709,
  "Ġknows": 3889,
  "gest": 2941,
  "Ġcontrovers": 4353,
  "Ġran": 4426,
  "Ġtow": 6344,
  "uan": 7449,
  "56": 7596,
  "Ġcapable": 5781,
  "Ġhowever": 2073,
  "Ġset": 896,
  "ĠX": 1810,
  "isted": 5221,
  "Ġjoin": 4365,
  "Ġguys": 3386,
  "ĠDenver": 9032,
  "ort": 375,
  "ength": 3922,
  "ĠNot": 2380,
  "helsea": 8871,
  "ĠDe": 1135,
  "atures": 5232,
  "âĢĵ": 1709,
  "Ġways": 2563,
  "esy": 7417,
  "Ġcost": 1462,
  "ylum": 9831,
  "arg": 821,
  "ices": 1059,
  "ĠCro": 9212,
  "Ġthree": 989,
  "Ġof": 244,
  "ĠGolden": 8552,
  "ĠDes": 3331,
  "Ġdim": 7624,
  "Ġusers": 2653,
  "ĠAp": 8598,
  "Ġtit": 2425,
  "Ġprotected": 6738,
  "Ġincred": 4417,
  "Ġext": 1033,
  "ĠIndiana": 8976,
  "Ġ120": 9684,
  "Ð°": 4659,
  "ince": 845,
  "Still": 9139,
  "Ġreligious": 3667,
  "Ġincorpor": 8367,
  "Ġdisapp": 3524,
  "ler": 1748,
  "Ġexper": 1044,
  "Ġrepl": 2134,
  "Ġver": 3439,
  "ience": 1151,
  "uct": 4943,
  "Ġextreme": 3141,
  "ĠMot": 6468,
  "olis": 7821,
  "Ġexch": 9039,
  "Ġborrow": 7841,
  "Ġpunishment": 9935,
  "serv": 8418,
  "ĠHave": 9332,
  "Ġlaugh": 6382,
  "ĠAc": 4671,
  "acon": 8373,
  "ĠHawai": 9772,
  "encing": 8991,
  "Ġcandid": 2338,
  "ulation": 1712,
  "iddle": 2287,
  "Ġhigher": 2436,
  "Ġwrest": 8736,
  "ato": 5661,
  "ortion": 5266,
  "iling": 4569,
  "Ġpushed": 6191,
  "Ġcitizen": 8302,
  "ets": 1018,
  "ares": 3666,
  "lad": 8172,
  "Ġspeaks": 8655,
  "Ġhigh": 960,
  "Ġ201": 545,
  "ĠRock": 4845,
  "()": 5396,
  "Another": 5644,
  "uild": 4085,
  "vest": 4305,
  "ĠVR": 7950,
  "Ġforth": 6754,
  "AD": 3566,
  "uary": 2508,
  "Ġactivist": 8545,
  "Ġhired": 7941,
  "Ġintern": 1536,
  "Ġdozen": 7326,
  "Ġa": 214,
  "Ġconversation": 4788,
  "ival": 2347,
  "Ġpurposes": 7078,
  "ĠLinux": 7487,
  "Ġjo": 2076,
  ";": 27,
  "ĠNor": 4925,
  "Do": 5383,
  "oid": 2270,
  "Ġsay": 800,
  "ized": 1126,
  "Ġdisappoint": 5741,
  "ached": 2407,
  "Ġperiod": 2395,
  "Ġbelie": 1105,
  "Ġobjects": 6020,
  "Ġgovernments": 5351,
  "yo": 8886,
  "ĠSouthern": 7263,
  "list": 6882,
  "While": 3014,
  "Ms": 9628,
  "Ġwater": 1664,
  "Ġoccur": 3277,
  "rad": 4277,
  "Ġvillage": 6948,
  "ĠSyri": 2495,
  "Ġagree": 2286,
  "iders": 3878,
  "vel": 610,
  "ĠPM": 4442,
  "xit": 8587,
  "ograph": 2252,
  "apers": 5203,
  "Ġcharges": 3975,
  "Ġcorpor": 3449,
  "gu": 4540,
  "i": 73,
  "aut": 2494,
  "iminal": 3362,
  "Ġpicking": 9836,
  "andom": 4522,
  "Ġelite": 7494,
  "orders": 6034,
  "real": 4846,
  "ĠSilver": 9481,
  "Ġforever": 8036,
  "Ġsurvive": 7466,
  "Ġjobs": 3139,
  "Ġhate": 4993,
  "oad": 1485,
  "Ġpoor": 3304,
  "ĠMrs": 9667,
  "Ġpurpose": 4428,
  "Ġrapidly": 8065,
  "Ġimplications": 9604,
  "Ġ20": 491,
  "Ġdict": 7543,
  "Ġrhet": 8750,
  "%.": 7555,
  "Ġem": 745,
  "Ġlists": 8216,
  "week": 9754,
  "Ġenem": 3919,
  "Ġmot": 2335,
  "Ġopportun": 2396,
  "ĠMond": 2589,
  "ĠIntern": 2241,
  "Ġsecondary": 9361,
  "ogn": 2269,
  "Ġsugar": 8265,
  "Ġelig": 8257,
  "CA": 7003,
  "ysis": 3104,
  "âĶ": 9385,
  "Fr": 6740,
  "Ġranked": 8457,
  "ĠUtah": 9080,
  "ys": 902,
  "Ġru": 7389,
  "gery": 6844,
  "Ġanything": 1911,
  "ĠMal": 4214,
  "Ġcareer": 2815,
  "Ġfrequency": 9578,
  "Ġfail": 1751,
  "alysis": 9853,
  "leveland": 8332,
  "idge": 3127,
  "phones": 8408,
  "Ġword": 1571,
  "ĠCup": 4255,
  "ered": 1102,
  "'d": 2984,
  "ification": 3015,
  "abinet": 8012,
  "Ġinvestigations": 9244,
  "ĠBut": 781,
  "Ġend": 833,
  "Ġstorage": 6228,
  "Ġreturning": 7341,
  "Ġskill": 6568,
  "efully": 6537,
  "Ġnarrow": 6766,
  "Ġmurd": 7229,
  "ators": 1945,
  "Ġexternal": 8147,
  "Ġcoach": 3041,
  "walk": 9309,
  "Ġhelicop": 9921,
  "Ġforward": 2379,
  "Ġpapers": 8536,
  "Ġsomeone": 2010,
  "Ġunion": 5099,
  "Ġearn": 5265,
  "ĠMex": 3685,
  "Ġcompetitive": 6513,
  "Ġknowledge": 3843,
  "ags": 4189,
  "Ġexpressed": 5389,
  "ceived": 6637,
  "Ġrevers": 9674,
  "Ġallowing": 4648,
  "ĠJohn": 1530,
  "Ġalways": 1379,
  "Ġmethod": 2789,
  "ı": 194,
  "Ġwanted": 2004,
  "oor": 2830,
  "Ġfigure": 3470,
  "Ġcl": 490,
  "ĠJack": 3464,
  "TR": 9945,
  "Ġinf": 1131,
  "Ġarr": 9997,
  "un": 361,
  "Ġdeputy": 8249,
  "ĠCBS": 8571,
  "Ġordinary": 8913,
  "Ġunderstanding": 4320,
  "Ġarchitect": 5912,
  "Ġopposition": 4179,
  "Ġgrowing": 3314,
  "Ġweekly": 9305,
  "oto": 1942,
  "Ġreg": 789,
  "Ġcutting": 7071,
  "Ġwent": 1643,
  "lands": 4414,
  "Ġorig": 1758,
  "Ġnovel": 4548,
  "ĠBitcoin": 5299,
  "twitter": 6225,
  "sen": 5468,
  "ĠCalifornia": 2958,
  "ct": 290,
  "ñ": 172,
  "Ġinterview": 2266,
  "emed": 9281,
  "ument": 1860,
  "Ġadministration": 2843,
  "ĠBBC": 5667,
  "Ġstory": 1410,
  "ê": 165,
  "%": 5,
  "ĠUlt": 8292,
  "Ġincident": 3835,
  "Ġlevels": 3069,
  "Ġon": 274,
  "Am": 5697,
  "ĠLab": 4369,
  "-": 13,
  "Ġfourth": 4804,
  "aka": 8549,
  "Ġgather": 5926,
  "Ġsuggests": 4944,
  "Ġfinance": 7690,
  "Ġaware": 3643,
  "atic": 1993,
  "du": 612,
  "Ġlearn": 3143,
  "Ġbaby": 5338,
  "Ġisn": 1877,
  "Ġinflu": 2740,
  "Ġunique": 3736,
  "Ġvisited": 7528,
  "Ġcaught": 4642,
  "orry": 6069,
  "pen": 4039,
  "Ġneutral": 7915,
  "Ġatt": 724,
  "Ġrein": 6209,
  "ĠJud": 4838,
  "Ġlaws": 2485,
  "Ġnetwork": 2783,
  "rote": 2030,
  "Ġadv": 1186,
  "ĠBell": 7053,
  "unt": 2775,
  "ĠDun": 7000,
  "Ġlayer": 8512,
  "ast": 430,
  "SC": 9946,
  "Ġwall": 3583,
  "í": 168,
  "craft": 3686,
  "Ġhandle": 5533,
  "gia": 6023,
  "Ġregul": 3147,
  "Ġrub": 6925,
  ">": 30,
  "ĪĴ": 7115,
  "Ġstay": 2466,
  "aterial": 2587,
  "ĠV": 602,
  "og": 482,
  "up": 856,
  "bur": 6044,
  "eless": 5081,
  "rows": 9495,
  "Ġflag": 5865,
  "cons": 5954,
  "Ġpremium": 8768,
  "Ġchosen": 7065,
  "Ġinterpret": 7369,
  "ĠDaily": 5618,
  "ing": 235,
  "ĠDist": 4394,
  "etts": 7925,
  "Ġ1995": 8766,
  "my": 1738,
  "Ġnow": 711,
  "Ġchange": 1353,
  "Ġchurch": 4421,
  "ls": 7247,
  "Ġsong": 2998,
  "ĠSociety": 6937,
  "Ġhelping": 5027,
  "ĠAPI": 8504,
  "Ġability": 2700,
  "Those": 7958,
  "Ġfully": 3799,
  "Ġcirc": 2447,
  "ceptions": 9552,
  "Ġrest": 1289,
  "TV": 5659,
  "Ġlowest": 8642,
  "Ġfootage": 7882,
  "its": 895,
  "Ġfamous": 5249,
  "ĠGM": 6161,
  "Ġenergy": 2333,
  "uls": 6008,
  "Ġ2002": 6262,
  "ĠNo": 1731,
  "Ġaccus": 8393,
  "uations": 5914,
  "Ġfinancial": 2723,
  "missions": 9930,
  "Ġbecause": 710,
  "</": 7194,
  "ĠSo": 1427,
  "There": 1605,
  "Ġrig": 7167,
  "Ġfing": 9479,
  "Ġregist": 5028,
  "ĠTO": 6160,
  "ĠCar": 1720,
  "Ġname": 1576,
  "Ġallow": 1196,
  "ĠFre": 7412,
  "ĠSky": 6315,
  "het": 3123,
  "rem": 2639,
  "ĠSch": 2884,
  "Ġprotests": 6299,
  "Ġletters": 7201,
  "eria": 9721,
  "Ġbo": 1393,
  "ĠEd": 2285,
  "Ġpromot": 3725,
  "Ġrise": 3910,
  "Ġclass": 1396,
  "ĠBob": 6291,
  "Ġprogress": 2993,
  "Ġcivilians": 8386,
  "Ġgent": 9488,
  "Ġbodies": 5728,
  "Ķ": 199,
  "Ġdramatic": 8520,
  ").": 790,
  "Ġess": 3028,
  "Ġdu": 6697,
  "Ġdise": 3730,
  "Ġjob": 1400,
  "Ġprices": 3947,
  "ĠF": 359,
  "Ġscheme": 6968,
  "ces": 685,
  "Ġelement": 5651,
  "ĠTechn": 5932,
  "cedented": 9679,
  "gn": 5033,
  "¦": 100,
  "Ġex": 362,
  "ĠStat": 8626,
  "Ġshell": 9937,
  "Ġ75": 6695,
  "Ġbow": 9971,
  "igate": 9743,
  "ati": 6730,
  "Ġspect": 4990,
  "Ġfiring": 9155,
  "Ġast": 5646,
  "Ġappearances": 9028,
  "Ġphil": 4751,
  "Ġ1996": 8357,
  "Ġago": 1844,
  "ĠEag": 8973,
  "ĠEgypt": 5264,
  "yr": 5470,
  "Ġsometimes": 3246,
  "ĠLind": 8191,
  "Ġcy": 2810,
  "ĠKorea": 4216,
  "Ġwoman": 2303,
  "aching": 7989,
  "ographic": 6632,
  "Ġplastic": 7311,
  "..": 709,
  "Ġwriters": 7334,
  "Ġprohib": 6324,
  "ospital": 3256,
  "be": 1304,
  "î": 169,
  "Ġcrisis": 3760,
  "ut": 268,
  "ich": 442,
  "case": 8436,
  "ĠThompson": 9984,
  "Ġranks": 8753,
  "atar": 9213,
  "ched": 1612,
  "Ġstere": 9867,
  "ĠCommun": 4431,
  "found": 8114,
  "Ġmark": 1183,
  "ĠMarsh": 8890,
  "ĠXbox": 8305,
  "Ġfunding": 3993,
  "ging": 2669,
  "ĠMatthew": 8423,
  "if": 324,
  "Ġrecommend": 4760,
  "ĠMen": 6672,
  "ĠMexico": 4840,
  "Ġmeasure": 3790,
  "Ġloyal": 8081,
  "Ġworker": 7562,
  "ĠDar": 7132,
  "iversary": 8281,
  "Ġjoke": 8847,
  "Ġrank": 4070,
  "rict": 1899,
  "ata": 1110,
  "ano": 5022,
  "Ġpace": 7506,
  "Ġshock": 7802,
  "les": 783,
  "ĠArt": 4493,
  "Ġtheat": 8465,
  "yes": 9631,
  "ÂŃ": 2878,
  "Ġimper": 7309,
  "Ġtickets": 8104,
  "erve": 3203,
  "ads": 7026,
  "Ġcur": 1037,
  "ix": 872,
  "ĠSoc": 3295,
  "Ġcompetition": 4516,
  "Ġceremony": 9502,
  "Ġdecline": 6536,
  "ĠIraqi": 8686,
  "dro": 6864,
  "eremy": 9736,
  "Ġunt": 1376,
  "Ġcar": 1023,
  "Ġvulner": 5393,
  "GA": 9431,
  "Ġwarrant": 8652,
  "Ġsyn": 6471,
  "Ġflying": 7163,
  "Ġsquad": 6466,
  "imm": 8189,
  "Ġdestroyed": 6821,
  "ĠFrancisco": 5217,
  "anted": 4561,
  "bn": 8286,
  "Ġcontext": 4670,
  "Ġhappened": 2743,
  "ĠCapital": 9681,
  "alled": 2995,
  "Ġvalues": 4065,
  "Like": 6669,
  "ably": 1251,
  "eals": 9526,
  "he": 215,
  "makers": 4958,
  "ĠSec": 1992,
  "Ġsk": 1446,
  "eared": 3128,
  "Ġpark": 3554,
  "Ġposition": 2204,
  "Ġever": 1560,
  "Ġsurveillance": 6689,
  "Ġtraff": 3821,
  "ika": 9282,
  "Ġlab": 2177,
  "Ġopponents": 6686,
  "Ġplatform": 3394,
  "Ġmanip": 7329,
  "Ġignored": 8917,
  "Ġsc": 578,
  "Ġit": 296,
  "Ġprogressive": 8116,
  "Ġshowed": 3282,
  "ality": 1504,
  "u": 85,
  "abet": 9913,
  "IS": 2109,
  "artment": 1645,
  "ĠPlease": 5440,
  "ĠAdam": 7240,
  "Ġeast": 6904,
  "ĠChampionship": 7254,
  "ĠConf": 7297,
  "idden": 5246,
  "acco": 9101,
  "Ġmilk": 8110,
  "Ġselling": 5353,
  "ĠLin": 5872,
  "ĠExt": 8689,
  "ancing": 4948,
  "Ġdates": 9107,
  "Ġspending": 3631,
  "ini": 5293,
  "Ġpicture": 4079,
  "Ġdrinking": 7356,
  "Ġca": 1799,
  "ious": 649,
  "ara": 3410,
  "Ġscheduled": 6085,
  "Ġfew": 1091,
  "ĠLuc": 8178,
  "ĠAfghan": 4706,
  "Ġgone": 3454,
  "em": 390,
  "urch": 1702,
  "Ġcertain": 1661,
  "Ġevil": 6961,
  "Ġincluding": 1234,
  "Ġvehicle": 4437,
  "Ġsought": 6214,
  "Ġpra": 6162,
  "ility": 878,
  "ml": 6426,
  "co": 1264,
  "Ġrecent": 1263,
  "ĠWat": 6792,
  "ciples": 7018,
  "Ġtorture": 9436,
  "lers": 7360,
  "Ġnews": 1326,
  "abin": 5784,
  "Ġcritical": 4140,
  "ĠEducation": 8031,
  "ies": 397,
  "ik": 1179,
  "Ġaged": 9712,
  "inte": 5312,
  "im": 279,
  "ĠBaltimore": 8657,
  "ĠOregon": 7628,
  "lling": 2009,
  "za": 4381,
  "Ġpal": 6918,
  "lam": 2173,
  "Ġback": 683,
  "ĠTen": 9531,
  "imately": 3085,
  "Ġproperty": 3517,
  "ĠTes": 9682,
  "Ġparty": 1849,
  "id": 267,
  "Ġsource": 2675,
  "Ġinformation": 1401,
  "Ġareas": 2811,
  "Ġessential": 6367,
  "ors": 617,
  "Ġliqu": 6681,
  "ĠCatholic": 6524,
  "Ġonce": 1707,
  "Ġenvironmental": 5041,
  "Ġpresidency": 9075,
  "ĠGovernment": 4917,
  "Ġidea": 1864,
  "Ġsympt": 7423,
  "ĠTrans": 4110,
  "Ġgrad": 3669,
  "orage": 5334,
  "Ġ400": 7651,
  "ĠLib": 6254,
  "ĠEff": 9642,
  "ĠStates": 1676,
  "reet": 2561,
  "irts": 9113,
  "orough": 7713,
  "Ġaffairs": 8397,
  "Ġ(âĢľ": 8901,
  "Ġlucky": 8737,
  "Ġexpanded": 8405,
  "oh": 1057,
  "Ġmill": 3361,
  "Ġproviders": 8514,
  "Ġrev": 2478,
  "ļ": 205,
  "Ġstolen": 8895,
  "anc": 1118,
  "Ġwho": 447,
  "ulf": 4593,
  "aron": 7310,
  "free": 5732,
  "Ġmal": 5745,
  "Ġtestimony": 9115,
  "ĠPaul": 2847,
  "Ġbreaking": 6312,
  "Ġ22": 2860,
  "Ġsovere": 9961,
  "ĠTexas": 3379,
  "Ġmar": 1492,
  "Ġlandscape": 9072,
  "Read": 5086,
  "Ġregional": 6544,
  "Ġcalls": 3370,
  "ĠJer": 4371,
  "Ġpast": 1449,
  "Ġunits": 5127,
  "Ġdoes": 828,
  "Ġpure": 6060,
  "amin": 6024,
  "Ġkept": 3853,
  "ount": 566,
  "Ġthought": 1743,
  "Ġexplain": 4448,
  "ĠControl": 8567,
  "Ġgreen": 4044,
  "atever": 3511,
  "Ġfarmers": 7993,
  "Ġpurchase": 5538,
  "Ġfound": 988,
  "Ġhighly": 3815,
  "Ġinvestigating": 8508,
  "atform": 3132,
  "iny": 3767,
  "Ġvan": 5885,
  "orous": 9176,
  "ĠWas": 9267,
  "Ġpopulations": 9141,
  "Ġrestrictions": 8030,
  "ĠCruz": 6694,
  "ĠMarx": 9823,
  "ood": 687,
  "ĠMusic": 8213,
  "Ġadmitted": 5888,
  "Ġcrime": 3728,
  "Ġprev": 1313,
  "Ġsector": 5347,
  "Ġregistered": 7306,
  "Ġpic": 7050,
  "Ġbacter": 8763,
  "Ġsurvival": 9191,
  "idered": 2982,
  "Ġoverall": 3687,
  "ĠManagement": 9777,
  "Ġdistributed": 8783,
  "ular": 1054,
  "Ġcat": 3421,
  "Ġdevast": 8234,
  "aska": 7753,
  "Ġinstead": 2359,
  "Ġ2010": 2672,
  "ĠSanta": 8363,
  "Ġcounty": 7385,
  "arden": 6264,
  "Ġdefault": 5706,
  "oney": 1247,
  "¥": 99,
  "irm": 2417,
  "Ġcircumstances": 6470,
  "war": 5366,
  "Ġinside": 2638,
  "Ġbec": 559,
  "ium": 1660,
  "Ġleaders": 2165,
  "Ġsays": 924,
  "ĠComp": 3827,
  "eth": 3072,
  "Ġhundred": 3221,
  "Ġside": 1670,
  "Ġassign": 9126,
  "ĠSince": 4545,
  "ĠKong": 8793,
  "ĠA": 287,
  "Ġincredible": 7253,
  "aid": 1931,
  "rodu": 2117,
  "Ġover": 548,
  "ita": 5701,
  "Ġwhole": 2144,
  "erc": 3232,
  "Ġoperations": 4138,
  "ĠEconom": 6569,
  "Ġneeded": 2304,
  "Ġtoward": 3462,
  "Ġmain": 1306,
  "Ġsevere": 5773,
  "Ġcreat": 1807,
  "Ġrepresentatives": 9241,
  "Ġmovement": 2932,
  "Ġbirds": 9596,
  "Ġsoon": 2405,
  "ô": 175,
  "Ġshoulder": 8719,
  "Ġdifferences": 5577,
  "89": 8165,
  "Ġchalleng": 3430,
  "acle": 6317,
  "Ġintroduce": 9206,
  "iot": 5219,
  "Ġsl": 1061,
  "Ġ3": 594,
  "cription": 7943,
  "plate": 8773,
  "Ġprocesses": 7617,
  "So": 2184,
  "anes": 6575,
  "Ġrul": 1906,
  "een": 9980,
  "ove": 624,
  "Ġinvol": 1675,
  "Ġstage": 3510,
  "Ġequipment": 5367,
  "Ġfac": 1603,
  "Ġexplore": 6778,
  "iment": 2887,
  "Ġhip": 9840,
  "aire": 7116,
  "Ġcreates": 7740,
  "Ġperspective": 5823,
  "dd": 2052,
  "Ġgains": 8715,
  "Ġbu": 754,
  "w": 87,
  "Ġstanding": 5055,
  "CC": 4231,
  "41": 5930,
  "Ġsubstant": 5834,
  "Ġ-": 622,
  "adem": 3479,
  "Ġbroke": 5401,
  "resh": 3743,
  "Ġcontrast": 5537,
  "ble": 862,
  "ump": 761,
  "Ġwithdraw": 7865,
  "Ġappl": 4091,
  "Ġlot": 1103,
  "Ġconcluded": 7237,
  "Ġcateg": 4611,
  "ition": 619,
  "port": 565,
  "thing": 1153,
  "Ġbrut": 7632,
  "79": 8606,
  "Ġdirector": 2708,
  "noon": 5421,
  "Ġsens": 3124,
  "Ġdisag": 6861,
  "ĠEnter": 6797,
  "Ġsupport": 1016,
  "ond": 575,
  "07": 6668,
  "Ġfoods": 9892,
  "Ġthen": 772,
  "Ġcompar": 4610,
  "iant": 3059,
  "ul": 334,
  "Don": 3727,
  "Ġexceed": 8126,
  "Ġlo": 2464,
  "ĠQu": 2980,
  "Ġhappens": 3970,
  "esty": 8905,
  "ĠPremier": 7904,
  "ĠRepublic": 1523,
  "ness": 1122,
  "interest": 7956,
  "inf": 8079,
  "hers": 1869,
  "Ġcompared": 3582,
  "Ġliter": 3917,
  "ĠThanks": 7335,
  "8": 24,
  "ó": 174,
  "S": 51,
  "haps": 2521,
  "Ġincor": 6097,
  "uch": 737,
  "Ġteam": 861,
  "ĠBang": 8701,
  "archy": 9081,
  "Ġanaly": 3708,
  "ĠBase": 9262,
  "Ġmut": 5155,
  "onom": 5443,
  "icro": 2480,
  "Ġtogether": 1861,
  "Ġconfidence": 5799,
  "TC": 5031,
  "enth": 7795,
  "Ġap": 2326,
  "icles": 3063,
  "owing": 8075,
  "Ġfamilies": 3678,
  "Ġprinciple": 7781,
  "ĠRes": 2263,
  "Ġviews": 4469,
  "Ġnewly": 7314,
  "net": 3812,
  "Ġprotect": 2123,
  "arters": 6041,
  "enses": 4869,
  "terday": 5326,
  "ĠEuropean": 2869,
  "Ġsets": 5764,
  "Ġpersu": 9470,
  "Ġattended": 7475,
  "Ġpig": 9251,
  "Ġhur": 6442,
  "Ġturning": 5586,
  "ĠFront": 9134,
  "usted": 8151,
  "Ġbut": 433,
  "IN": 1932,
  "Ġeffective": 4210,
  "Ġparts": 3320,
  "ĠSte": 1690,
  "ately": 1226,
  "Ġcrucial": 7305,
  "Ġneuro": 7661,
  "ĠIns": 6875,
  "arch": 942,
  ">>": 5570,
  "aling": 5509,
  "Ġslightly": 4913,
  "ĠTenn": 8250,
  "lete": 7803,
  "ishing": 2937,
  "ormal": 8997,
  "obe": 5663,
  "Ġbonus": 9089,
  "iy": 8098,
  "ource": 3601,
  "19": 1547,
  "ĠWill": 2422,
  "Ġconclus": 5339,
  "repre": 8518,
  "ample": 1432,
  "Ġimproved": 6172,
  "hent": 7458,
  "rog": 5447,
  "Ġhar": 3719,
  "dney": 9016,
  "Ġallowed": 2898,
  "aby": 4067,
  "Ġassess": 4794,
  "ki": 3822,
  "itors": 6148,
  "Ġultimate": 8396,
  "ĠOtt": 8007,
  "Ġemail": 2839,
  "Ġmarch": 8896,
  "witch": 4358,
  "ĠWind": 3656,
  "Ġestablish": 4709,
  "rug": 1928,
  "ĠIranian": 8604,
  "Ġsociety": 3187,
  "ĠMay": 1608,
  "Ġwhy": 1374,
  "Ġintelligence": 3798,
  "ĠâĢĿ": 9136,
  "onto": 4801,
  "ĠEp": 7416,
  "Ġtou": 2710,
  "ĠAssembly": 9771,
  "ĠAs": 1066,
  "Ġpopulation": 2959,
  "js": 9643,
  "Ġconsult": 5305,
  "eland": 8432,
  "Ġguess": 4699,
  "Ġgreatest": 5457,
  "ĠCollege": 4963,
  "Ġshooting": 3893,
  "Yet": 9160,
  "sylv": 7969,
  "Ġaut": 1952,
  "Ġsignificantly": 5451,
  "Ġstudied": 8875,
  "door": 8974,
  "Ġdrug": 2282,
  "ĠSl": 4566,
  "ĠCenter": 3090,
  "Ġdeal": 1516,
  "ĠNorth": 1996,
  "Ġestimated": 5274,
  "Ġprevent": 3142,
  "Ġenforcement": 4743,
  "37": 4643,
  "ĠChristmas": 5976,
  ".": 14,
  "ĠCheck": 8548,
  "EP": 7765,
  "pro": 1865,
  "Ġelev": 7553,
  "Ġhon": 2844,
  "bers": 1116,
  "ĠSov": 5948,
  "Ġ150": 7563,
  "Ġbrill": 8448,
  "SP": 4678,
  "Ġlaun": 3886,
  "Ġbecoming": 4344,
  "Dav": 8046,
  "Ġreleases": 9393,
  "ĠCall": 7584,
  "ogy": 9934,
  "Ġspec": 1026,
  "Ġinvited": 8241,
  "Ġactivities": 4628,
  "Ġquarter": 3219,
  "Ġprocedures": 9882,
  "ĠColumbia": 8407,
  "Ġminor": 3829,
  "ĠGl": 2819,
  "Ġexplained": 4274,
  "Cont": 5786,
  "ances": 1788,
  "don": 9154,
  "Ġworried": 6892,
  "rior": 9958,
  "Ġassessment": 8981,
  "Ġthem": 561,
  "Ġcoll": 2647,
  "Ġ99": 9845,
  "ĠPatri": 8770,
  "istry": 4096,
  "ALL": 9792,
  "Ġdialogue": 9546,
  "Ġstreng": 3661,
  "ulations": 5859,
  "Ġpar": 1586,
  "Ġscrut": 9872,
  "ĠiP": 8429,
  "aed": 7485,
  "Ġvo": 2966,
  "If": 1527,
  "Ġtroops": 5315,
  "ĠUr": 9304,
  "Ġresource": 8490,
  "Ġgoals": 3769,
  "it": 227,
  "ĠMur": 5290,
  "Ġfather": 2866,
  "Ġchemical": 5486,
  "Ġ21": 2838,
  "Ġversus": 8352,
  "Ġfab": 8311,
  "Ġcut": 1797,
  "ĠLeague": 3374,
  "aim": 1246,
  "Ġliterature": 8911,
  "ĠPe": 2542,
  "Ġc": 226,
  "Ġtest": 1317,
  "ue": 496,
  "ĠCongress": 2580,
  "agan": 6369,
  "hips": 6404,
  "ee": 1684,
  "ak": 427,
  "Ġsupp": 741,
  "Ġhaving": 1627,
  "Ġan": 238,
  "Ġ34": 6585,
  "ume": 2874,
  "ĠCooper": 9116,
  "Ġman": 524,
  "ĠFar": 6398,
  "Ġmoon": 8954,
  "conom": 1236,
  "Ġencoun": 5712,
  "month": 7579,
  "ĠFebruary": 3273,
  "ifies": 7689,
  "ius": 4585,
  "Ġtype": 2622,
  "press": 6384,
  "ocracy": 4759,
  "Ġconfront": 6910,
  "Ġincreased": 3348,
  "Ġnarr": 6761,
  "ĠPent": 8419,
  "Ġexcept": 3224,
  "Ġ8": 1075,
  "President": 8032,
  "alle": 6735,
  "Ġcry": 4028,
  "uable": 6627,
  "!<|": 7456,
  "Ġestab": 2683,
  "Ġthat": 273,
  "Ġcharged": 4497,
  "cial": 2456,
  "ĠGetty": 8754,
  "ĠPri": 4586,
  "Ġwide": 2893,
  "ĠKe": 3174,
  "Ġsil": 3496,
  "Ġrout": 4747,
  "Ġjustice": 4690,
  "Ġby": 374,
  "11": 1582,
  "RS": 8018,
  "Ġcele": 3391,
  "68": 6555,
  "Ġsixth": 9993,
  "Ġal": 381,
  "ighters": 5524,
  "Ġtrave": 8984,
  "hod": 2410,
  "ston": 3461,
  "Ġproviding": 4757,
  "Ġsen": 2615,
  "asters": 7124,
  "orth": 1355,
  "Ġcorrespond": 6227,
  "inating": 9180,
  "row": 770,
  "ĠInstead": 4776,
  "Ġfinished": 4841,
  "ova": 9534,
  "Ġattacking": 8399,
  "Ġsupplies": 9040,
  "ortun": 1724,
  "Ġvisit": 2926,
  "Ġ23": 2962,
  "ĠIllinois": 8605,
  "add": 3264,
  "Ġforget": 5829,
  "Ġje": 8530,
  "ĠHy": 5990,
  "Ġdefeated": 9657,
  "Ġassum": 4315,
  "Ġdefin": 2733,
  "Ġ1980": 5987,
  "Ġcreate": 2125,
  "ĠReport": 7988,
  "Ġkids": 3404,
  "Ġskept": 8987,
  "Ġdiv": 2609,
  "Ġrefused": 5399,
  "Ġmur": 4236,
  "Ġtransp": 6973,
  "ĠWithout": 8817,
  "ried": 2142,
  "Ġhero": 4205,
  "Ġscientist": 9218,
  "Ġcommer": 4001,
  "Ġelected": 5407,
  "shire": 9012,
  "Ġdefending": 9812,
  "Ġprocessing": 8006,
  "omet": 847,
  "Ġparticular": 2951,
  "ĠWood": 5909,
  "ĠId": 7248,
  "ft": 686,
  "Ġwidely": 5642,
  "Ġresp": 1124
}